#version: 0.2
á »
n g
á º
Ġ t
Ġ c
Ġ Ä
ĠÄ ĳ
n h
Ã ł
Ġ v
Ã ¡
Æ °
i á»
Ġt h
Ġ h
Ġ k
Ġt r
Ġ l
Ġc h
áº ¿
Æ° á»
Ġ s
ĠÄĳ á»
Ġ g
Ġ m
áº ¡
Ġ b
áº £
iá» ĩ
Ã ´
Ġ d
Ġ nh
Ġk h
Ġv Ãł
p h
Ġ ng
Ġ n
Ġ ph
Ã ª
á» ĳ
Ã ¢
Ã´ ng
Ġg i
Ġv á»
Ġ T
á» Ļ
áº ¥
Ã¡ c
Ġt á»
áº §
q u
Ġ qu
Ã ³
Æ ¡
á» ±
Ä ĥ
Ãª n
á» §
Ġ x
i áº¿
áº Ń
Ġ N
á» ĭ
Ľ i
Ã Ń
Æ°á» Ŀ
Ã £
Ġ C
u y
Ã¢ n
Æ°á» £
a n
á» ©
o ng
áº¥ t
Ġ r
Ã ¬
ĵ ng
áº¡ i
iá»ĩ n
áº§ u
iá» ģ
Ġc á»§
a o
Ġcá»§ a
Ġc Ã¡c
c h
Ġh Ãł
Ã¡ n
Ġh á»
á» Ł
Äĥ ng
Ġvá» Ľi
Ġ V
ĠÄĳá» ĵng
ĠÄĳ Ã£
Ġtr ong
Ã¬ nh
i nh
Ġ H
Æ°á»Ŀ ng
Ġ B
iá» ĥ
Ġ 1
áº£ n
Æ°á» Ľ
Ġ 2
Ġl Ãł
Ãł y
á»© c
a nh
Ã º
á» ¥
ĠÄĳá» Ļ
Ġng h
áº ¯
Æ° Æ¡
ĠÄ Ĳ
Æ°Æ¡ ng
iá»ģ u
a m
u ng
Ġ M
áº§ n
i Ãªn
Ġc Ã´ng
Æ°á»£ c
a i
Ġc Ã³
Ġth u
Ġch o
a ng
ĠÄĳ Æ°á»£c
Ġgi áº£
Ġl á»
Ġ L
ĠT h
á» ĥ
áº¿ n
Æ°á»Ľ c
Ã ½
iáº¿ n
áºŃ n
o Ãł
Ġgi Ã¡
Ã ²
ÃŃ nh
á» ķ
ĠT r
iá»ĩ u
Ġkh Ã´ng
Æ°á»Ŀ i
Ġd á»±
Ġtá» «
iá»ĩ c
ĠÄĳ áº§u
ĠhÃł ng
á»ĳ c
Ã¡ t
Ãł nh
0 0
Ġ P
ĠÄĳá» ĭ
Ã ¹
áº ·
ĠÄĳá» ĥ
á»± c
Ġt Äĥng
Ġg iá»
Ġng Æ°á»Ŀi
Ã¢ y
Ġvá» ģ
Ġd o
Æ¡ n
ĠÄĳá»Ļ ng
á»Ļ t
á»Ļ i
á» Ń
Ġt Æ°
ĠvÃł o
oÃł n
iá»ĩ t
ĠvÃł ng
ĠC h
u áº¥t
Ġv iá»ĩc
áº¡ t
i n
Äĥ m
ĠN g
Ġqu y
Ġ S
á»ĳ ng
á» ¯
á»ĳ i
a y
Ãł i
Ġr a
áº¿ t
Å ©
áº£ i
ĠÄĳ áº¿n
Ġs á»±
Æ°á»£ ng
á» į
Ġ U
á» ĩ
Ġt áº¡i
áº ©
ĠÄĳá»ĭ nh
Ġ á»Ł
á» ¹
Ġ Q
Ã¡ o
Ã¡ ng
Ġnh Ã¢n
Ġn Ãły
iá»ĥ n
Ã¡c h
Ġtr Æ°á»Ŀng
Ġ Ã¡n
á» Ŀ
áº£ o
Ġc ao
Ġm á»Ļt
áº¥ p
Ġnh Æ°
Ġkh i
áº ½
Ã¡ p
a u
áºŃ p
Ġh iá»ĩn
ĠP h
ĠN am
Ġgiáº£ m
á» ī
Ġ G
Ġh o
áºŃ t
Ġqu an
ĠhÃł nh
Ġm áº¡
Ġngh iá»ĩ
Ġt iáº¿
Å© ng
Ġch ÃŃnh
Äĥ n
Ġs á»ĳ
Ġn Äĥm
Ġ D
áº ±
Ġ 3
ĠQ u
á» ģ
Ġs áº½
Ġ -
Ġtá» ī
Ġc Å©ng
Ġk inh
áº «
Ġs áº£n
Ġ2 0
á» ĵ
Ġth á»ĥ
Ġch uy
Ġtr iá»ĩu
Ġn Æ°á»Ľc
Ġd á»¥
Ġth Ã´ng
Ġtr iá»ĥn
Ġ A
Ġx uáº¥t
Ã ©
ĠÄĳ ang
áº¡ o
Ġgi a
i Ãª
Æ° a
Ġdo anh
á»ĭ ch
á»Ŀ i
Ġ K
Ġm u
iá»ĥ m
Ġl Ã½
Ġnh Ãł
Ġkh o
Ġc Æ¡
Ġph Ã¡t
Ġt áº¿
Ġtr Ãªn
ĠÄĳá» ģ
e o
áº¡ n
Ġdá»¥ ng
Ġth Ãłnh
Ġnghiá»ĩ p
ĠÄĳ Ã³
Ġm á»
Ġnh iá»ģu
Ġch á»ī
ĠN h
Ġh Æ¡n
Ġc áº§u
áº£ ng
áº« n
Ġ (
Ã¡ i
S D
á»¥ c
Ã¹ ng
Ġng Ãły
Ġb Ã¡n
Ġtá» ķ
Ġmáº¡ nh
Ġhá» į
Ġth á»ĭ
á»Ļ c
£ p
Æ°á» Ł
ĠÄĳ iá»ĩn
Ġgi ao
ĠU SD
Æ°á»Ł ng
i Ã¡
Ġmu a
Ġc u
ĠV iá»ĩt
Ġb á»ĭ
Ã¢ m
Ġlá» Ľ
Ġm á»©c
áº¥ n
Ġc áº¥p
ĠÄĳá» ĳ
ĠÄĳ Æ°á»Ŀng
Ġhá» £p
Ġl Æ°á»£ng
ĠC Ã´ng
iá»ģ n
áº± ng
iáº¿ t
á»ģ n
o n
ĠM á»¹
á»¯ ng
áº¡ m
Ġd Ã¢n
Ġgiá» ¯
Ġ 4
Ġx e
Ġthu áº¿
ĠÄĳ iá»ģu
á»© ng
Ġlá»Ľ n
á» ı
á»ĥ n
Ġvá» ¥
Ġtiáº¿ p
Ä ©
Ġth Æ°Æ¡ng
Ġnh á»¯ng
Ã³ a
ħ n
Ġs au
ÃŃ ch
Ġgiá» Ľi
ĠÄĳá»ĳ i
Ġth á»Ŀi
Ã¡ nh
ĠT P
Ġch á»©c
Ġh á»Ļi
áº· c
Ã´ i
áº¯ t
Ġl á»±c
Ãº c
á» ĵng
Ġt y
Ġ 6
Ã² n
Ġt u
Ġtr Ã¬nh
Ġt áº¡o
Ġc áº£
Ġ 5
Ġth áº¿
Ġl Ãªn
Ġs o
Ġs á»Ń
áº¯ c
Ġt oÃłn
Ġs inh
Ġd á»ĭch
Ġth Ã¡ng
Ġb Ã¡o
Ġnh áºŃn
áº¡ ch
Ġqu áº£n
C M
Ġ Ã
Ġth á»±c
Ġb á»Ļ
áº· t
Ġth á»ĳng
Ġkh u
Ġqu a
Ġ y
Ġt Ãłi
Ġkh Ã¡ch
Ġ an
Ġh Ã¬nh
Ã² ng
Ġdá»± ng
ĠlÃł m
Ġchuy á»ĥn
Ġt in
Ġn Äĥng
Ġtá»ī nh
Ġtr Æ°á»Ľc
ĠÄĳá» ķ
Ġx Ã£
uy Ãªn
ĠQu á»ĳc
e n
Ġph Ã¡p
Ġgiáº£ i
Ġmá» Ľi
Ġth eo
± c
Ġk áº¿t
Ġb áº£o
á»ĳ n
Ġvá» ±c
á»Ļ ng
Ġtá» ¥
Ġ20 2
Ġh Ã³a
Ġtr á»ĭ
t h
Ġc áº§n
ĠC Ã¡c
Ġquy áº¿t
Ġt Ã¡c
Ã´ n
Æ°á»Ľ ng
Ġch i
Ġnh áº¥t
Ġ Ã´ng
Ġc Ã²n
Ġ '
ĠTr ung
Ġl áº¡i
Ġt iá»ģn
Ġh á»Ļ
Ġph ÃŃ
ĠÄĳá»ķ i
Ġtá»¥ c
á» £
Ġch á»§
Ã¢ u
00 0
Ãł ng
Ġng Ã¢n
Ã³ ng
á» «
ĠÄĳ áº¥t
iá»ĩ m
Ġt Ã¢m
ĠK h
2 0
o u
Ġqu á»ĳc
á»ķ i
Ġhá»į c
Ġk iáº¿n
iÃª u
á»į ng
ĠÄĳ iá»ĥm
iáº¿ u
Ġho áº¡t
Ġv i
Ġh áº¡
Ġph áº£i
Ġx Ã¢y
áº© m
Ġl u
Ġch ung
Ġk á»
H CM
Ġgiá»¯ a
Ã¡ y
Ġtr á»įng
Ġph Æ°Æ¡ng
Ġtá»ķ ng
Ġl iÃªn
Ãª u
Ġc Æ°
Ġh oÃłn
Ġcu á»Ļc
áº »
Ġth am
e s
N g
Ãł n
Ġh iá»ĩu
Ġm áº¡i
Ġkh ai
Ġph áº¡m
Ġtá» ·
uy áº¿n
Ãº p
Ĺ i
Ġl o
uy á»ĩ
T h
e t
Ãł o
Ġv áº«n
Ġph áº¡t
Ã£ i
ĠnhÆ° ng
Ġ Ã½
Ġt iÃªu
áº£ nh
Ġtá» ±
ĠB á»Ļ
áº£ m
Ġgi Ãºp
Ġh ai
Ġt Ã¬nh
ĠG iÃ¡
Ä ĳ
Ġt ÃŃch
Ġtr ung
Ġb áº±ng
Ġx u
£ i
Ġ Ã¡p
iá»ĥ u
Ġth á»§
ĠcÃ¡c h
ĠH Ãł
a r
Ä Ĳ
Ġc Ã¹ng
Ġkh iáº¿n
Ġvá» ĭ
Ġ1 1
ĠÄĳá»ĭ a
e r
Ġc Ã¡o
iá» ħn
Ġgi an
Æ° u
Ġkh Ã¡c
Ġng Ãłnh
Ġph áº©m
Ġ 7
Ġnh áºŃp
Ġph áº§n
Ġhá» ĩ
ĠÄĲ á»ĵng
Ġlá» £i
Ġv iÃªn
Ġkho áº£ng
« a
Ġc á»ķ
ĠÄĳ o
Ġm Ãł
Ġm á»Ł
Ġkh áº©
Ġth á»©c
Ġd Ãłi
Ġr áº±ng
á»ĵ n
J C
Ġ X
Ġt á»ĳ
Ġtr á»Ł
Ġb áº¥t
Ġch áº¿
Ġs uáº¥t
áº¥ u
Ã² a
a l
h á»ĭ
ĠÄĳ Æ¡n
Ġv á»ĳn
Æ¡ i
ĠS JC
Ġm áº·t
Ã¢ ng
á»Ł i
Ãº t
ĠÃ Ķ
N D
Ġ 9
áº ¹
Ġm Ã¡y
áº¥ y
Ġ 8
Ġc Äĥn
ĠÄĳ i
Ġl iá»ĩu
Ġch áº¥t
ÃŃ n
Ġr á»Ļng
áº¯ ng
Ġquy á»ģn
ĠD á»±
. .
Ã µ
ĠÄĳ áº¡i
Ġv áºŃn
Ġth i
Ġn ay
Ġy Ãªu
Ġ á»©ng
á» ħn
Ġt iáº¿n
ĠÄĳ áº£m
Ġk iá»ĥm
Ġs Ã¡ch
uy á»ħn
ĠM inh
Ġkháº© u
ĠÄĳ Æ°a
Ġm Æ°a
i m
Ġt áº§
Ġt iÃªn
Ġg Ã¢y
Ġnh iÃªn
iáº¿ ng
Æ°á»£ t
Ġxu á»ĳng
u á»ĵn
Ġc Ã¡
ĠÄĳ oÃłn
Ġtr Æ°á»Łng
Ġtr á»£
áº¿ u
Ġg áº§n
Ġb á»ĳ
ĠV i
Ġngh á»ĩ
ĠG i
Ġkh Ã³
Ġn Ã¢ng
Ġqu Ã½
Ġx á»Ń
20 2
ĠÃĶ ng
Ġtr a
á»ķ ng
Ġká» ³
T r
ĭ ch
áº¡ c
Ġtá» ĭch
iÃª ng
Ġcu á»ĳi
Ä© nh
o m
Ġt á»ĳc
ĠCh ÃŃnh
ĠNg uyá»ħn
Ġho áº¡ch
uyá»ĩ n
c e
Ġk áº¿
Ġch iáº¿n
Ġkh ÃŃ
an k
Ġlu áºŃt
Ġt áºŃp
Ġs á»Ł
Ġm iáº¿ng
áº¡ ng
Ġb ay
Ġb iáº¿t
Ġph iáº¿u
ĠN á»Ļi
ĠB Ã¬nh
Ġngh á»ĭ
Ġtiáº¿ t
Ġtu áº§n
Ġ E
Ġ áº£nh
Ġl ao
Ġtá» Ń
Ġqu áº£
Ġhá» ĵ
Ġchuy Ãªn
á» Ĺ
Ġh Æ°á»Ľng
Ġd iá»ĩn
³ ng
áº ³ng
Ġc á»©
Ġk iá»ĩn
Ġtr ÃŃ
Ġch á»©ng
Ġg Ã³
Ġnh u
Ġng uá»ĵn
oÃł i
áº± m
Ã© t
Ġmá» Ĺi
h i
s t
Ġt uyáº¿n
Ġs á»©c
Ġd áº«n
Ġnh iá»ĩm
ĠTr ong
ĠCh á»§
Ġtu á»ķi
Ġt ÃŃnh
Ġh Æ°á»Łng
Ġs á»ĳng
Ġhá» Ĺ
ĠÄĳ áº¡t
Ġv áº¥n
Ġth iáº¿t
Ġb iáº¿n
Ġng uyÃªn
áº¯ n
á»ĩ nh
ĠA n
B ND
Ġch u
Ġb iá»ĩt
Ġnh áº¥n
ĠV iá»ĩc
Ãº ng
ĠÄĳo áº¡n
Ġ Ã´
Ġc ung
ĠÄĳ Ã¡nh
Ġtr anh
Ġkh á»ı
Ãª m
Ġho áº·c
Ġkho áº£n
e d
Ġch iá»ģu
Ġg á»ĵ
Ġ1 0
áº© y
Ġgá»ĵ m
G iÃ¡
i ng
Ġkh á»Łi
Ġph Ã¢n
á»į c
áº© n
á»« ng
Ġ R
Ġt Æ°Æ¡ng
Ġt Æ°á»£ng
ĠÄĳ áº©y
Ãł m
Ġk á»¹
Ġb an
Ġd iá»ħn
Ġtá» Ľi
Ġlá» ĩ
Ġcá»© u
Ġt ÃŃn
Ġl á»ĭch
Ġb ao
Ġn á»ĳi
ĠÄĳá»ģ u
ĠÄĳ áº¡o
Ġqu Ã¢n
ĠH á»ĵ
g i
Ġnh áº±m
Ġx Ã¡c
Ġ1 9
Ġtáº§ ng
u áº¿
Ġ F
ĠÄĳ áº·c
Ġl áº§n
áº¡ nh
Ġkh Äĥn
Ġnghiá»ĩ m
Ã© p
p e
Ġtr Ã¬
Ġl á»Ļ
Ġl áºŃp
Ġm Ã´
Ġm á»¥c
áºŃ u
áº¯ m
Ġ202 5
o áº¡i
Ġh uyá»ĩn
Ġm ang
ĠT uy
Ġr iÃªng
Ġthu áºŃn
ou n
Ġh áº¡n
Ġb Ã¬nh
Ġph á»¥c
Ġvá» ĩ
Ġr Ãµ
á»į n
ĠPh Ãº
ĠNh Ãł
Ġcáº£ m
o r
Ŀ i
Ġt o
ĠÄĳ a
ĠÄĳ Ã´
Ġv Æ°á»£t
Ġd uy
Ġn áº¡n
Ġn Æ¡i
Ġvá» «a
ĠT á»ķng
Ġqu Ã¡
Ġthu áºŃt
oun ce
T P
ĠÄĳ Ã¬nh
Ġth Æ°
Ġtr ang
Ġch Æ°a
Ġkh áº£
Ġn Ãªn
5 0
e l
Ġc á»ĳ
Ġth Æ°á»Ŀng
Ġk Ã½
Ġb áº¯t
Ġd u
Ã³ i
ĠV in
Ġc on
ĠÄĳ áº£o
ĠÄĳ Ãłm
Ġs Ã¡ng
áº£ y
Ġd anh
áº¯ p
áº· p
202 5
ĠgÃ³ p
Ġv Äĥn
Ġch iáº¿
Ġm inh
Ġb áº£n
á»ķ n
Ġcáº£ nh
ĠVi et
Ġ Y
Ġ á»ķn
Ġth iá»ĩn
Ġg áº·p
Ġb iá»ĥu
Ġhá» ı
Ġ2 6
ĠTh á»§
á»į i
Ġso Ã¡t
i a
Ġt Æ°á»Ľng
Ġvá» į
Ġkhá»ı e
C h
b ank
u m
Ġv Ã¬
Ġth áº¥y
Ġth Ãªm
Æ°á» ¡
Ġb á»ĩnh
uy á»ģn
ĠU BND
á» Ľi
Ġt á»Ļi
Ġv áºŃt
Ġth áº¥p
Ġl Ä©nh
Ġs Ã¡t
Ġph Ã²ng
Ġx áº¿
ÃŃ t
Ã© o
Ġkho Ã¡n
ĠNh áºŃt
Æ°á»¡ ng
i c
Ġc á»¥
ĠÄĳ Ã¡
Ãł u
Ġth Ãºc
Ġs áº¯t
ĠÄĲ Ã¢y
ĠCh ÃŃ
ĠNg há»ĭ
Ġ202 4
e m
g iÃ¡
Ã ¨
Ġth ay
Ġs Ã¢n
Ġs ang
Ġng uy
Ã³ m
á»¯ a
Ġvá»į ng
c om
l Æ°á»£ng
áº µ
Ġtr áº¡ng
Ġl Ã£i
Ġch á»ĭ
ĠH áº£i
Ġ1 2
Ġ2 5
ĠÄĲ Ã´ng
ĠTr áº§n
ĠA nh
iÃª m
r o
Ġt á»ĳi
Ġth á»©
Ġg á»Ń
Ġd i
Ġd Ã¹ng
Ġph á»ĳ
Ġph á»§
Ġph Ã¡n
ĠL ong
Ġ6 8
Ġchu áº©n
Ġgá»Ń i
) ,
n e
ĠÄĳ Ã¡ng
Ġk m
Ã£ nh
ĠB áº£o
ĠTr um
a t
Ġt Ã´
Ġc á»Ļng
Æ° ng
Ġl Æ°u
Ġg hi
Ġb á»ı
Ġmáº¡ ng
Ġ3 0
Ġchá»ī nh
com bank
3 0
Q T
k r
u á»Ļc
Ġtr Ã¡ch
Ġd áº§u
Ġnh anh
Ġph á»ĳi
iá»ģ m
Ġ1 00
ĠÃ ģ
Ġká» ·
.. .
' .
t r
ĠÄĳ Äĥng
ĠÄĳ Ã¢y
Ġv Ã¹ng
Ġch á»įn
Ġb áº¡c
ĠB áº¯c
Ġ1 5
ĠÄĳÃ³ ng
Ġchi a
i t
Ġth áº£o
Ġh Ã²a
Ġtr á»±c
Ġs Æ¡
Ġm Ã¬nh
Ġb Æ°á»Ľc
Ġn Ã³i
Ġx anh
ĠÄĳá»Ļ i
Ġlá» ħ
ĠL an
oÃł ng
ĠNg a
Ġxe m
Ġlo áº¡i
Ġto Ã¡n
Ġ anh
Ġt Æ°á»Łng
Ġc á»±c
Ġc áº£i
Ġm áº¥t
Ġb á»ķ
Ġnh áº«n
Ġn á»Ļi
á»ĭ p
ĠB Ã¡c
ai ne
ĠL iÃªn
Ã¹ a
Ã¹ y
á»Ń a
Ä© a
es t
Ġ I
Ġc áº¡nh
Ġth Ã¡i
Ġch Ãº
ĠÄĳá» ©
iá»ĩ p
Ġvá» ¯
Ġx Ã©t
uy á»ĥn
ĠQu áº£ng
á»ĵ i
kr aine
B á»Ļ
ĠÄĳ Ãºng
Ġth anh
Ġk iá»ĩm
Ġs Ä©
Ġs Ã¢u
Ġm Ã´i
Ġb a
Ġb Ãªn
Ġph Ã©p
Ġgi ai
á»Ļ p
áº§ y
ĠÄĳá»Ļ t
ĠÄĲ á»©c
ĠÄĲ iá»ģu
ĠTh Ãłnh
ĠTh eo
Ġháº¡ ng
i r
Ġt Ã¬
Ġt iá»ĩn
ĠÄĳ áº·t
ĠÄĳ áº¥u
Ġth Ã¢n
Ġh Ãºt
Ġtr áº£i
Ġtr Ã¡i
áº§ m
ĠB an
ĠÄĲ Ãł
Ġlá» «a
Ġvá»¯ ng
ĠtÃ¬ m
P h
i l
r ou
u Ã´i
Ġt ai
Ġc Æ°á»Ŀng
Ġh áºŃu
Ġk Ã©o
ĠÄĳá» §
Ġb iá»ĩn
Ġn á»ģn
Ġn á»Ļp
áºŃ m
ĠH CM
ĠB QT
Ġ1 7
Ġthu Ãª
ĠL Ã¢m
ĠTh á»ĭ
ĠS au
Ġtiáº¿ ng
Th eo
o anh
Ġ Æ°u
Ġt áº£i
Ġk á»ĥ
Ġm iá»ģn
Ġnh iá»ĩt
Ġnh Ã³m
Ġph ong
Ãª nh
Ġvá» £
Ġx Äĥng
Ã£ ng
ĠTh anh
ĠTrum p
á» Ľ
Ġv ay
Ã¡ m
Ġb Ã³ng
Ġb Ãłn
Ġng oÃłi
Ġph Ã³ng
ĠN ai
ĠH Ã²a
ĠL o
ĠU kraine
ĠPh Ã³
ĠPh áº¡m
á»ı a
Ġsá»Ń a
Ġy áº¿u
uyá»ĩ t
Ġhá»ĵ i
u n
Ġ á»§
Ġt inh
Ġt Ãº
Ġth Ã¬
Ġtr Ã²
Ġtr Ã¡nh
Ġm a
Ġb iá»ĥn
Ã³ c
ĠV Äĥn
ĠV á»Ľi
Ġlá» Ŀi
ĠNg h
Ng há»ĭ
Ġxáº¿ p
rou p
) .
1 9
â Ģ
Ġc áºŃn
Ġh uy
Ġs ung
Ġm Ã´n
Ġd Ã¹
Ġd uyá»ĩt
Ġkh uyáº¿n
Ġng oáº¡i
Ġph Ãª
ĠN áºµ
Ã¬ n
Ġ1 6
ĠTh Ã¡i
Ġmu á»ĳn
Ġlu áºŃn
Ġtá»ĳ t
Ġchá»ĭ u
ĠNáºµ ng
k h
l a
Ġt áº¥n
Ġc am
ĠÄĳ ai
Ġtr á»¯
Ġtr uyá»ģn
Ġch áº¥p
Ã´ m
Ġx áº£y
ĠC á»¥c
Ġr áº¥t
ĠM au
Ġgiá» Ŀ
th á»ĭ
Ġhá»ı i
Ġc Ã¢y
ĠÄĳ áº§y
Ġv iáº¿t
Ġch Æ°Æ¡ng
Æ°á» Ľi
Ġs áº¯c
Ġg á»įi
Ġm áº½
Ġm Ã¹a
Ġb Ãł
á»ĳ t
ĠNg Ã¢n
ĠNg oÃłi
ĠQ uy
ĠphÃŃ a
ĠKh Ã¡nh
pe ed
Ġchiáº¿ c
Ġ W
á» Ĺi
Ġt Ã´i
Ġt Ãłu
Ġc á»Ńa
Ġs u
Ġs ai
Ġb á»ģn
Ġb áº¡ch
Ġd á»¯
Ġd áº¥u
Ġnh au
Ġn á»¯
ĠT Ã¢y
áº¥ m
áºŃ y
Ã£ o
Ġtá»« ng
ĠtÃº y
e a
u e
u áºŃn
Ġ ÃŃch
Ġt Ã¡i
Ġc Ã¡n
Ġth ao
Ġth áº³ng
Ġm Ã£
Ġb u
Ġnh áº¹
Ġn á»ķi
Ġn uÃ´i
Ġph áº£n
Ġph iÃªn
ĠT á»«
Ġthu á»Ļc
ĠNg Æ°á»Ŀi
ĠD Æ°Æ¡ng
Ng Ãły
ar l
ĠX Ã¢y
ĠGi ang
C Ã´ng
e x
Ġ 0
Ġt uyá»ĥn
Ġc áº¯t
Ġv ai
Ġth áº¯ng
Ġtr Æ°Æ¡ng
Ġl ai
Ġs áº§u
Ġb Ãłi
ĠH oÃłng
ĠB áº£n
áº· n
áº· ng
ĠKh u
a st
¯ u
Ġh áº¿t
Ġh Ã´m
Ġtr áº»
Ġch Ã³ng
Ġch á»¯a
Ġs Ãłn
Ġb Ãły
Ġnh á»ı
Ġn Ã´ng
Ġn iá»ģm
Ġph Ã¡
ĠT Ãłi
Ġtá» ĩ
ĠC Ãł
Ġr á»§
Ġhá» ¯u
Ġ1 8
ĠTr á»ĭ
ĠCh Ã¢u
ĠViet combank
ĠÄĳá»© ng
C O
l in
l ÃŃt
Ġc a
ĠÄĳ Ã´ng
Ġh iá»ĥm
Ġs áº»
Ġn áº¿u
Ġph á»¥
Ġr o
ĠV N
ĠÄĲ áº¡i
ĠTh uáº¿
pe arl
N h
l o
Ġ Ã¡o
Ġv ong
Ġv Ã²ng
Ġth áº£i
Ġth iáº¿u
Ġth á»ıa
Ġh a
ĠÄĳá» Ŀi
Ġm áº¯c
Ġd Æ°á»¡ng
Ġkh áº¯c
ĠT áºŃp
ĠH iá»ĩn
ĠH á»Ļi
ĠH á»ĵng
Ġngh Ä©a
ĠÄĲ á»ĥ
Ġthu á»ĳc
ĠTh uáºŃn
ĠS á»±
áº« u
ĠÄĳá»ĳ c
Tr ung
Q u
n d
n am
t Ã´
u t
Ġc áºŃp
Ġc á»¥c
Ġv iá»ĩn
Ġth o
Ġl Ã²ng
Ġl Ã£nh
Ġch Äĥm
Ġch áºŃm
Ġch áº·n
Ġb áº¡n
Ġb Ã£o
Ġd áº¡ng
Ġkh áº³ng
Ġng áº¡i
Ġtá» ı
Ġr Ã¡c
ĠM á»Ļt
ĠPh Ã²ng
Tr ong
Ġchiáº¿ m
Ġrá»§ i
' ,
B ank
S Ã¡ng
i on
l e
o t
t Äĥng
Ġ ÃŃt
Ġ em
á» ¡
Ġc Ã´
Ġth Äĥm
Ġtr áºŃn
Ġl á»¥c
Ġch Ã¢u
Ġn am
Ġph Ã¹
Ġqu á»¹
ĠB ÃŃ
ĠÄĳá»Ļ c
ĠÄĲ iá»ĩn
ĠTh Ã¹y
ĠgiÃ¡ o
ĠPh Ã¡t
Ġmáº¡ o
ĠNh iá»ģu
á»« a
ĠÃ´ tÃ´
1 0
S peed
Ġ O
Ġ áº
ĠÄĳ Ã¡p
Ġth Ã¡c
Ġth á»Ń
Ġth áº»
Ġh Ã£ng
Ġch á»Ĺ
Ġs áº¯p
Ġb iÃªn
Ġd Ãły
Ġng á»«ng
Ġn á»£
Ġn iá»ĩm
Ġn á»Ĺ
ĠT iÃªn
Ġqu ay
á»± a
Ġngh á»ī
Ġngh á»ģ
ĠgiÃ¡ m
in a
ĠNg uyÃªn
ĠS a
á»ī nh
ĠNh Æ¡n
on al
Äĳ áº§u
Ġnhu áºŃn
onal d
% .
C C
h o
Ġ p
ĵ n
Ġt áº¥t
ĠÄĳ u
Ġv áºŃy
Ġth áº§n
Ġth oáº¡i
Ġh á»ĳi
Ġtr Æ°ng
Ġl iá»ĩt
Ġs Ã³c
Ġg á»ĳc
Ġg áº¯n
Ġd áº¡
Ġd Ã²ng
Ġn Ã³ng
ĠT Ã¢n
Ġr Ãł
ĠV Ãłng
ĠV Ä©nh
Ġngh i
ĠL inh
ĠTh e
ĠCh i
ĠPh an
ĠA ir
Ġthá»§ y
Ġtáº§ m
Ã¨ n
Ġá»§ y
1 8
H Ãł
I nd
T á»ķng
b al
u r
á» ħ
Ġt Ãªn
Ġt á»Ļc
Ġt áº¡m
Ġt Ãłng
Ġth áº©m
Ġk Ãª
Ġl Æ°á»£t
Ġl á»±a
Ġs Ã´ng
Ġm áº¯t
Ġm á»įi
Ġn Ãºt
Ġqu Ãª
Ġx Ãºc
ĠN áº¿u
ĠH iá»ĩp
Ġngh iÃªn
ĠL Ãª
ĠNg á»įc
ĠS Æ¡n
ĠPh Æ°á»Ľc
ĠD onald
Ġlá»Ľ p
Ġ4 0
Ġ5 00
Ġlo áº¡t
ÄĲ S
Ġlá»ĩ ch
ĠNgh á»ĩ
C Ã¡c
H N
S au
U BND
o k
o l
v i
Ġt ay
Ġc Ã¢n
Ġtr uy
Ġtr á»¥c
Ġl Å©
Ġl Ã¡i
Ġl Ã¢u
Ġch á»ĳng
Ġch á»Ŀ
Ġch Æ¡i
Ġb á»Łi
Ġd Ãłnh
Ġkh á»ĳi
ph Ã¡t
Ġng ay
Ġgi Ã´ng
Ġqu áº£ng
ĠN Ã´ng
ĠC Æ¡
an d
Ġr Ãºt
ĠH á»į
Ġ2 4
Ġ2 00
ĠÄĲ áº£ng
ĠL Ãło
ĠTr áº¡ch
ĠS Ãłi
á»ĩ n
ĠG Ã²n
Ġ3 5
Ġchuy áº¿n
Ġhá»į p
Ġ5 0
á»£ i
ĠF ed
âĢ ¦
lin es
ĠAir lines
Ind ex
D á»±
V i
i ao
o s
t e
Ġ á»
Ġc áº¥u
Ġc á»įc
ĠÄĳ Æ°Æ¡ng
Ã¡ u
Ġth Ã¡ch
Ġth Æ°á»Łng
Ġh áº¡i
Ġh ay
Ġtr ao
Ġtr Ãº
Ġl a
Ġs uy
Ġg a
Ġg Ã¡i
Ġm iá»ħn
áº¡ p
Ġb Ã³
Ġd Æ°á»Ľi
Ġng á»Ŀ
Ġn Ãªu
Ġn áº¯m
Ġph i
ĠC áº£nh
Ġr Ãłng
ĠH á»ĩ
Ġ2 1
Ġngh iÃªm
Ġlá» Ĺ
ĠTr Æ°á»Ľc
Ã¹ i
ĠCh iáº¿n
Ġchuy á»ĩn
ĠNh á»¯ng
ĠKh Æ°Æ¡ng
ĠgÃ³ i
ĠVin pearl
4 0
C B
S E
V iá»ĩt
d oanh
e w
m i
s ia
u ro
Ġ e
Ġ Ã¡nh
ĥ n
Ġt Ã´n
Ġt im
Ġt áº¡p
Ġc Äĥng
Ġc Å©
Ġc áº¯m
ĠÄ ĥn
ĠÄĳ áº³ng
Ġth áº¥t
Ġth áº§u
Ġh y
Ġh Æ°Æ¡ng
Ġh iá»ĥu
Ġk im
Ġl á»Ł
Ġl Ãºc
Ġch Ã¬nh
Ġch á»ĵng
Ġch áº·t
Ġb á»ĵi
Ġd ung
Ġng Äĥn
Ġph á»©c
Ġgi Ã³
Ġgi Ãłnh
ĠT o
ĠT áº¡i
Ġqu Ã©t
Ġx in
iáº¿ m
á»ĭ nh
Ã£ m
ĠC á»ķ
Ġr á»«ng
ĠB ÄĲS
Ġ1 3
ĠÄĲ á»ģ
ĠL a
ĠP a
ĠCh á»ī
ĠNg Ã£i
ĠPh Æ°Æ¡ng
ĠG roup
Ġho a
ĠQu áº£n
ĠÄĳÃ³ n
ĠÃ Ĥ
Ġkhá»ı i
gi áº£m
it y
Vi et
iao mi
I M
L B
V N
g ue
k i
l Ã©
o v
Ġ ung
ĳ ng
Ġt Ã¹
Ġc an
Ġc Æ¡n
Ġc Ãłng
ĠÄĳ Ãłn
Ġv en
Ġk á»ĭp
Ġl Ã£m
Ġch Ã¡y
Ġs á»¹
Ġg á»Ĺ
Ġd Æ°
Ġnh á»Ŀ
Ġnh Ã¬n
Ġkh Ãºc
Ġkh Ã¡m
Ġng Æ°á»£c
ĠT u
Ġx a
Ġx ung
ĠC Ã¡t
ĠH Ã³a
ĠH uáº¿
ĠB iÃªn
Ãº i
áº¯ k
ĠÄĲ á»ĳi
am p
ĠM áº·c
ĠL ea
ĠTr Ãªn
ĠS á»Ł
ĠQ uáº¥t
ĠD ung
ĠQu ang
Ġdá»¥ c
Th á»§
Ġ11 9
er a
Ġ8 0
ĠVin Speed
est lÃ©
ĠÃĤ u
ĠLea gue
B Ã¬nh
M á»Ļt
P C
U SD
V in
d ing
o i
£ t
Ġ uy
Ġ áº¥n
á» ³
á» £p
Ġt áº¯c
Ġt Ã¹y
Ġv Æ°á»Ľng
Ġth iá»ĩu
Ġth Ã´n
Ġk Ãªnh
Ġl Æ°á»£c
Ġl iá»ģn
Ġl áº¥y
Ġl áº¯ng
Ġch ÃŃ
Ġch Ãºng
Ġs Ã¡p
ĠÄĳá» £t
Ġm ong
Ġm á»ĳc
Ġm áº·c
Ġm áº¹
Ġb áº¯n
Ġnh áº¡c
Ġng áº¯n
Ġtá» ĵn
Ġx o
ĠB e
Ġ2 2
Ġ2 8
ĠL á»Ļc
ĠP ut
á»į t
ĠD i
ĠA I
ĠA CB
Ã© m
ĠK im
ĠKh i
ar d
ĠX iaomi
Ġhá»ı ng
áºµ n
ĠÃģ nh
Ġbu Ã´n
ĠPut in
E S
N ES
O N
e ch
l u
o d
r i
u s
y n
á» ·
ĠÄĳ Ã´i
Ġth ÃŃch
Ġh Æ°
Ġk ÃŃch
Ġk áº¹
Ġtr i
Ġtr áº£
Ġl an
Ġl áº»
Ġs Ãłng
Ġs Ãło
Ġs áºµn
Ġm á»Ŀi
Ġm áº«u
Ġd á»«ng
Ġnh áº§m
Ġkh ÃŃch
Ġn áº¯ng
Ġn Ãºi
ĠT Æ°
ĠT Ã´
ĠT á»īnh
ĠC áº§n
ĠC ity
ĠC LB
ĠV Ã¢n
Ġ1 4
ĠM an
ĠTh Æ°Æ¡ng
Ã² i
ĠPh Ã¡p
ĠPh Ãºc
ĠD o
Ġ3 00
Ġchi p
st ic
gi stic
ĠViet nam
Ch ÃŃnh
Ġvá»£ t
Ġsu á»ĳt
ion s
NES CO
gistic s
K h
P T
c o
e b
u a
x e
¤ n
Ġ w
Ġ Ã¢n
Ġt Ã²a
Ġc Ãł
nh Ãł
Ġh Ã´n
Ġk Ã¨
Ġtr á»¥
Ġtr á»Ŀi
Ġtr Ãºc
Ġl inh
Ġl áºŃu
Ġl Æ°á»¡ng
Ġch Ã¡u
Ġs áº¡n
Ġs Æ°u
Ġb Ã©
Ġd ao
Ġd á»ĳi
Ġd á»ĭp
Ġnh Æ°á»£ng
Ġkh Ã¡n
Ġkh iá»ĥn
Ġkh áº£o
Ġn á»ķ
ĠT iá»ĥu
ĠT ÃŃn
ĠT ina
Ġtá» ©
Ġx uyÃªn
ĠN ew
Æ°á»Ŀ n
ĠC ao
ĠB a
ĠB Ãł
Ġ1 20
Ġ1 50
ĠÄĲ á»Ļ
ĠÄĲ Ãłi
ĠÄĲ á»ĭnh
ĠTh Ã´ng
ĠTh iÃªn
ĠTr Æ°á»Ŀng
ĠS un
ĠD oanh
Ġkho a
ĠTP HCM
Ġ6 0
Ng Æ°á»Ŀi
ĠGiÃ¡ m
Ġ11 5
áº¹ p
Ãµ i
202 4
st an
Ġchu á»Ĺi
or n
ĠI I
ĠLo an
ĠQuy áº¿t
Ġp in
HN N
Ġe uro
2 2
4 5
8 0
F ast
M á»¹
a p
b on
c á»ķ
c uá»Ļc
i k
k g
l la
l yn
n Äĥm
r e
t on
u i
u á»ĳi
¦ y
« ng
Ġ o
Ġ Ã¢m
Ġt áº£ng
Ġt iá»ģm
Ġt áº·ng
Ġc Ã¡nh
Ġc ar
ĠÄĳ e
ĠÄĳ au
Ġv Ã©
Ġv Æ°á»Ŀn
Ġh u
Ġh áº¡t
Ġh oÃłng
Ġk iáº¿m
Ġl uyá»ĩn
Ġch Ãªnh
Ġs ao
Ġg áº¡o
Ġg á»¡
Ġm á»ĳi
Ġm á»¹
Ġb ang
Ġb áºŃt
Ġnh áº¯c
Ġkh Ã¡
Ġn Ãło
Ġph Ãºc
Ġph im
Ġgi Ã¡c
ĠT á»©
Ġx Ã³a
ĠN estlÃ©
ĠC á»¥
ĠhÃł o
ĠV Æ°á»£ng
ĠV Ãµ
ĠB iá»ĥn
ĠlÃł n
ĠÄĲ oÃłn
ĠL Ã£nh
ĠTh Ã¡ng
ĠTh iáº¿t
ĠTh áº¯ng
ĠCh á»©ng
ĠU NESCO
ĠPh á»§
ĠQu Ã½
Ġ20 30
on ic
Ġ4 3
Ġtu Ã¢n
th á»Ŀi
Ġlu Ã´n
Äĳ Æ°á»Ŀng
áº¹ n
ĠVi lla
ĠGi a
ĠGi áº£i
Ġcá»ĳ t
ro ok
il l
Ġá»§ ng
Ġáº ¤n
ki stan
amp ions
Ġcar bon
rook lyn
2 5
3 5
5 00
7 5
A C
T O
V iá»ĩc
V Ãło
X H
a s
c Ã´ng
h á»ĩ
i f
l Ã£i
p er
s e
v en
v ill
Ġ J
Ġ á»©c
Ġ Æ°Æ¡ng
Ġ Æ°á»Ľc
Ġ âĢ
Ġt áºŃn
Ġc á»Ļt
Ġc Ã£i
Ġc áº¥m
ĠÄĳ Ã¡o
ĠÄĳ Ã¨n
Ġv Ä©
Ġv ui
iá» ħ
Ġth iÃªn
Ġth Ã¹
Ġth iá»ĩt
Ġth Æ°á»£ng
Ġth áº¯p
Ġh Ã¡t
Ġh áº¥p
Ġh á»©ng
Ġk Ã©m
Ġtr áº§n
Ġtr ai
Ġtr Äĥm
Ġch á»Ł
Ġch áº½
Ġs á»Ľ
Ġg om
Ġb áº¡i
Ġb áº£ng
Ġb uá»Ļc
Ġd áº§n
Ġnh áºŃt
Ġnh á»Ľ
Ġng á»§
Ġng á»¯
Ġng áº¡ch
Ġqu anh
Ã£ n
ĠC áº£
Ġr Ãło
Ġr á»ĵi
ĠV R
ĠV Ãłnh
ĠH Æ°ng
ĠB á»ĩnh
ĠB áº£y
Ġ2 7
Ġngh Ã¬n
ĠÄĲ a
ĠM á»©c
ĠM Ã´i
Ġlá» Ĺi
ĠL L
ĠTh á»Ŀi
ĠP ar
ĠCh ampions
ĠD Ã¹
ĠA ven
Ġmá» ı
Ġmá» «ng
Ġy en
en t
ĠKh Ã¡ch
ou r
ÄĲ á»ĵng
Ġ11 6
Ġ11 7
ĠX u
ĠE U
st on
gi ao
ĠY áº¿n
Ã¨ o
lo bal
Qu áº£ng
Ġá» ¦y
ĠPa kistan
Ġw eb
vill s
Ġsá»Ľ m
ĠAven ue
% ,
1 2
1 5
2 3
2 00
4 00
7 6
9 5
A N
C N
C uá»Ļc
H uáº¿
H XH
T á»«
c ast
d u
h á»£p
i g
i p
l á»«a
s ea
t Ãłi
u áºŃt
v Ãłng
¢ nh
Â ²
ng roup
Ġc áº£n
Ġc Ã¢u
ĠÄĳ Ãªm
ĠÄĳ Ã²i
Ġv a
Ġth Ã¡o
Ġth áºŃt
Ġk iÃªn
Ġk ÃŃnh
Ġch Ã¢n
Ġch á»ĳt
Ġs áº¡t
Ġg Ã¬
Ġg áº¯ng
áº¡ y
Ġb Ã²
Ġb á»ĳi
Ġd Ã¢y
Ġkh en
Ġng á»Ļt
Ġng Ã´i
Ġng Ãłn
Ġng Æ°á»¡ng
Ġn iÃªn
Ġn áº±m
Ġn áº·ng
Ġph áºŃn
Ġgi áºŃt
ĠT H
ĠN HNN
ĠC Ã³
ĠC ung
ĠC uá»Ļc
ĠhÃł i
ĠH o
ĠH á»¯
ĠH Ã¹ng
ĠH ou
ĠH iáº¿u
Ġ2 3
ĠM a
ĠM o
ĠL á»±c
ĠTh Ã¡p
ĠTr Æ°á»Łng
ĠP i
Ġgiá» ĳng
ĠNg Ã´
ĠU n
ĠG lobal
ĠD Å©ng
Ġ20 1
ĠK ing
ĠNh u
Ġ4 00
Ġ202 6
th i
Ġháº¡ nh
Ng Ã¢n
Ġ11 8
Ġkháº© n
ĠVi ngroup
ĠE m
gi áº£i
ĠF or
el sea
Ch iá»ģu
ic k
ĠTrum an
ĠÄĳá»© c
ĠNgh Ä©a
Ġbu á»ķi
Ġtho Ã¡t
ĠSa vills
ĠbÃ³ n
Viet nam
ech combank
ĠVR G
ĠXu Ã¢n
cast le
ĠHá»¯ u
' s
8 5
B an
N am
c áº§u
d á»±
d im
m Æ°a
s peed
t ing
x uáº¥t
Ġ Z
Ġ ai
Ġ Æ¡n
Ġ áº¥y
ī nh
Ń a
Ġt uy
Ġt ung
Ġt ang
Ġt Ã¢y
Ġc á»Ń
Ġc áº£ng
Ġc áº©n
Ġv Ã´
Ġth Æ¡
Ġth á»¥
Ġth Ã©p
Ġth uyá»ģn
Ġk Ãªu
Ġtr iá»ģu
Ġtr á»ĵng
Ġl áº¡m
Ġch áº¡m
Ġch áº£y
Ġch áº¡y
Ġs Æ°
ĠÄĳá» īnh
Ġg áº¥p
Ġm á»ģ
Ġb inh
Ġb á»ĳc
Ġd á»ĭ
Ġd á»įc
Ġnh á»ĭp
Ġkh áº¯p
ĠvÃł i
Ġng á»įt
Ġn inh
Ġph Ãº
Ġph áº«u
Ġgi áº¥y
ĠT N
ĠT á»ķ
Ġqu áºŃn
Ġqu en
ĠN Äĥm
á»ĭ a
Ã£ y
ĠC T
ĠC Ã´
ĠC áº§u
á»© t
Ġr á»Ŀi
Ġhá» ĵng
ĠÄĳÃ£ i
ĠB rooklyn
ĠB HXH
Ġ2 9
ĠlÃł ng
Ġngh Ã¨o
ĠÄĲ áº¿n
ĠÄĲ áº·c
ĠM orn
Ġlá» Ńa
ĠL Äĥng
ĠL ai
ĠL áº¡t
ĠTh áº¿
ĠTr Ã¬
ĠCh elsea
ay sia
ĠQu Ã¢n
ĠNh áº¥t
ĠKh Ã´ng
Ng a
Th á»ĭ
ĠmÃł u
al aysia
ĠE VN
Ġlá»ĩ nh
el l
ĠVin Fast
ĠY Ãªn
Ġ12 2
Nh Ãł
le bal
Ġáº ¢nh
ĠÄĳu á»ķi
SE AN
PC I
Ġxo Ã¡y
Ġtá»© c
ĠNew castle
ĠLL TP
ick lebal
Ġmá»ģ m
ĠMorn ing
icklebal l
) ;
, '
1 6
2 4
2 7
3 6
3 00
8 00
A P
C á»¥c
H H
L G
N G
O SE
P M
S á»Ł
T T
T áº¡i
i s
i es
w ard
x y
Ġ "
į c
ng Æ°á»Ŀi
Ġt a
Ġt Ã´ng
Ġt áº¯m
Ġc Ã¡t
Ġc á»Ŀ
Ġc Ã¡i
ĠÄĳ Ãłi
ĠÄĳ ÃŃch
ĠÄĳ áº¯t
ĠÄĳ em
Ġv inh
Ġth á»±
Ġh iáº¿n
Ġtr Ã´i
Ġl áº¡c
Ġl áº¡nh
Ġl Ã¹i
Ġch áº¯c
Ġch Ãło
Ġs ong
Ġs Ã©t
Ġs á»¯a
ĠÄĳá» ĵ
Ġm Ã¡i
Ġb Ãª
Ġb Ãło
Ġb Ã£i
Ġnh Ã¡nh
Ġkh Ã³a
Ġng o
Ġng ang
Ġng Ã´n
Ġn á»Ł
Ġph anh
Ġph á»ķ
Ġph Ãºt
ĠT Æ°Æ¡ng
ĠT ÃŃnh
ĠT á»Ļi
ĠT Ãłu
á»Ļ n
qu y
Ġqu Ãªn
Ã³ t
iáº¿ p
ĠC áº£ng
ĠC Ã¹ng
á»© a
Ġr Ã¨n
ch uyá»ĥn
ĠV I
ĠV an
ĠV iá»ĩn
ĠV ND
ĠH ai
ĠH Ãłng
ĠH ar
ĠH OSE
ĠB Ãªn
ĠB Ã¹i
Ġngh e
Ġngh Ä©
ĠL Æ°Æ¡ng
ĠL áº¯k
ĠL NG
ĠP l
ĠP r
ĠCh á»ĭ
ĠCh Æ°Æ¡ng
ĠCh uyÃªn
ĠS an
ĠS Ä©
Ġra u
ĠD N
ĠD áº§u
Ġ3 4
Ġ3 7
ĠQu Ã¡n
áº« y
ĠA ston
ĠA SEAN
ĠK inh
ĠNh Æ°
Ġtá»ķ n
Ġcu á»ĳng
Ġcu á»ĳn
on d
Ġ6 5
Ġ5 4
en ding
Ġ202 7
th Æ°Æ¡ng
th á»ıa
es el
Th Ã¡i
ÄĲ T
Ġ7 0
Ġ7 5
Ġ9 2
Ġ9 5
or e
ĠThá»§ y
Ch á»§
Ġdi esel
at a
Ph Ã³
ĠTrá»ĭ nh
á»³ nh
od y
Ġkáº¹ t
ĠâĢ ĵ
ĠTN HH
1 40
5 7
6 1
6 5
7 80
8 4
9 0
9 7
A M
B áº£o
C P
F ed
G T
I D
O X
R ON
a d
c k
e v
g iá»
k y
l and
m á»Ł
o p
u á»ĳc
v e
y r
Æ ¯
Ġ áº©n
į a
Ķ ng
ng Ã¢n
Ġt Ãºc
Ġt iá»ĥu
Ġc oi
ĠÄĳ Ãºc
ĠÄĳ Ãło
Ġv áº¹n
Ġth ÃŃ
Ġth áºŃn
Ġth áºŃp
Ġth iá»ĥu
Ġth iá»ĩp
Ġth áºŃm
Ġh áº¡ch
Ġh áº§m
Ġk á»ĭch
Ġl Æ°Æ¡ng
Ġl Ãµi
Ġch a
Ġch á»¥c
Ġch iáº¿u
Ġch Ã©o
Ġs á»ķ
Ġg h
Ġm Ã³
Ġm ay
Ġb Äĥng
Ġb á»©c
Ġb áº¯c
Ġd á»Ŀi
Ġd Ã¡m
Ġnh iá»ħ
Ġkh ung
Ġkh Ã¡ng
Ġng á»ĵi
Ġph Æ°á»Ŀng
Ġgi áº£n
ĠT Ã¡m
Ġtá» Ŀ
Ġtá» įa
Ġqu áº§n
ĠN ov
ĠC P
ĠC á»§
ĠC Ã²n
uy áº¿t
Ġr Æ¡i
ĠV Å©
ĠH Ã¬nh
ĠH Ãłn
á»¥ t
ĠÄĲ Æ°á»Ŀng
ĠÄĲ Æ¡n
ĠÄĲ iá»ĥm
ĠÄĲ Ãło
ĠM á»Ľi
ĠM alaysia
Ġthu áº«n
ĠL ao
ĠL uáºŃt
ĠTh ay
ĠTh iÃªm
Ġdá»± a
á»Ń u
ĠCh a
in e
in Bank
ĠS U
ĠS áº£n
á»ĩ t
ĠG D
ĠG r
Ġho ang
ĠD uyÃªn
Ġ3 1
Ġ3 6
Ġ20 50
ĠNh Æ°ng
Ġ6 76
Ġtu á»ĩ
ĠÃ Ŀ
20 30
Ġlo gistics
et ro
Äĳ iá»ģu
ĠHÃł m
Ġ11 4
er at
ĠÄĳo an
ĠÄĳo Ã¡n
ĠX e
ĠGi ao
ĠE C
ĠE x
Ġchu i
ing ap
ĠR iÃªng
ĠR ON
ĠVin speed
Ġhá»ı a
ĠtÃ´ m
it e
ir am
il ip
ĠLo ve
kh Ã´ng
la dim
Ġcam era
lin e
Qu áº£n
Ġtho Ã¡i
ĠÄĳu a
18 0
ur iram
lu á»ĵng
Kh u
Ġo xy
Ġhu á»ĳng
ĠPar k
ĠMo ody
PM B
Ġnhiá»ħ m
erat o
ingap ore
ladim ir
1 1
4 3
8 1
A nh
A CO
A HN
A TO
B en
C Ãł
C áº§u
C hi
D oanh
H á»Ļi
H áº£i
H á»ĩ
N Q
S T
S PC
T M
T Ã´i
T ok
V AC
W h
c Æ¡
c á»©
c Äĥn
c kh
d es
h am
i q
i er
i ev
k áº¿t
k iá»ĥm
m a
m Ã£
n et
o a
o w
o ol
p ai
s áº§u
s áº£n
s on
s ite
t Æ°
t á»Ń
y ot
z ut
Ã Ķng
Ġ &
Ġ ao
Ġ in
Ġ on
Ġt iá»ĩc
Ġt Ã¡ng
Ġt uyÃªn
Ġt Ãºng
Ġc ong
Ġc áº¥t
Ġc Ãº
Ġc Æ°á»Ľi
Ġc á»¡
ĠÄĳ Ãł
ĠÄĳ áº¹p
Ġh áº§u
Ġh áº£i
Ġh Ã¹ng
Ġk áº»
Ġtr áº¡i
Ġtr eo
Ġtr áº¡m
Ġtr á»ĳn
Ġtr á»«
Ġl Æ°á»Ŀng
Ġl áºŃn
Ġl á»ĳc
Ġl áº«n
Ġl áº¯p
Ġl Æ°á»Ľi
Ġch e
Ġch áº¯n
Ġch áº¥m
Ġs á»©
Ġs ho
ĠÄĳá» ı
ĠÄĳá» £i
ĠÄĳá» ĵn
Ġg á»įn
Ġm Æ°á»£
Ġm á»±c
Ġm Ã¢u
Ġm Ã£i
Ġm áº¯n
Ġm Ã©p
Ġb ong
Ġb Ã¹
Ġd a
Ġd á»į
Ġd á»ħ
Ġd Ãµi
Ġkh uyÃªn
Ġng Å©
Ġng áºŃp
Ġng uyá»ĩn
Ġng á»£i
Ġn á»ĵng
ĠT ao
ĠT oÃłn
ĠT á»ĭch
ĠT Ã¢m
ĠT uyÃªn
ĠT Ã´n
ĠT uyáº¿n
Ġtá» §
qu áº£n
á»§ ng
ĠN Ãł
ĠN á»¯
ĠC ai
ĠC á»Ļng
ĠC á»Ńa
ĠC á»Ńu
ĠC AHN
an o
an ce
Ġr Äĥn
ĠV inh
ĠV á»ģ
ĠV ladimir
ĠB áº¥t
ĠB Ãłi
ĠB Ã¡o
ĠB un
ĠB ID
ĠB uriram
ĠlÃł nh
á»¥ y
ĠÄĲ á»ı
ĠÄĲ á»Ĺ
ĠÄĲ áº¯k
ĠM e
ĠM i
ĠM áº·t
ĠM ar
ĠM us
ĠM LG
ĠL G
ĠL Ã²
ĠL á»ĭch
ĠL at
ĠL á»ħ
ĠL ending
ĠTh á»į
ĠTh á»¥y
ĠTr ang
in d
ĠNg Æ°á»£c
ĠS IM
ĠS ingapore
ĠU S
ĠG T
ĠG Ã²
ĠG en
ĠG ol
ĠG PMB
Ġmáº¡ ch
ĠD J
ĠD á»¯
Ġ3 9
ĠQu á»³nh
ĠA l
ĠA r
ĠA ward
ĠA TM
ĠK áº¿t
ĠK on
ĠK iev
Ġ4 2
Ġ4 5
Ġ6 2
Ġ6 3
Ġ5 2
Ġy Ãªn
Ġ202 0
th Ã¡ng
th uáº¿
es s
Ng uyá»ħn
Ng há»ĩ
Äĳ á»ĳi
ÄĲ Ãł
ÄĲ á»ģ
Ġvá»ĭ t
Ġ11 2
er ce
Ġ7 1
al and
Ġ9 0
202 6
ĠE V
ĠR o
ĠR á»įt
Ġto p
Ġcá»¥ m
em ier
it ed
ĠI s
Ph Ã¡t
Ph áº¡m
il ton
ĠLo gistics
Ġma zut
Ġtá»ı a
ĠSa combank
CC I
Ġp ickleball
vi e
te vie
ĠTo p
ĠTo yot
ĠTu áº¥n
ĠTu pai
Vin Speed
ĠBe ckh
Ġkáº¹ o
ĠkÃ¨ m
ik Tok
Ġmá»ı i
ĠTH PT
ĠUn ited
yr ia
ĠEx p
Ben z
cá»© u
iq lo
Ġon line
ĠmÆ°á»£ n
Ġdá»į a
ĠBID V
ĠAward s
erce des
ĠToyot a
ĠBeckh am
% /
1 7
2 6
3 7
3 30
5 6
7 50
8 8
9 00
A V
A CC
A IM
B Ãł
B Ãłi
B Ã¡o
C I
C á»ķ
C há»ĭ
D Bank
E A
E R
F or
G C
L ong
L ER
M Æ°a
N S
N ÄĲ
O J
P L
R OX
T V
T W
T Ã¬nh
T iá»ģn
T á»īnh
T echcombank
U kraine
U TO
X uáº¥t
b á»Ļ
b áº£o
c Ã³
c áº£i
c á»įc
d en
f f
g ri
h t
h oÃłn
i v
j i
k inh
m m
m á»©c
o la
r on
t Ã¬nh
t Æ°Æ¡ng
t ai
t ÃŃnh
t iáº¿t
t á»·
t ies
u b
u á»ķi
v áºŃn
v in
x Ã£
Ġ á»ĳng
Ġ Ã¡ch
Ġ áº£o
Ġ á»ĵn
Ġ ounce
Ġ áº¥m
ng Ãłnh
Ġt iá»ħn
Ġc á»±
Ġc á»ĳng
ĠÄĳ Ä©a
Ġv Ã¡
Ġv áº»
Ġv iá»ħn
iá» ĳng
Ġth Äĥng
Ġth Ãº
Ġth ang
Ġth Æ°á»Ľc
Ġth á»Ŀ
Ġth á»«a
Ġh á»§
Ġh áº¹p
Ġh áº¹n
Ġk á»ģ
Ġtr á»ĳng
Ġtr áºŃt
Ġtr Æ°a
Ġtr áº¥n
Ġtr Ãłng
Ġtr á»«ng
Ġl y
Ġl áº¡
Ġl Ãº
Ġl áº¥n
Ġl iÃªng
Ġch Ãºc
áº¿ ng
Ġs áº¡ch
Ġs Ã³ng
Ġs iÃªu
ĠÄĳá» ¡
ĠÄĳá» Ĺ
ĠÄĳá» įc
Ġm Ãª
Ġm á»Ļ
Ġm áºŃt
Ġm áº£ng
Ġm Ã³ng
Ġm áº£nh
Ġm Ã©t
Ġm á»ĩnh
Ġb ÃŃ
Ġb Ã¹ng
Ġb á»¯a
Ġd Ã¡ng
Ġd á»©t
Ġnh Æ°á»Ŀng
Ġkh á»§ng
ph Ã¢n
Ġng á»¥
Ġng áº¡t
Ġn á»¯a
Ġgi Ãłu
Ġgi áº¿ng
ĠT Ã¬nh
ĠT iá»ģn
ĠT Ã´i
ĠT echcombank
ĠT ikTok
Ġqu Ã¡n
Ġx Ã³i
Ġx Ã³m
iáº¿ c
ĠN ot
ĠN ATO
ĠC uá»ĳi
Ġr anh
Ġr Ã£nh
ch ung
ch Äĥm
ĠV Ã¬
ĠV á»¥
ĠV Ãło
ĠV PL
ĠH Ãłnh
ĠH ÄĲ
ĠH oÃłi
ĠH á»įc
ĠH Ã£ng
ĠH VAC
ĠH ilton
Ġ2 20
Ġ2 50
ĠÄĲ Äĥng
am ov
ĠM Æ¡
ĠM á»Ĺi
ĠM ast
ĠM ercedes
Ġlá» į
ĠL á»£
ĠL Ãłng
ĠL if
ĠTh i
ĠTh Æ°á»Ŀng
ĠTh áº£o
ĠTh Ãºc
ĠTh Ãªm
ĠTr ÃŃ
ĠTr Äĥn
ĠTr á»įng
ĠP ro
ĠP erato
ĠP CI
ĠCh Ãªnh
ĠCh iáº¿c
ĠNg Ãły
ĠNg hi
ĠS tevie
ĠS yria
Å© i
ĠPh i
ĠQu á»¹
ĠQu á»Ľi
ĠA sia
ĠA UTO
ĠK iÃªn
ĠK iáº¿n
ĠK onic
Ġkho ang
Ġkho áº£nh
eo te
Ġhá»į a
Ġ5 5
Ġ5 6
Ġ5 7
en D
en n
Ġ202 1
th Ã´ng
20 19
Ng Ãłnh
Th á»Ŀi
Äĳ iá»ĩn
ÄĲ áº¡i
er s
er al
Ġ7 00
ĠÄĳo áº¡t
al amov
Ġ8 5
Ġ8 8
ĠGi Ã¢y
ĠGi Ã¡o
ĠGi Ã³t
om es
ĠkhÃŃ a
Ġ10 1
ĠR os
ĠF PT
ĠF ilip
pe e
TP HCM
ĠÄĳÃ¡ m
at e
at ion
Ph Ã¢n
Ġ16 8
Ġsu á»ĳi
CO M
ho pee
ĠÄĳu á»ĳi
Ġdáº¡ y
ĠlÅ© y
Ġá» ŀ
ĠDo ji
re am
Ġhu áº¥n
per ties
Ġweb site
ĠHou se
ĠHou thi
ĠFor est
ting ham
ĠCT F
ĠEVN SPC
Ġngo Ã¡i
ĠPl Ã´ng
giá» Ŀ
ĠmÃ³ n
ĠGr and
ĠGT GT
ĠEV S
AIM LER
gri bank
vin est
ĠlÃº a
ĠNot tingham
ĠLá»£ n
ĠLif e
ĠPro perties
ĠKonic a
eote k
eral i
alamov e
ĠRos e
" ,
0 5
2 50
4 2
4 10
5 10
7 7
8 2
8 9
9 4
A I
A Bank
A du
B a
C F
C H
C T
C Ã¡n
D A
D J
D N
D R
E C
E M
G roup
H iá»ĩp
K hi
L V
L Ã¢m
L et
L Ã£i
M áº·c
N T
N Äĥm
N estlÃ©
P Bank
P DR
R EA
S B
S á»±
S Ã¢n
T áºŃp
U S
V Äĥn
V ND
V Ä©nh
V á»Ľi
X a
a b
a v
a Group
b u
b áº¥t
b er
c c
c ao
c ung
c ot
c ron
d i
d ai
d eo
e e
e ard
e ABank
g or
h a
h u
h á»įc
i th
k m
l ting
m an
m on
m ua
o áº£ng
r y
r en
s a
s inh
s á»©c
t iá»ģn
t er
t ÃŃn
t el
u á»ĳng
u st
v a
v Ãłnh
v er
v ua
x ung
x á»Ń
y en
y al
y un
y pearl
z u
¥ t
â Ĥ
Ġ Ã¹
Ġ Ãºng
Ġ uá»ĳng
ļ c
ng h
ng uá»ĵn
Ġt áº¿t
Ġt Ã¡o
Ġt iÃªm
Ġc m
Ġc Æ°á»Ľc
Ġc Æ°a
ĠÄĳ am
ĠÄĳ áºŃp
ĠÄĳ en
ĠÄĳ Ã¡y
ĠÄĳ áº¯n
ĠÄĳ áº¯p
Ġv Æ°Æ¡
Ġv áº¡n
Ġv iÃªm
Ġth Ã´
Ġth á»Ł
Ġth ai
Ġth á»ķ
Ġth iÃªng
Ġh Æ°u
Ġh iá»ĩp
Ġh iáº¿m
Ġh á»©a
Ġk g
Ġk ÃŃn
Ġtr Å©ng
Ġtr Æ°á»£t
Ġtr á»įn
Ġtr á»Ļn
Ġl Ã¡
Ġl Ã´ng
Ġl Äĥn
Ġl eo
Ġl Ã¢m
Ġch inh
Ġch á»ĳi
Ġch áº¿t
Ġch Äĥn
Ġch Ã¹a
Ġch á»©a
Ġs áºŃp
Ġs á»¥t
Ġg ay
Ġg áº¯t
Ġg á»£i
Ġm ai
Ġm Ã¡t
Ġm Ãłi
Ġm Ãłn
Ġm Ã³c
Ġm Ã¡u
Ġm á»ĩt
Ġb i
Ġb Ã¡c
Ġb áºŃ
Ġb áº§u
Ġb á»¥
Ġb á»ĳng
Ġb Ã¡ng
Ġb á»Ŀ
Ġb á»ī
Ġb Ã¡i
Ġb Ã©o
Ġd Æ°Æ¡ng
Ġd á»Ļt
Ġd Ã¢m
Ġd Ã¢ng
Ġd Ã©p
Ġd áºŃy
Ġnh i
Ġnh Å©ng
Ġkh e
Ġkh Ã´i
Ġkh Ã¢u
Ġkh Æ¡i
ph ong
Ġn á»Ńa
Ġph u
Ġph á»ī
Ġgi am
Ġgi Ã£n
Ġvá» ı
ĠT iáº¿n
ĠT áº¡o
ĠT Ã¹ng
ĠT et
ĠT our
ĠT TT
Ġx Ã¡
Ġx á»©
Ġx á»©ng
ĠN Q
ĠN iÃªn
ĠN Ã©
ĠN ig
ĠC O
ĠC S
ĠC Å©ng
ĠC on
ĠC en
ĠC ar
ĠC áº¡nh
ĠC onic
an ia
Ġr á»Ļ
Ġr á»ķ
Ġr Ã£i
ch iáº¿n
ch ÃŃnh
ch uyÃªn
ch ool
Ġhá» ¥t
ĠV Å©ng
ĠV oi
ĠV CCI
ĠH áº¡
ĠH Ãłi
ĠH áº±ng
ĠH Ãło
ĠH ot
ĠH á»£p
ĠH Ã£y
ĠH LV
ĠH eard
ĠH yun
ĠB T
ĠB o
ĠB á»ĥ
ĠB áº¡ch
ĠB áº¡c
ĠB el
ĠB kr
ĠÄĲ á»Ļi
ĠÄĲ á»Ļng
ĠÄĲ á»ĭa
am ond
ĠM W
ĠM y
ĠM Äĥng
ĠM á»ĳi
ĠM á»¥c
ĠM Ã´n
ĠM il
ĠM os
ĠM Å©i
ĠL S
ĠL áº¡i
ĠL Ãºc
ĠL iÃªu
ĠL Ã£i
ĠL iÃªm
ĠTh á»ĳng
Ã² m
ĠTr Ãł
ĠTr á»Ŀi
ĠTr Ã¡i
ĠTr enD
ĠP V
ĠP CC
ĠP ri
ĠP ow
in i
ĠS o
ĠS á»«ng
ĠS uá»ĳi
ĠS ky
ĠS ind
ĠS PDR
ĠS SB
ĠS cot
ĠU ng
ĠU AV
ĠQ uyá»ģn
au s
ĠPh Ã¢n
ĠPh áºŃt
ĠG S
ĠG re
Ġho Ã£n
ĠD a
ĠD ream
ĠD AIMLER
Ġ3 8
ĠQu áº§n
ĠA P
ĠK ÃŃnh
ĠK era
ĠK CN
ĠÄĳá»ģ n
ĠNh Ã¢n
ĠNh iá»ĩt
on es
Ġ4 7
Ġ4 19
Ġ6 1
Ġ6 00
Ġso áº¡n
Ġy áº¿n
Ġ202 3
th á»§
th an
th áº»
th uá»ĳc
á»£ t
ĠKh ang
ĠKh Ãºc
ĠKh oa
ou th
Ġvi deo
et co
Ġtá»± u
Äĳ áº¡i
er om
er ia
Ġ7 6
Ġ7 8
ĠX ÃŃ
ĠX Ã£
ĠX á»Ń
ĠX uáº¥t
al o
Ġ9 6
Ġ9 9
Ġ8 3
Tr áºŃn
Ġhá»Ĺ n
ed ding
ĠR Ã´
Ġ19 75
Ġ19 95
ĠF est
el ania
ĠViet inBank
ĠY em
ĠY our
Ġvá»į t
Ch iáº¿n
ic ola
Ġ12 3
at t
tr al
ĠI n
ĠI nd
á»Ľ p
19 57
Ġhuy áº¿t
ĠW est
ĠW edding
Nh iá»ģu
Nh Ã³m
ho a
ĠTu áº§n
Vin pearl
Ġxo ay
ĠBe ech
ĠDi e
ap p
as hi
iá»ħ u
ĠMa cron
Ġ201 7
ĠZ alo
ĠVI B
ĠHar mon
ĠPr emier
ĠSan vinest
AM A
op per
ĠNov aland
ma than
Ġsho w
Ġtá»§ i
ĠBun mathan
ĠMus ang
ĠUS S
ĠGol den
ĠRo yal
ĠIs land
Ġcá»± u
Ġhá»§ y
ĠHÄĲ QT
Adu lting
av etco
gor od
âĤ Ĥ
ĠÃ¹ n
ĠvÆ°Æ¡ n
ĠbáºŃ c
ĠTet e
ĠNig eria
ĠCen tral
ĠVoi ce
ĠHyun dai
ĠBkr Ã´ng
ĠMil o
ĠPCC C
ĠPow ell
ĠSind hu
ones ia
erom e
ĠYem en
ĠHarmon y
1 50
2 8
3 8
3 23
4 7
4 8
5 3
5 8
6 00
7 00
7 90
A F
A n
A sia
A gribank
B Ã³ng
B rooklyn
C A
C l
C áº§n
D Ã¹
D OJ
E D
E VN
E co
G i
G en
G AP
G iá»ĳng
H o
H ai
H Ã³a
H Ãłng
H Ã´m
H ACO
H DBank
I n
K ia
L iÃªn
L uáºŃt
L iv
N J
N X
N áº¯ng
N HNN
P P
P an
P ay
P COM
P NJ
Q uy
Q uyáº¿t
S F
S N
S a
S áº§u
S Ãłn
S ND
S un
S hopee
T C
T F
T a
T á»ĳi
T iáº¿t
T op
T ub
T EM
T HACO
U n
V inh
V á»¥
V Å©ng
V Ãłng
V ing
b Ã¡n
b iáº¿n
b es
b il
c Ã¡n
c Äĥng
c áº£nh
c if
c ation
c Cl
d a
d y
d á»ĭch
d er
g o
h áº¡
h á»Ĺ
i ch
i vi
i ance
j et
k ata
k Wh
l es
l á»Ĺ
l or
l tr
l iance
m o
m inh
m Ã´i
n es
n Ã¢ng
n em
n iá»ģm
o g
p s
p am
p in
r an
r ic
s h
s s
s á»±
s Ã¡p
t o
t Ã´ng
t á»±
t uyáº¿n
t áº¯m
t Ãłu
u ch
u el
u zu
v n
v ate
w ren
z y
z da
Ġ a
Ġ á»ĳ
Ġ Ã¡c
Ġ áº¥p
Ġ áº©m
Ľ t
ng ton
Ġt Æ°á»Ŀng
Ġt Ã³c
Ġt áº¥m
Ġt ivi
Ġc á»©ng
Ġc á»ı
Ġc Ãºp
Ġc á»ĵn
Ġc áº§m
Ġc Ã²i
ĠÄĳ ÃŃnh
ĠÄĳ uÃ´i
ĠÄĳ áºŃm
nh iá»ĩt
Ġv ÃŃ
Ġv Äĥng
Ġv ang
Ġv áº¿t
Ġv Å©
Ġv Ã©t
Ġv oi
Ġth a
Ġth áº£
Ġth á»į
Ġth Ã¡p
Ġh áº±ng
Ġk ÃŃ
Ġk iá»ģu
Ġk iá»ĥu
Ġk iÃªm
Ġk Wh
Ġtr Ã¢n
Ġtr Ã¹ng
Ġtr Ãło
Ġtr Ã³c
Ġtr á»ħ
Ġl Ã´
Ġl Ã¢n
Ġl á»¥
Ġl ang
Ġl á»ĳi
Ġl áº¥p
Ġl Ã£ng
Ġch Ã¢m
Ġch Ã´n
Ġch iÃªu
Ġch iÃªm
Ġs á»ĳc
Ġs Ã´i
Ġs Ãºng
Ġs á»£i
Ġg Ã¡nh
Ġg Ã¬n
Ġg ol
Ġm Æ¡
Ġm iá»ĩt
Ġm Å©
Ġm á»įc
Ġb y
Ġb Æ¡
Ġb á»Ł
Ġb Ã´i
Ġb á»Ľ
Ġb áº¥m
Ġd iá»ģu
Ġd á»Ļi
Ġd áºŃp
Ġd Ãłng
Ġd áº·n
Ġd á»¡
Ġnh á»į
Ġnh áºŃu
Ġnh áº¯m
Ġnh Ã£n
Ġkh á»ķ
Ġkh á»ĳc
Ġkh Ã¡t
Ġkh á»Ľp
ph Ãª
ph á»¥
Ġng áº¡c
Ġng Æ°ng
Ġn Ã³
Ġn áº¯p
Ġn iÃªm
Ġn á»Ĺi
Ġn Ã£o
Ġn á»©t
Ġn ano
Ġph e
Ġph Ã³
Ġph Ã¡i
Ġph iá»ģn
Ġph á»ı
Ġgi áº¿t
Ġvá» Ľt
ĠT áº¥t
ĠT Ãº
ĠT á»Ń
ĠT á»ĳi
ĠT iáº¿ng
ĠT Ä©nh
ĠT Ãłm
ĠT á»·
ĠT ata
ĠT CT
Ġqu Ã£ng
Ġx Æ¡
Ġx ao
Ġx Ã¡o
Ġx Ã©
Ġx á»ı
Ġx Ã´n
ĠN ina
ĠN eotek
ĠN NT
ĠN icola
ĠN avetco
á»ĭ t
ĠC N
ĠC o
ĠC an
ĠC Ã¢y
ĠC Äĥn
ĠC Ã¡i
ĠC áº©m
ĠC á»įc
ĠC or
ĠC os
ĠC amp
ĠC lu
Ġr u
Ġr á»ĳi
Ġr Å©
Ġr áº£i
Ġr áº¡n
Ġr Ã²ng
Ġr á»ĳn
Ġr áº«y
Ġcá»§ ng
ch i
ch á»§
ch á»©ng
ĠV F
ĠV en
ĠV á»įng
ĠV Ã²m
ĠV AMA
ĠH u
ĠH á»Ļ
ĠH uy
ĠH áº§u
ĠH iá»ĥn
ĠH áºŃu
ĠH ol
ĠH aus
ĠH NX
ĠB la
ĠB our
ĠB ST
ĠB ess
ĠB US
Ġngh iá»ĩt
Æ°Æ¡ i
ĠÄĲ Ã´
ĠÄĲ áº§u
ĠÄĲ á»ĩ
ĠÄĲ Ã¡ng
ĠÄĲ áº¡o
ĠÄĲ áº±ng
ĠÄĲ áº·ng
ĠÄĲ á»£t
am s
am il
ung e
ĠM Ã´
ĠM ai
ĠM in
ĠM ay
ĠM áº¹
ĠM á»įi
ĠM elania
ĠM iá»ħu
ĠM cCl
Ġthu áº§n
Ġgiáº£ ng
Ġlá» įc
ĠL Ã½
ĠL Ã¡i
ĠL á»«a
ĠL á»£i
ĠL alamove
ĠL PBank
ĠTh u
ĠTh Æ°
ĠTh Æ¡
ĠTh á»ķ
ĠTh Æ°á»£ng
ĠTh áº¡nh
ĠTh orn
ĠgiÃ¡ p
ĠTr i
ĠTr iá»ģu
ĠTr am
ĠTr áºŃn
ĠTr Ã¢m
ĠTr á»įn
ĠP att
Ġgiá» į
ĠCh áº¥t
ĠCh áº£i
ĠCh Ã¡nh
ĠCh á»£
ĠCh á»ĳt
in son
in ance
ĠNg oáº¡i
Ġquy áº¿n
ĠS á»ĳ
ĠS ik
ĠS eABank
ĠS chool
ĠS TEM
ĠU ltr
ĠQ R
ĠPh u
ĠPh Ã¡
ĠPh ong
ĠPh áº§n
ĠPh Ã¹
ĠPh Ã¹ng
ĠPh im
ĠG iá»
ĠG rou
Ġho an
Ġho áº¡i
Ġmáº¡ c
Ġtiáº¿ c
ĠD Ã¢n
ĠD inh
ĠD Ã²ng
ĠQu a
ĠK H
ĠK áº¿
ĠK an
ĠK iá»ĩt
ĠK áº¡n
ĠK á»³
ĠNh a
ĠNh Ãłn
ĠNh Ã¬n
ĠNh uáºŃn
Ġcu a
ĠÄĳá»ĳ t
Ġ4 8
Ġ6 4
Ġ6 6
Ġ6 7
ĠÃ ļc
Ġkhu Ã´n
Ġy áº¿t
Ġtá»¥ y
Ġ202 2
th u
th anh
th am
th on
th iáº¿u
Ġhá»Ļ p
ĠKh ÃŃ
20 20
ou se
ou Tub
Th e
Th u
Th Ãłnh
Th uáº¿
Th áº§y
et ric
Äĳ áº¥t
ar e
ar la
ÄĲ C
ÄĲ V
Ġ11 3
Ġ7 2
Ġ7 19
ĠX Æ°Æ¡ng
ĠÃĶ n
Ġ9 00
Ġ8 1
Ġ8 4
Ġ8 00
Ġ8 77
im etro
202 2
Tr Ãł
Tr Æ°á»Ľc
Tr áº£i
Tr iá»ĥn
om etric
ĠE du
ĠE ver
hi p
hi te
ĠR áº¡ch
ĠR om
ĠR á»ĭa
ĠHá»ĵ i
gi a
gi áº£
Ġ19 9
Ġ19 61
or k
ĠVin amil
ĠViet tel
ĠViet GAP
ĠY Ãªu
ĠY ouTub
Ch uyá»ĥn
Ġ12 1
at ur
tr e
tr ong
it i
Ġba ht
Ph Ã²ng
ĠLo unge
ĠNgh iá»ĩp
19 75
âĢ Ŀ
kh ÃŃ
ĠW GC
ĠW ashi
ĠW hite
Ġbu s
Ġ18 7
ĠVN G
Nh áºŃt
lo w
Ġtho áº£i
Ġtho Ã¡ng
ur i
ĠTo Ã¡n
Ġ13 5
ĠLa wren
Viet inBank
era thon
Vin Fast
ding s
ĠDi amond
lu áºŃt
us arla
ĠMan s
Kh am
Ġo an
ĠVilla s
as onic
if er
ĠJ erome
ĠâĢ ľ
ĠChampions hip
ĠTH ACO
ĠMa zda
ĠMo bil
ĠUn iqlo
ĠFor d
Ġdá»ĭ u
ell an
is s
ĠbÃª tÃ´ng
ĠPl ay
ĠSan est
97 3
AM G
Ġgh Ã©
ĠNov aGroup
ĠCha ff
Ġ36 0
ano imetro
ĠMe ypearl
ĠMar ina
ĠAl liance
ĠExp o
ĠExp lor
56 2
For ex
NS O
ĠTikTok er
ĠMast ers
Ġlá»į t
enn ifer
CF C
ber t
cc ine
ter net
Ġbi ometric
Ġbá»¥ ng
ĠTTT D
ĠCar go
ĠBel gorod
ĠPri vate
ĠGre en
ĠInd onesia
DOJ I
Gen erali
Pan asonic
Shopee Pay
Ta x
Un iqlo
Vinh omes
Ving roup
cif ic
nem outh
uch ia
ĠkÃŃ p
Ġlá»¥ a
Ġgol f
ĠbÆ¡ m
Ġbá»Ľ t
Ġphá»ı ng
ĠTata e
ĠTCT D
ĠCan nes
ĠCor p
ĠCos mo
ĠCamp uchia
ĠClu b
ĠVen kata
ĠHol dings
ĠBla ck
ĠBour nemouth
ĠBess ent
ĠMin zy
ĠMcCl ellan
ĠPatt inson
ĠSik a
ĠUltr a
ĠGrou t
ĠEdu cation
ĠVinamil k
ĠYouTub e
ĠWashi ngton
ĠLawren ce
ĠMobil e
ĠChaff ee
ĠExplor er
