{"<pad>":0,"<unk>":1,"<sos>":2,"<eos>":3,"<sep>":4,"!":5,"\"":6,"#":7,"$":8,"%":9,"&":10,"'":11,"(":12,")":13,"*":14,"+":15,",":16,"-":17,".":18,"/":19,"0":20,"1":21,"2":22,"3":23,"4":24,"5":25,"6":26,"7":27,"8":28,"9":29,":":30,";":31,"<":32,"=":33,">":34,"?":35,"@":36,"A":37,"B":38,"C":39,"D":40,"E":41,"F":42,"G":43,"H":44,"I":45,"J":46,"K":47,"L":48,"M":49,"N":50,"O":51,"P":52,"Q":53,"R":54,"S":55,"T":56,"U":57,"V":58,"W":59,"X":60,"Y":61,"Z":62,"[":63,"\\":64,"]":65,"^":66,"_":67,"`":68,"a":69,"b":70,"c":71,"d":72,"e":73,"f":74,"g":75,"h":76,"i":77,"j":78,"k":79,"l":80,"m":81,"n":82,"o":83,"p":84,"q":85,"r":86,"s":87,"t":88,"u":89,"v":90,"w":91,"x":92,"y":93,"z":94,"{":95,"|":96,"}":97,"~":98,"¡":99,"¢":100,"£":101,"¤":102,"¥":103,"¦":104,"§":105,"¨":106,"©":107,"ª":108,"«":109,"¬":110,"®":111,"¯":112,"°":113,"±":114,"²":115,"³":116,"´":117,"µ":118,"¶":119,"·":120,"¸":121,"¹":122,"º":123,"»":124,"¼":125,"½":126,"¾":127,"¿":128,"À":129,"Á":130,"Â":131,"Ã":132,"Ä":133,"Å":134,"Æ":135,"Ç":136,"È":137,"É":138,"Ê":139,"Ë":140,"Ì":141,"Í":142,"Î":143,"Ï":144,"Ð":145,"Ñ":146,"Ò":147,"Ó":148,"Ô":149,"Õ":150,"Ö":151,"×":152,"Ø":153,"Ù":154,"Ú":155,"Û":156,"Ü":157,"Ý":158,"Þ":159,"ß":160,"à":161,"á":162,"â":163,"ã":164,"ä":165,"å":166,"æ":167,"ç":168,"è":169,"é":170,"ê":171,"ë":172,"ì":173,"í":174,"î":175,"ï":176,"ð":177,"ñ":178,"ò":179,"ó":180,"ô":181,"õ":182,"ö":183,"÷":184,"ø":185,"ù":186,"ú":187,"û":188,"ü":189,"ý":190,"þ":191,"ÿ":192,"Ā":193,"ā":194,"Ă":195,"ă":196,"Ą":197,"ą":198,"Ć":199,"ć":200,"Ĉ":201,"ĉ":202,"Ċ":203,"ċ":204,"Č":205,"č":206,"Ď":207,"ď":208,"Đ":209,"đ":210,"Ē":211,"ē":212,"Ĕ":213,"ĕ":214,"Ė":215,"ė":216,"Ę":217,"ę":218,"Ě":219,"ě":220,"Ĝ":221,"ĝ":222,"Ğ":223,"ğ":224,"Ġ":225,"ġ":226,"Ģ":227,"ģ":228,"Ĥ":229,"ĥ":230,"Ħ":231,"ħ":232,"Ĩ":233,"ĩ":234,"Ī":235,"ī":236,"Ĭ":237,"ĭ":238,"Į":239,"į":240,"İ":241,"ı":242,"Ĳ":243,"ĳ":244,"Ĵ":245,"ĵ":246,"Ķ":247,"ķ":248,"ĸ":249,"Ĺ":250,"ĺ":251,"Ļ":252,"ļ":253,"Ľ":254,"ľ":255,"Ŀ":256,"ŀ":257,"Ł":258,"ł":259,"Ń":260,"á»":261,"ng":262,"áº":263,"Ġt":264,"Ġc":265,"ĠÄ":266,"ĠÄĳ":267,"nh":268,"Ãł":269,"Ġv":270,"Ã¡":271,"Æ°":272,"iá»":273,"Ġth":274,"Ġh":275,"Ġk":276,"Ġtr":277,"Ġl":278,"Ġch":279,"áº¿":280,"Æ°á»":281,"Ġs":282,"ĠÄĳá»":283,"Ġg":284,"Ġm":285,"áº¡":286,"Ġb":287,"áº£":288,"iá»ĩ":289,"Ã´":290,"Ġd":291,"Ġnh":292,"Ġkh":293,"ĠvÃł":294,"ph":295,"Ġng":296,"Ġn":297,"Ġph":298,"Ãª":299,"á»ĳ":300,"Ã¢":301,"Ã´ng":302,"Ġgi":303,"Ġvá»":304,"ĠT":305,"á»Ļ":306,"áº¥":307,"Ã¡c":308,"Ġtá»":309,"áº§":310,"qu":311,"Ġqu":312,"Ã³":313,"Æ¡":314,"á»±":315,"Äĥ":316,"Ãªn":317,"á»§":318,"Ġx":319,"iáº¿":320,"áºŃ":321,"ĠN":322,"á»ĭ":323,"Ľi":324,"ÃŃ":325,"Æ°á»Ŀ":326,"Ã£":327,"ĠC":328,"uy":329,"Ã¢n":330,"Æ°á»£":331,"an":332,"á»©":333,"ong":334,"áº¥t":335,"Ġr":336,"Ã¬":337,"ĵng":338,"áº¡i":339,"iá»ĩn":340,"áº§u":341,"iá»ģ":342,"Ġcá»§":343,"ao":344,"Ġcá»§a":345,"ĠcÃ¡c":346,"ch":347,"ĠhÃł":348,"Ã¡n":349,"Ġhá»":350,"á»Ł":351,"Äĥng":352,"Ġvá»Ľi":353,"ĠV":354,"ĠÄĳá»ĵng":355,"ĠÄĳÃ£":356,"Ġtrong":357,"Ã¬nh":358,"inh":359,"ĠH":360,"Æ°á»Ŀng":361,"ĠB":362,"iá»ĥ":363,"Ġ1":364,"áº£n":365,"Æ°á»Ľ":366,"Ġ2":367,"ĠlÃł":368,"Ãły":369,"á»©c":370,"anh":371,"Ãº":372,"á»¥":373,"ĠÄĳá»Ļ":374,"Ġngh":375,"áº¯":376,"Æ°Æ¡":377,"ĠÄĲ":378,"Æ°Æ¡ng":379,"iá»ģu":380,"am":381,"ung":382,"ĠM":383,"áº§n":384,"iÃªn":385,"ĠcÃ´ng":386,"Æ°á»£c":387,"ai":388,"ĠcÃ³":389,"Ġthu":390,"Ġcho":391,"ang":392,"ĠÄĳÆ°á»£c":393,"Ġgiáº£":394,"Ġlá»":395,"ĠL":396,"ĠTh":397,"á»ĥ":398,"áº¿n":399,"Æ°á»Ľc":400,"Ã½":401,"iáº¿n":402,"áºŃn":403,"oÃł":404,"ĠgiÃ¡":405,"Ã²":406,"ÃŃnh":407,"á»ķ":408,"ĠTr":409,"iá»ĩu":410,"ĠkhÃ´ng":411,"Æ°á»Ŀi":412,"Ġdá»±":413,"Ġtá»«":414,"iá»ĩc":415,"ĠÄĳáº§u":416,"ĠhÃłng":417,"á»ĳc":418,"Ã¡t":419,"Ãłnh":420,"00":421,"ĠP":422,"ĠÄĳá»ĭ":423,"Ã¹":424,"áº·":425,"ĠÄĳá»ĥ":426,"á»±c":427,"ĠtÄĥng":428,"Ġgiá»":429,"ĠngÆ°á»Ŀi":430,"Ã¢y":431,"Ġvá»ģ":432,"Ġdo":433,"Æ¡n":434,"ĠÄĳá»Ļng":435,"á»Ļt":436,"á»Ļi":437,"á»Ń":438,"ĠtÆ°":439,"ĠvÃło":440,"oÃłn":441,"iá»ĩt":442,"ĠvÃłng":443,"ĠCh":444,"uáº¥t":445,"Ġviá»ĩc":446,"áº¡t":447,"in":448,"Äĥm":449,"ĠNg":450,"Ġquy":451,"ĠS":452,"á»ĳng":453,"á»¯":454,"á»ĳi":455,"ay":456,"Ãłi":457,"Ġra":458,"áº¿t":459,"Å©":460,"áº£i":461,"ĠÄĳáº¿n":462,"Ġsá»±":463,"Æ°á»£ng":464,"á»į":465,"ĠU":466,"á»ĩ":467,"Ġtáº¡i":468,"áº©":469,"ĠÄĳá»ĭnh":470,"Ġá»Ł":471,"á»¹":472,"ĠQ":473,"Ã¡o":474,"Ã¡ng":475,"ĠnhÃ¢n":476,"ĠnÃły":477,"iá»ĥn":478,"Ã¡ch":479,"ĠtrÆ°á»Ŀng":480,"ĠÃ¡n":481,"á»Ŀ":482,"áº£o":483,"Ġcao":484,"Ġmá»Ļt":485,"áº¥p":486,"ĠnhÆ°":487,"Ġkhi":488,"áº½":489,"Ã¡p":490,"au":491,"áºŃp":492,"Ġhiá»ĩn":493,"ĠPh":494,"ĠNam":495,"Ġgiáº£m":496,"á»ī":497,"ĠG":498,"Ġho":499,"áºŃt":500,"Ġquan":501,"ĠhÃłnh":502,"Ġmáº¡":503,"Ġnghiá»ĩ":504,"Ġtiáº¿":505,"Å©ng":506,"ĠchÃŃnh":507,"Äĥn":508,"Ġsá»ĳ":509,"ĠnÄĥm":510,"ĠD":511,"áº±":512,"Ġ3":513,"ĠQu":514,"á»ģ":515,"Ġsáº½":516,"Ġ-":517,"Ġtá»ī":518,"ĠcÅ©ng":519,"Ġkinh":520,"áº«":521,"Ġsáº£n":522,"Ġ20":523,"á»ĵ":524,"Ġthá»ĥ":525,"Ġchuy":526,"Ġtriá»ĩu":527,"ĠnÆ°á»Ľc":528,"Ġdá»¥":529,"ĠthÃ´ng":530,"Ġtriá»ĥn":531,"ĠA":532,"Ġxuáº¥t":533,"Ã©":534,"ĠÄĳang":535,"áº¡o":536,"Ġgia":537,"iÃª":538,"Æ°a":539,"Ġdoanh":540,"á»ĭch":541,"á»Ŀi":542,"ĠK":543,"Ġmu":544,"iá»ĥm":545,"ĠlÃ½":546,"ĠnhÃł":547,"Ġkho":548,"ĠcÆ¡":549,"ĠphÃ¡t":550,"Ġtáº¿":551,"ĠtrÃªn":552,"ĠÄĳá»ģ":553,"eo":554,"áº¡n":555,"Ġdá»¥ng":556,"ĠthÃłnh":557,"Ġnghiá»ĩp":558,"ĠÄĳÃ³":559,"Ġmá»":560,"Ġnhiá»ģu":561,"Ġchá»ī":562,"ĠNh":563,"ĠhÆ¡n":564,"Ġcáº§u":565,"áº£ng":566,"áº«n":567,"Ġ(":568,"Ã¡i":569,"SD":570,"á»¥c":571,"Ã¹ng":572,"ĠngÃły":573,"ĠbÃ¡n":574,"Ġtá»ķ":575,"Ġmáº¡nh":576,"Ġhá»į":577,"Ġthá»ĭ":578,"á»Ļc":579,"£p":580,"Æ°á»Ł":581,"ĠÄĳiá»ĩn":582,"Ġgiao":583,"ĠUSD":584,"Æ°á»Łng":585,"iÃ¡":586,"Ġmua":587,"Ġcu":588,"ĠViá»ĩt":589,"Ġbá»ĭ":590,"Ã¢m":591,"Ġlá»Ľ":592,"Ġmá»©c":593,"áº¥n":594,"Ġcáº¥p":595,"ĠÄĳá»ĳ":596,"ĠÄĳÆ°á»Ŀng":597,"Ġhá»£p":598,"ĠlÆ°á»£ng":599,"ĠCÃ´ng":600,"iá»ģn":601,"áº±ng":602,"iáº¿t":603,"á»ģn":604,"on":605,"ĠMá»¹":606,"á»¯ng":607,"áº¡m":608,"ĠdÃ¢n":609,"Ġgiá»¯":610,"Ġ4":611,"Ġxe":612,"Ġthuáº¿":613,"ĠÄĳiá»ģu":614,"á»©ng":615,"Ġlá»Ľn":616,"á»ı":617,"á»ĥn":618,"Ġvá»¥":619,"Ġtiáº¿p":620,"Ä©":621,"ĠthÆ°Æ¡ng":622,"Ġnhá»¯ng":623,"Ã³a":624,"ħn":625,"Ġsau":626,"ÃŃch":627,"Ġgiá»Ľi":628,"ĠÄĳá»ĳi":629,"Ġthá»Ŀi":630,"Ã¡nh":631,"ĠTP":632,"Ġchá»©c":633,"Ġhá»Ļi":634,"áº·c":635,"Ã´i":636,"áº¯t":637,"Ġlá»±c":638,"Ãºc":639,"á»ĵng":640,"Ġty":641,"Ġ6":642,"Ã²n":643,"Ġtu":644,"ĠtrÃ¬nh":645,"Ġtáº¡o":646,"Ġcáº£":647,"Ġ5":648,"Ġtháº¿":649,"ĠlÃªn":650,"Ġso":651,"Ġsá»Ń":652,"áº¯c":653,"ĠtoÃłn":654,"Ġsinh":655,"Ġdá»ĭch":656,"ĠthÃ¡ng":657,"ĠbÃ¡o":658,"ĠnháºŃn":659,"áº¡ch":660,"Ġquáº£n":661,"CM":662,"ĠÃ":663,"Ġthá»±c":664,"Ġbá»Ļ":665,"áº·t":666,"Ġthá»ĳng":667,"Ġkhu":668,"Ġqua":669,"Ġy":670,"ĠtÃłi":671,"ĠkhÃ¡ch":672,"Ġan":673,"ĠhÃ¬nh":674,"Ã²ng":675,"Ġdá»±ng":676,"ĠlÃłm":677,"Ġchuyá»ĥn":678,"Ġtin":679,"ĠnÄĥng":680,"Ġtá»īnh":681,"ĠtrÆ°á»Ľc":682,"ĠÄĳá»ķ":683,"ĠxÃ£":684,"uyÃªn":685,"ĠQuá»ĳc":686,"en":687,"ĠphÃ¡p":688,"Ġgiáº£i":689,"Ġmá»Ľi":690,"Ġtheo":691,"±c":692,"Ġkáº¿t":693,"Ġbáº£o":694,"á»ĳn":695,"Ġvá»±c":696,"á»Ļng":697,"Ġtá»¥":698,"Ġ202":699,"ĠhÃ³a":700,"Ġtrá»ĭ":701,"th":702,"Ġcáº§n":703,"ĠCÃ¡c":704,"Ġquyáº¿t":705,"ĠtÃ¡c":706,"Ã´n":707,"Æ°á»Ľng":708,"Ġchi":709,"Ġnháº¥t":710,"ĠÃ´ng":711,"ĠcÃ²n":712,"Ġ'":713,"ĠTrung":714,"Ġláº¡i":715,"Ġtiá»ģn":716,"Ġhá»Ļ":717,"ĠphÃŃ":718,"ĠÄĳá»ķi":719,"Ġtá»¥c":720,"á»£":721,"Ġchá»§":722,"Ã¢u":723,"000":724,"Ãłng":725,"ĠngÃ¢n":726,"Ã³ng":727,"á»«":728,"ĠÄĳáº¥t":729,"iá»ĩm":730,"ĠtÃ¢m":731,"ĠKh":732,"20":733,"ou":734,"Ġquá»ĳc":735,"á»ķi":736,"Ġhá»įc":737,"Ġkiáº¿n":738,"iÃªu":739,"á»įng":740,"ĠÄĳiá»ĥm":741,"iáº¿u":742,"Ġhoáº¡t":743,"Ġvi":744,"Ġháº¡":745,"Ġpháº£i":746,"ĠxÃ¢y":747,"áº©m":748,"Ġlu":749,"Ġchung":750,"Ġká»":751,"HCM":752,"Ġgiá»¯a":753,"Ã¡y":754,"Ġtrá»įng":755,"ĠphÆ°Æ¡ng":756,"Ġtá»ķng":757,"ĠliÃªn":758,"Ãªu":759,"ĠcÆ°":760,"ĠhoÃłn":761,"Ġcuá»Ļc":762,"áº»":763,"Ġtham":764,"es":765,"Ng":766,"Ãłn":767,"Ġhiá»ĩu":768,"Ġmáº¡i":769,"Ġkhai":770,"Ġpháº¡m":771,"Ġtá»·":772,"uyáº¿n":773,"Ãºp":774,"Ĺi":775,"Ġlo":776,"uyá»ĩ":777,"Th":778,"et":779,"Ãło":780,"Ġváº«n":781,"Ġpháº¡t":782,"Ã£i":783,"ĠnhÆ°ng":784,"ĠÃ½":785,"ĠtiÃªu":786,"áº£nh":787,"Ġtá»±":788,"ĠBá»Ļ":789,"áº£m":790,"ĠgiÃºp":791,"Ġhai":792,"ĠtÃ¬nh":793,"ĠGiÃ¡":794,"Äĳ":795,"ĠtÃŃch":796,"Ġtrung":797,"Ġbáº±ng":798,"Ġxu":799,"£i":800,"ĠÃ¡p":801,"iá»ĥu":802,"Ġthá»§":803,"ĠcÃ¡ch":804,"ĠHÃł":805,"ar":806,"ÄĲ":807,"ĠcÃ¹ng":808,"Ġkhiáº¿n":809,"Ġvá»ĭ":810,"Ġ11":811,"ĠÄĳá»ĭa":812,"er":813,"ĠcÃ¡o":814,"iá»ħn":815,"Ġgian":816,"Æ°u":817,"ĠkhÃ¡c":818,"ĠngÃłnh":819,"Ġpháº©m":820,"Ġ7":821,"ĠnháºŃp":822,"Ġpháº§n":823,"Ġhá»ĩ":824,"ĠÄĲá»ĵng":825,"Ġlá»£i":826,"ĠviÃªn":827,"Ġkhoáº£ng":828,"«a":829,"Ġcá»ķ":830,"ĠÄĳo":831,"ĠmÃł":832,"Ġmá»Ł":833,"Ġkháº©":834,"Ġthá»©c":835,"ĠdÃłi":836,"Ġráº±ng":837,"á»ĵn":838,"JC":839,"ĠX":840,"Ġtá»ĳ":841,"Ġtrá»Ł":842,"Ġbáº¥t":843,"Ġcháº¿":844,"Ġsuáº¥t":845,"áº¥u":846,"Ã²a":847,"al":848,"há»ĭ":849,"ĠÄĳÆ¡n":850,"Ġvá»ĳn":851,"Æ¡i":852,"ĠSJC":853,"Ġmáº·t":854,"Ã¢ng":855,"á»Łi":856,"Ãºt":857,"ĠÃĶ":858,"ND":859,"Ġ9":860,"áº¹":861,"ĠmÃ¡y":862,"áº¥y":863,"Ġ8":864,"ĠcÄĥn":865,"ĠÄĳi":866,"Ġliá»ĩu":867,"Ġcháº¥t":868,"ÃŃn":869,"Ġrá»Ļng":870,"áº¯ng":871,"Ġquyá»ģn":872,"ĠDá»±":873,"..":874,"Ãµ":875,"ĠÄĳáº¡i":876,"ĠváºŃn":877,"Ġthi":878,"Ġnay":879,"ĠyÃªu":880,"Ġá»©ng":881,"á»ħn":882,"Ġtiáº¿n":883,"ĠÄĳáº£m":884,"Ġkiá»ĥm":885,"ĠsÃ¡ch":886,"uyá»ħn":887,"ĠMinh":888,"Ġkháº©u":889,"ĠÄĳÆ°a":890,"ĠmÆ°a":891,"im":892,"Ġtáº§":893,"ĠtiÃªn":894,"ĠgÃ¢y":895,"ĠnhiÃªn":896,"iáº¿ng":897,"Æ°á»£t":898,"Ġxuá»ĳng":899,"uá»ĵn":900,"ĠcÃ¡":901,"ĠÄĳoÃłn":902,"ĠtrÆ°á»Łng":903,"Ġtrá»£":904,"áº¿u":905,"Ġgáº§n":906,"Ġbá»ĳ":907,"ĠVi":908,"Ġnghá»ĩ":909,"ĠGi":910,"ĠkhÃ³":911,"ĠnÃ¢ng":912,"ĠquÃ½":913,"Ġxá»Ń":914,"202":915,"ĠÃĶng":916,"Ġtra":917,"á»ķng":918,"Ġká»³":919,"Tr":920,"ĭch":921,"áº¡c":922,"Ġtá»ĭch":923,"iÃªng":924,"Ġcuá»ĳi":925,"Ä©nh":926,"om":927,"Ġtá»ĳc":928,"ĠChÃŃnh":929,"ĠNguyá»ħn":930,"Ġhoáº¡ch":931,"uyá»ĩn":932,"ce":933,"Ġkáº¿":934,"Ġchiáº¿n":935,"ĠkhÃŃ":936,"ank":937,"ĠluáºŃt":938,"ĠtáºŃp":939,"Ġsá»Ł":940,"Ġmiáº¿ng":941,"áº¡ng":942,"Ġbay":943,"Ġbiáº¿t":944,"Ġphiáº¿u":945,"ĠNá»Ļi":946,"ĠBÃ¬nh":947,"Ġnghá»ĭ":948,"Ġtiáº¿t":949,"Ġtuáº§n":950,"ĠE":951,"Ġáº£nh":952,"Ġlao":953,"Ġtá»Ń":954,"Ġquáº£":955,"Ġhá»ĵ":956,"ĠchuyÃªn":957,"á»Ĺ":958,"ĠhÆ°á»Ľng":959,"Ġdiá»ĩn":960,"³ng":961,"áº³ng":962,"Ġcá»©":963,"Ġkiá»ĩn":964,"ĠtrÃŃ":965,"Ġchá»©ng":966,"ĠgÃ³":967,"Ġnhu":968,"Ġnguá»ĵn":969,"oÃłi":970,"áº±m":971,"Ã©t":972,"Ġmá»Ĺi":973,"hi":974,"st":975,"Ġtuyáº¿n":976,"Ġsá»©c":977,"Ġdáº«n":978,"Ġnhiá»ĩm":979,"ĠTrong":980,"ĠChá»§":981,"Ġtuá»ķi":982,"ĠtÃŃnh":983,"ĠhÆ°á»Łng":984,"Ġsá»ĳng":985,"Ġhá»Ĺ":986,"ĠÄĳáº¡t":987,"Ġváº¥n":988,"Ġthiáº¿t":989,"Ġbiáº¿n":990,"ĠnguyÃªn":991,"áº¯n":992,"á»ĩnh":993,"ĠAn":994,"BND":995,"Ġchu":996,"Ġbiá»ĩt":997,"Ġnháº¥n":998,"ĠViá»ĩc":999,"Ãºng":1000,"ĠÄĳoáº¡n":1001,"ĠÃ´":1002,"Ġcung":1003,"ĠÄĳÃ¡nh":1004,"Ġtranh":1005,"Ġkhá»ı":1006,"Ãªm":1007,"Ġhoáº·c":1008,"Ġkhoáº£n":1009,"ed":1010,"Ġchiá»ģu":1011,"Ġgá»ĵ":1012,"Ġ10":1013,"áº©y":1014,"Ġgá»ĵm":1015,"GiÃ¡":1016,"ing":1017,"Ġkhá»Łi":1018,"ĠphÃ¢n":1019,"á»įc":1020,"áº©n":1021,"á»«ng":1022,"ĠR":1023,"ĠtÆ°Æ¡ng":1024,"ĠtÆ°á»£ng":1025,"ĠÄĳáº©y":1026,"Ãłm":1027,"Ġká»¹":1028,"Ġban":1029,"Ġdiá»ħn":1030,"Ġtá»Ľi":1031,"Ġlá»ĩ":1032,"Ġcá»©u":1033,"ĠtÃŃn":1034,"Ġlá»ĭch":1035,"Ġbao":1036,"Ġná»ĳi":1037,"ĠÄĳá»ģu":1038,"ĠÄĳáº¡o":1039,"ĠquÃ¢n":1040,"ĠHá»ĵ":1041,"gi":1042,"Ġnháº±m":1043,"ĠxÃ¡c":1044,"Ġ19":1045,"Ġtáº§ng":1046,"uáº¿":1047,"ĠF":1048,"ĠÄĳáº·c":1049,"Ġláº§n":1050,"áº¡nh":1051,"ĠkhÄĥn":1052,"Ġnghiá»ĩm":1053,"Ã©p":1054,"pe":1055,"ĠtrÃ¬":1056,"Ġlá»Ļ":1057,"ĠláºŃp":1058,"ĠmÃ´":1059,"Ġmá»¥c":1060,"áºŃu":1061,"áº¯m":1062,"Ġ2025":1063,"oáº¡i":1064,"Ġhuyá»ĩn":1065,"Ġmang":1066,"ĠTuy":1067,"ĠriÃªng":1068,"ĠthuáºŃn":1069,"oun":1070,"Ġháº¡n":1071,"ĠbÃ¬nh":1072,"Ġphá»¥c":1073,"Ġvá»ĩ":1074,"ĠrÃµ":1075,"á»įn":1076,"ĠPhÃº":1077,"ĠNhÃł":1078,"Ġcáº£m":1079,"or":1080,"Ŀi":1081,"Ġto":1082,"ĠÄĳa":1083,"ĠÄĳÃ´":1084,"ĠvÆ°á»£t":1085,"Ġduy":1086,"Ġnáº¡n":1087,"ĠnÆ¡i":1088,"Ġvá»«a":1089,"ĠTá»ķng":1090,"ĠquÃ¡":1091,"ĠthuáºŃt":1092,"ounce":1093,"TP":1094,"ĠÄĳÃ¬nh":1095,"ĠthÆ°":1096,"Ġtrang":1097,"ĠchÆ°a":1098,"Ġkháº£":1099,"ĠnÃªn":1100,"50":1101,"el":1102,"Ġcá»ĳ":1103,"ĠthÆ°á»Ŀng":1104,"ĠkÃ½":1105,"Ġbáº¯t":1106,"Ġdu":1107,"Ã³i":1108,"ĠVin":1109,"Ġcon":1110,"ĠÄĳáº£o":1111,"ĠÄĳÃłm":1112,"ĠsÃ¡ng":1113,"áº£y":1114,"Ġdanh":1115,"áº¯p":1116,"áº·p":1117,"2025":1118,"ĠgÃ³p":1119,"ĠvÄĥn":1120,"Ġchiáº¿":1121,"Ġminh":1122,"Ġbáº£n":1123,"á»ķn":1124,"Ġcáº£nh":1125,"ĠViet":1126,"ĠY":1127,"Ġá»ķn":1128,"Ġthiá»ĩn":1129,"Ġgáº·p":1130,"Ġbiá»ĥu":1131,"Ġhá»ı":1132,"Ġ26":1133,"ĠThá»§":1134,"á»įi":1135,"ĠsoÃ¡t":1136,"ia":1137,"ĠtÆ°á»Ľng":1138,"Ġvá»į":1139,"Ġkhá»ıe":1140,"Ch":1141,"bank":1142,"um":1143,"ĠvÃ¬":1144,"Ġtháº¥y":1145,"ĠthÃªm":1146,"Æ°á»¡":1147,"Ġbá»ĩnh":1148,"uyá»ģn":1149,"ĠUBND":1150,"á»Ľi":1151,"Ġtá»Ļi":1152,"ĠváºŃt":1153,"Ġtháº¥p":1154,"ĠlÄ©nh":1155,"ĠsÃ¡t":1156,"ĠphÃ²ng":1157,"Ġxáº¿":1158,"ÃŃt":1159,"Ã©o":1160,"ĠkhoÃ¡n":1161,"ĠNháºŃt":1162,"Æ°á»¡ng":1163,"ic":1164,"Ġcá»¥":1165,"ĠÄĳÃ¡":1166,"Ãłu":1167,"ĠthÃºc":1168,"Ġsáº¯t":1169,"ĠÄĲÃ¢y":1170,"ĠChÃŃ":1171,"ĠNghá»ĭ":1172,"Ġ2024":1173,"em":1174,"giÃ¡":1175,"Ã¨":1176,"Ġthay":1177,"ĠsÃ¢n":1178,"Ġsang":1179,"Ġnguy":1180,"Ã³m":1181,"á»¯a":1182,"Ġvá»įng":1183,"com":1184,"lÆ°á»£ng":1185,"áºµ":1186,"Ġtráº¡ng":1187,"ĠlÃ£i":1188,"Ġchá»ĭ":1189,"ĠHáº£i":1190,"Ġ12":1191,"Ġ25":1192,"ĠÄĲÃ´ng":1193,"ĠTráº§n":1194,"ĠAnh":1195,"iÃªm":1196,"ro":1197,"Ġtá»ĳi":1198,"Ġthá»©":1199,"Ġgá»Ń":1200,"Ġdi":1201,"ĠdÃ¹ng":1202,"Ġphá»ĳ":1203,"Ġphá»§":1204,"ĠphÃ¡n":1205,"ĠLong":1206,"Ġ68":1207,"Ġchuáº©n":1208,"Ġgá»Ńi":1209,"),":1210,"ne":1211,"ĠÄĳÃ¡ng":1212,"Ġkm":1213,"Ã£nh":1214,"ĠBáº£o":1215,"ĠTrum":1216,"at":1217,"ĠtÃ´":1218,"Ġcá»Ļng":1219,"Æ°ng":1220,"ĠlÆ°u":1221,"Ġghi":1222,"Ġbá»ı":1223,"Ġmáº¡ng":1224,"Ġ30":1225,"Ġchá»īnh":1226,"combank":1227,"30":1228,"QT":1229,"kr":1230,"uá»Ļc":1231,"ĠtrÃ¡ch":1232,"Ġdáº§u":1233,"Ġnhanh":1234,"Ġphá»ĳi":1235,"iá»ģm":1236,"Ġ100":1237,"ĠÃģ":1238,"Ġká»·":1239,"...":1240,"'.":1241,"tr":1242,"ĠÄĳÄĥng":1243,"ĠÄĳÃ¢y":1244,"ĠvÃ¹ng":1245,"Ġchá»įn":1246,"Ġbáº¡c":1247,"ĠBáº¯c":1248,"Ġ15":1249,"ĠÄĳÃ³ng":1250,"Ġchia":1251,"it":1252,"Ġtháº£o":1253,"ĠhÃ²a":1254,"Ġtrá»±c":1255,"ĠsÆ¡":1256,"ĠmÃ¬nh":1257,"ĠbÆ°á»Ľc":1258,"ĠnÃ³i":1259,"Ġxanh":1260,"ĠÄĳá»Ļi":1261,"Ġlá»ħ":1262,"ĠLan":1263,"oÃłng":1264,"ĠNga":1265,"Ġxem":1266,"Ġloáº¡i":1267,"ĠtoÃ¡n":1268,"Ġanh":1269,"ĠtÆ°á»Łng":1270,"Ġcá»±c":1271,"Ġcáº£i":1272,"Ġmáº¥t":1273,"Ġbá»ķ":1274,"Ġnháº«n":1275,"Ġná»Ļi":1276,"á»ĭp":1277,"ĠBÃ¡c":1278,"aine":1279,"ĠLiÃªn":1280,"Ã¹a":1281,"Ã¹y":1282,"á»Ńa":1283,"Ä©a":1284,"est":1285,"ĠI":1286,"Ġcáº¡nh":1287,"ĠthÃ¡i":1288,"ĠchÃº":1289,"ĠÄĳá»©":1290,"iá»ĩp":1291,"Ġvá»¯":1292,"ĠxÃ©t":1293,"uyá»ĥn":1294,"ĠQuáº£ng":1295,"á»ĵi":1296,"kraine":1297,"Bá»Ļ":1298,"ĠÄĳÃºng":1299,"Ġthanh":1300,"Ġkiá»ĩm":1301,"ĠsÄ©":1302,"ĠsÃ¢u":1303,"ĠmÃ´i":1304,"Ġba":1305,"ĠbÃªn":1306,"ĠphÃ©p":1307,"Ġgiai":1308,"á»Ļp":1309,"áº§y":1310,"ĠÄĳá»Ļt":1311,"ĠÄĲá»©c":1312,"ĠÄĲiá»ģu":1313,"ĠThÃłnh":1314,"ĠTheo":1315,"Ġháº¡ng":1316,"ir":1317,"ĠtÃ¬":1318,"Ġtiá»ĩn":1319,"ĠÄĳáº·t":1320,"ĠÄĳáº¥u":1321,"ĠthÃ¢n":1322,"ĠhÃºt":1323,"Ġtráº£i":1324,"ĠtrÃ¡i":1325,"áº§m":1326,"ĠBan":1327,"ĠÄĲÃł":1328,"Ġlá»«a":1329,"Ġvá»¯ng":1330,"ĠtÃ¬m":1331,"Ph":1332,"il":1333,"rou":1334,"uÃ´i":1335,"Ġtai":1336,"ĠcÆ°á»Ŀng":1337,"ĠháºŃu":1338,"ĠkÃ©o":1339,"ĠÄĳá»§":1340,"Ġbiá»ĩn":1341,"Ġná»ģn":1342,"Ġná»Ļp":1343,"áºŃm":1344,"ĠHCM":1345,"ĠBQT":1346,"Ġ17":1347,"ĠthuÃª":1348,"ĠLÃ¢m":1349,"ĠThá»ĭ":1350,"ĠSau":1351,"Ġtiáº¿ng":1352,"Theo":1353,"oanh":1354,"ĠÆ°u":1355,"Ġtáº£i":1356,"Ġká»ĥ":1357,"Ġmiá»ģn":1358,"Ġnhiá»ĩt":1359,"ĠnhÃ³m":1360,"Ġphong":1361,"Ãªnh":1362,"Ġvá»£":1363,"ĠxÄĥng":1364,"Ã£ng":1365,"ĠThanh":1366,"ĠTrump":1367,"á»Ľ":1368,"Ġvay":1369,"Ã¡m":1370,"ĠbÃ³ng":1371,"ĠbÃłn":1372,"ĠngoÃłi":1373,"ĠphÃ³ng":1374,"ĠNai":1375,"ĠHÃ²a":1376,"ĠLo":1377,"ĠUkraine":1378,"ĠPhÃ³":1379,"ĠPháº¡m":1380,"á»ıa":1381,"Ġsá»Ńa":1382,"Ġyáº¿u":1383,"uyá»ĩt":1384,"Ġhá»ĵi":1385,"un":1386,"Ġá»§":1387,"Ġtinh":1388,"ĠtÃº":1389,"ĠthÃ¬":1390,"ĠtrÃ²":1391,"ĠtrÃ¡nh":1392,"Ġma":1393,"Ġbiá»ĥn":1394,"Ã³c":1395,"ĠVÄĥn":1396,"ĠVá»Ľi":1397,"Ġlá»Ŀi":1398,"ĠNgh":1399,"Nghá»ĭ":1400,"Ġxáº¿p":1401,"roup":1402,").":1403,"19":1404,"âĢ":1405,"ĠcáºŃn":1406,"Ġhuy":1407,"Ġsung":1408,"ĠmÃ´n":1409,"ĠdÃ¹":1410,"Ġduyá»ĩt":1411,"Ġkhuyáº¿n":1412,"Ġngoáº¡i":1413,"ĠphÃª":1414,"ĠNáºµ":1415,"Ã¬n":1416,"Ġ16":1417,"ĠThÃ¡i":1418,"Ġmuá»ĳn":1419,"ĠluáºŃn":1420,"Ġtá»ĳt":1421,"Ġchá»ĭu":1422,"ĠNáºµng":1423,"kh":1424,"la":1425,"Ġtáº¥n":1426,"Ġcam":1427,"ĠÄĳai":1428,"Ġtrá»¯":1429,"Ġtruyá»ģn":1430,"Ġcháº¥p":1431,"Ã´m":1432,"Ġxáº£y":1433,"ĠCá»¥c":1434,"Ġráº¥t":1435,"ĠMau":1436,"Ġgiá»Ŀ":1437,"thá»ĭ":1438,"Ġhá»ıi":1439,"ĠcÃ¢y":1440,"ĠÄĳáº§y":1441,"Ġviáº¿t":1442,"ĠchÆ°Æ¡ng":1443,"Æ°á»Ľi":1444,"Ġsáº¯c":1445,"Ġgá»įi":1446,"Ġmáº½":1447,"ĠmÃ¹a":1448,"ĠbÃł":1449,"á»ĳt":1450,"ĠNgÃ¢n":1451,"ĠNgoÃłi":1452,"ĠQuy":1453,"ĠphÃŃa":1454,"ĠKhÃ¡nh":1455,"peed":1456,"Ġchiáº¿c":1457,"ĠW":1458,"á»Ĺi":1459,"ĠtÃ´i":1460,"ĠtÃłu":1461,"Ġcá»Ńa":1462,"Ġsu":1463,"Ġsai":1464,"Ġbá»ģn":1465,"Ġbáº¡ch":1466,"Ġdá»¯":1467,"Ġdáº¥u":1468,"Ġnhau":1469,"Ġná»¯":1470,"ĠTÃ¢y":1471,"áº¥m":1472,"áºŃy":1473,"Ã£o":1474,"Ġtá»«ng":1475,"ĠtÃºy":1476,"ea":1477,"ue":1478,"uáºŃn":1479,"ĠÃŃch":1480,"ĠtÃ¡i":1481,"ĠcÃ¡n":1482,"Ġthao":1483,"Ġtháº³ng":1484,"ĠmÃ£":1485,"Ġbu":1486,"Ġnháº¹":1487,"Ġná»ķi":1488,"ĠnuÃ´i":1489,"Ġpháº£n":1490,"ĠphiÃªn":1491,"ĠTá»«":1492,"Ġthuá»Ļc":1493,"ĠNgÆ°á»Ŀi":1494,"ĠDÆ°Æ¡ng":1495,"NgÃły":1496,"arl":1497,"ĠXÃ¢y":1498,"ĠGiang":1499,"CÃ´ng":1500,"ex":1501,"Ġ0":1502,"Ġtuyá»ĥn":1503,"Ġcáº¯t":1504,"Ġvai":1505,"Ġtháº¯ng":1506,"ĠtrÆ°Æ¡ng":1507,"Ġlai":1508,"Ġsáº§u":1509,"ĠbÃłi":1510,"ĠHoÃłng":1511,"ĠBáº£n":1512,"áº·n":1513,"áº·ng":1514,"ĠKhu":1515,"ast":1516,"¯u":1517,"Ġháº¿t":1518,"ĠhÃ´m":1519,"Ġtráº»":1520,"ĠchÃ³ng":1521,"Ġchá»¯a":1522,"ĠsÃłn":1523,"ĠbÃły":1524,"Ġnhá»ı":1525,"ĠnÃ´ng":1526,"Ġniá»ģm":1527,"ĠphÃ¡":1528,"ĠTÃłi":1529,"Ġtá»ĩ":1530,"ĠCÃł":1531,"Ġrá»§":1532,"Ġhá»¯u":1533,"Ġ18":1534,"ĠTrá»ĭ":1535,"ĠChÃ¢u":1536,"ĠVietcombank":1537,"ĠÄĳá»©ng":1538,"CO":1539,"lin":1540,"lÃŃt":1541,"Ġca":1542,"ĠÄĳÃ´ng":1543,"Ġhiá»ĥm":1544,"Ġsáº»":1545,"Ġnáº¿u":1546,"Ġphá»¥":1547,"Ġro":1548,"ĠVN":1549,"ĠÄĲáº¡i":1550,"ĠThuáº¿":1551,"pearl":1552,"Nh":1553,"lo":1554,"ĠÃ¡o":1555,"Ġvong":1556,"ĠvÃ²ng":1557,"Ġtháº£i":1558,"Ġthiáº¿u":1559,"Ġthá»ıa":1560,"Ġha":1561,"ĠÄĳá»Ŀi":1562,"Ġmáº¯c":1563,"ĠdÆ°á»¡ng":1564,"Ġkháº¯c":1565,"ĠTáºŃp":1566,"ĠHiá»ĩn":1567,"ĠHá»Ļi":1568,"ĠHá»ĵng":1569,"ĠnghÄ©a":1570,"ĠÄĲá»ĥ":1571,"Ġthuá»ĳc":1572,"ĠThuáºŃn":1573,"ĠSá»±":1574,"áº«u":1575,"ĠÄĳá»ĳc":1576,"Trung":1577,"Qu":1578,"nd":1579,"nam":1580,"tÃ´":1581,"ut":1582,"ĠcáºŃp":1583,"Ġcá»¥c":1584,"Ġviá»ĩn":1585,"Ġtho":1586,"ĠlÃ²ng":1587,"ĠlÃ£nh":1588,"ĠchÄĥm":1589,"ĠcháºŃm":1590,"Ġcháº·n":1591,"Ġbáº¡n":1592,"ĠbÃ£o":1593,"Ġdáº¡ng":1594,"Ġkháº³ng":1595,"Ġngáº¡i":1596,"Ġtá»ı":1597,"ĠrÃ¡c":1598,"ĠMá»Ļt":1599,"ĠPhÃ²ng":1600,"Trong":1601,"Ġchiáº¿m":1602,"Ġrá»§i":1603,"',":1604,"Bank":1605,"SÃ¡ng":1606,"ion":1607,"le":1608,"ot":1609,"tÄĥng":1610,"ĠÃŃt":1611,"Ġem":1612,"á»¡":1613,"ĠcÃ´":1614,"ĠthÄĥm":1615,"ĠtráºŃn":1616,"Ġlá»¥c":1617,"ĠchÃ¢u":1618,"Ġnam":1619,"ĠphÃ¹":1620,"Ġquá»¹":1621,"ĠBÃŃ":1622,"ĠÄĳá»Ļc":1623,"ĠÄĲiá»ĩn":1624,"ĠThÃ¹y":1625,"ĠgiÃ¡o":1626,"ĠPhÃ¡t":1627,"Ġmáº¡o":1628,"ĠNhiá»ģu":1629,"á»«a":1630,"ĠÃ´tÃ´":1631,"10":1632,"Speed":1633,"ĠO":1634,"Ġáº":1635,"ĠÄĳÃ¡p":1636,"ĠthÃ¡c":1637,"Ġthá»Ń":1638,"Ġtháº»":1639,"ĠhÃ£ng":1640,"Ġchá»Ĺ":1641,"Ġsáº¯p":1642,"ĠbiÃªn":1643,"ĠdÃły":1644,"Ġngá»«ng":1645,"Ġná»£":1646,"Ġniá»ĩm":1647,"Ġná»Ĺ":1648,"ĠTiÃªn":1649,"Ġquay":1650,"á»±a":1651,"Ġnghá»ī":1652,"Ġnghá»ģ":1653,"ĠgiÃ¡m":1654,"ina":1655,"ĠNguyÃªn":1656,"ĠSa":1657,"á»īnh":1658,"ĠNhÆ¡n":1659,"onal":1660,"Äĳáº§u":1661,"ĠnhuáºŃn":1662,"onald":1663,"%.":1664,"CC":1665,"ho":1666,"Ġp":1667,"ĵn":1668,"Ġtáº¥t":1669,"ĠÄĳu":1670,"ĠváºŃy":1671,"Ġtháº§n":1672,"Ġthoáº¡i":1673,"Ġhá»ĳi":1674,"ĠtrÆ°ng":1675,"Ġliá»ĩt":1676,"ĠsÃ³c":1677,"Ġgá»ĳc":1678,"Ġgáº¯n":1679,"Ġdáº¡":1680,"ĠdÃ²ng":1681,"ĠnÃ³ng":1682,"ĠTÃ¢n":1683,"ĠrÃł":1684,"ĠVÃłng":1685,"ĠVÄ©nh":1686,"Ġnghi":1687,"ĠLinh":1688,"ĠThe":1689,"ĠChi":1690,"ĠPhan":1691,"ĠAir":1692,"Ġthá»§y":1693,"Ġtáº§m":1694,"Ã¨n":1695,"Ġá»§y":1696,"18":1697,"HÃł":1698,"Ind":1699,"Tá»ķng":1700,"bal":1701,"ur":1702,"á»ħ":1703,"ĠtÃªn":1704,"Ġtá»Ļc":1705,"Ġtáº¡m":1706,"ĠtÃłng":1707,"Ġtháº©m":1708,"ĠkÃª":1709,"ĠlÆ°á»£t":1710,"Ġlá»±a":1711,"ĠsÃ´ng":1712,"Ġmáº¯t":1713,"Ġmá»įi":1714,"ĠnÃºt":1715,"ĠquÃª":1716,"ĠxÃºc":1717,"ĠNáº¿u":1718,"ĠHiá»ĩp":1719,"ĠnghiÃªn":1720,"ĠLÃª":1721,"ĠNgá»įc":1722,"ĠSÆ¡n":1723,"ĠPhÆ°á»Ľc":1724,"ĠDonald":1725,"Ġlá»Ľp":1726,"Ġ40":1727,"Ġ500":1728,"Ġloáº¡t":1729,"ÄĲS":1730,"Ġlá»ĩch":1731,"ĠNghá»ĩ":1732,"CÃ¡c":1733,"HN":1734,"Sau":1735,"UBND":1736,"ok":1737,"ol":1738,"vi":1739,"Ġtay":1740,"ĠcÃ¢n":1741,"Ġtruy":1742,"Ġtrá»¥c":1743,"ĠlÅ©":1744,"ĠlÃ¡i":1745,"ĠlÃ¢u":1746,"Ġchá»ĳng":1747,"Ġchá»Ŀ":1748,"ĠchÆ¡i":1749,"Ġbá»Łi":1750,"ĠdÃłnh":1751,"Ġkhá»ĳi":1752,"phÃ¡t":1753,"Ġngay":1754,"ĠgiÃ´ng":1755,"Ġquáº£ng":1756,"ĠNÃ´ng":1757,"ĠCÆ¡":1758,"and":1759,"ĠrÃºt":1760,"ĠHá»į":1761,"Ġ24":1762,"Ġ200":1763,"ĠÄĲáº£ng":1764,"ĠLÃło":1765,"ĠTráº¡ch":1766,"ĠSÃłi":1767,"á»ĩn":1768,"ĠGÃ²n":1769,"Ġ35":1770,"Ġchuyáº¿n":1771,"Ġhá»įp":1772,"Ġ50":1773,"á»£i":1774,"ĠFed":1775,"âĢ¦":1776,"lines":1777,"ĠAirlines":1778,"Index":1779,"Dá»±":1780,"Vi":1781,"iao":1782,"os":1783,"te":1784,"Ġá»":1785,"Ġcáº¥u":1786,"Ġcá»įc":1787,"ĠÄĳÆ°Æ¡ng":1788,"Ã¡u":1789,"ĠthÃ¡ch":1790,"ĠthÆ°á»Łng":1791,"Ġháº¡i":1792,"Ġhay":1793,"Ġtrao":1794,"ĠtrÃº":1795,"Ġla":1796,"Ġsuy":1797,"Ġga":1798,"ĠgÃ¡i":1799,"Ġmiá»ħn":1800,"áº¡p":1801,"ĠbÃ³":1802,"ĠdÆ°á»Ľi":1803,"Ġngá»Ŀ":1804,"ĠnÃªu":1805,"Ġnáº¯m":1806,"Ġphi":1807,"ĠCáº£nh":1808,"ĠrÃłng":1809,"ĠHá»ĩ":1810,"Ġ21":1811,"ĠnghiÃªm":1812,"Ġlá»Ĺ":1813,"ĠTrÆ°á»Ľc":1814,"Ã¹i":1815,"ĠChiáº¿n":1816,"Ġchuyá»ĩn":1817,"ĠNhá»¯ng":1818,"ĠKhÆ°Æ¡ng":1819,"ĠgÃ³i":1820,"ĠVinpearl":1821,"40":1822,"CB":1823,"SE":1824,"Viá»ĩt":1825,"doanh":1826,"ew":1827,"mi":1828,"sia":1829,"uro":1830,"Ġe":1831,"ĠÃ¡nh":1832,"ĥn":1833,"ĠtÃ´n":1834,"Ġtim":1835,"Ġtáº¡p":1836,"ĠcÄĥng":1837,"ĠcÅ©":1838,"Ġcáº¯m":1839,"ĠÄĥn":1840,"ĠÄĳáº³ng":1841,"Ġtháº¥t":1842,"Ġtháº§u":1843,"Ġhy":1844,"ĠhÆ°Æ¡ng":1845,"Ġhiá»ĥu":1846,"Ġkim":1847,"Ġlá»Ł":1848,"ĠlÃºc":1849,"ĠchÃ¬nh":1850,"Ġchá»ĵng":1851,"Ġcháº·t":1852,"Ġbá»ĵi":1853,"Ġdung":1854,"ĠngÄĥn":1855,"Ġphá»©c":1856,"ĠgiÃ³":1857,"ĠgiÃłnh":1858,"ĠTo":1859,"ĠTáº¡i":1860,"ĠquÃ©t":1861,"Ġxin":1862,"iáº¿m":1863,"á»ĭnh":1864,"Ã£m":1865,"ĠCá»ķ":1866,"Ġrá»«ng":1867,"ĠBÄĲS":1868,"Ġ13":1869,"ĠÄĲá»ģ":1870,"ĠLa":1871,"ĠPa":1872,"ĠChá»ī":1873,"ĠNgÃ£i":1874,"ĠPhÆ°Æ¡ng":1875,"ĠGroup":1876,"Ġhoa":1877,"ĠQuáº£n":1878,"ĠÄĳÃ³n":1879,"ĠÃĤ":1880,"Ġkhá»ıi":1881,"giáº£m":1882,"ity":1883,"Viet":1884,"iaomi":1885,"IM":1886,"LB":1887,"VN":1888,"gue":1889,"ki":1890,"lÃ©":1891,"ov":1892,"Ġung":1893,"ĳng":1894,"ĠtÃ¹":1895,"Ġcan":1896,"ĠcÆ¡n":1897,"ĠcÃłng":1898,"ĠÄĳÃłn":1899,"Ġven":1900,"Ġká»ĭp":1901,"ĠlÃ£m":1902,"ĠchÃ¡y":1903,"Ġsá»¹":1904,"Ġgá»Ĺ":1905,"ĠdÆ°":1906,"Ġnhá»Ŀ":1907,"ĠnhÃ¬n":1908,"ĠkhÃºc":1909,"ĠkhÃ¡m":1910,"ĠngÆ°á»£c":1911,"ĠTu":1912,"Ġxa":1913,"Ġxung":1914,"ĠCÃ¡t":1915,"ĠHÃ³a":1916,"ĠHuáº¿":1917,"ĠBiÃªn":1918,"Ãºi":1919,"áº¯k":1920,"ĠÄĲá»ĳi":1921,"amp":1922,"ĠMáº·c":1923,"ĠLea":1924,"ĠTrÃªn":1925,"ĠSá»Ł":1926,"ĠQuáº¥t":1927,"ĠDung":1928,"ĠQuang":1929,"Ġdá»¥c":1930,"Thá»§":1931,"Ġ119":1932,"era":1933,"Ġ80":1934,"ĠVinSpeed":1935,"estlÃ©":1936,"ĠÃĤu":1937,"ĠLeague":1938,"BÃ¬nh":1939,"Má»Ļt":1940,"PC":1941,"USD":1942,"Vin":1943,"ding":1944,"oi":1945,"£t":1946,"Ġuy":1947,"Ġáº¥n":1948,"á»³":1949,"á»£p":1950,"Ġtáº¯c":1951,"ĠtÃ¹y":1952,"ĠvÆ°á»Ľng":1953,"Ġthiá»ĩu":1954,"ĠthÃ´n":1955,"ĠkÃªnh":1956,"ĠlÆ°á»£c":1957,"Ġliá»ģn":1958,"Ġláº¥y":1959,"Ġláº¯ng":1960,"ĠchÃŃ":1961,"ĠchÃºng":1962,"ĠsÃ¡p":1963,"ĠÄĳá»£t":1964,"Ġmong":1965,"Ġmá»ĳc":1966,"Ġmáº·c":1967,"Ġmáº¹":1968,"Ġbáº¯n":1969,"Ġnháº¡c":1970,"Ġngáº¯n":1971,"Ġtá»ĵn":1972,"Ġxo":1973,"ĠBe":1974,"Ġ22":1975,"Ġ28":1976,"ĠLá»Ļc":1977,"ĠPut":1978,"á»įt":1979,"ĠDi":1980,"ĠAI":1981,"ĠACB":1982,"Ã©m":1983,"ĠKim":1984,"ĠKhi":1985,"ard":1986,"ĠXiaomi":1987,"Ġhá»ıng":1988,"áºµn":1989,"ĠÃģnh":1990,"ĠbuÃ´n":1991,"ĠPutin":1992,"ES":1993,"NES":1994,"ON":1995,"ech":1996,"lu":1997,"od":1998,"ri":1999,"us":2000,"yn":2001,"á»·":2002,"ĠÄĳÃ´i":2003,"ĠthÃŃch":2004,"ĠhÆ°":2005,"ĠkÃŃch":2006,"Ġkáº¹":2007,"Ġtri":2008,"Ġtráº£":2009,"Ġlan":2010,"Ġláº»":2011,"ĠsÃłng":2012,"ĠsÃło":2013,"Ġsáºµn":2014,"Ġmá»Ŀi":2015,"Ġmáº«u":2016,"Ġdá»«ng":2017,"Ġnháº§m":2018,"ĠkhÃŃch":2019,"Ġnáº¯ng":2020,"ĠnÃºi":2021,"ĠTÆ°":2022,"ĠTÃ´":2023,"ĠTá»īnh":2024,"ĠCáº§n":2025,"ĠCity":2026,"ĠCLB":2027,"ĠVÃ¢n":2028,"Ġ14":2029,"ĠMan":2030,"ĠThÆ°Æ¡ng":2031,"Ã²i":2032,"ĠPhÃ¡p":2033,"ĠPhÃºc":2034,"ĠDo":2035,"Ġ300":2036,"Ġchip":2037,"stic":2038,"gistic":2039,"ĠVietnam":2040,"ChÃŃnh":2041,"Ġvá»£t":2042,"Ġsuá»ĳt":2043,"ions":2044,"NESCO":2045,"gistics":2046,"Kh":2047,"PT":2048,"co":2049,"eb":2050,"ua":2051,"xe":2052,"¤n":2053,"Ġw":2054,"ĠÃ¢n":2055,"ĠtÃ²a":2056,"ĠcÃł":2057,"nhÃł":2058,"ĠhÃ´n":2059,"ĠkÃ¨":2060,"Ġtrá»¥":2061,"Ġtrá»Ŀi":2062,"ĠtrÃºc":2063,"Ġlinh":2064,"ĠláºŃu":2065,"ĠlÆ°á»¡ng":2066,"ĠchÃ¡u":2067,"Ġsáº¡n":2068,"ĠsÆ°u":2069,"ĠbÃ©":2070,"Ġdao":2071,"Ġdá»ĳi":2072,"Ġdá»ĭp":2073,"ĠnhÆ°á»£ng":2074,"ĠkhÃ¡n":2075,"Ġkhiá»ĥn":2076,"Ġkháº£o":2077,"Ġná»ķ":2078,"ĠTiá»ĥu":2079,"ĠTÃŃn":2080,"ĠTina":2081,"Ġtá»©":2082,"ĠxuyÃªn":2083,"ĠNew":2084,"Æ°á»Ŀn":2085,"ĠCao":2086,"ĠBa":2087,"ĠBÃł":2088,"Ġ120":2089,"Ġ150":2090,"ĠÄĲá»Ļ":2091,"ĠÄĲÃłi":2092,"ĠÄĲá»ĭnh":2093,"ĠThÃ´ng":2094,"ĠThiÃªn":2095,"ĠTrÆ°á»Ŀng":2096,"ĠSun":2097,"ĠDoanh":2098,"Ġkhoa":2099,"ĠTPHCM":2100,"Ġ60":2101,"NgÆ°á»Ŀi":2102,"ĠGiÃ¡m":2103,"Ġ115":2104,"áº¹p":2105,"Ãµi":2106,"2024":2107,"stan":2108,"Ġchuá»Ĺi":2109,"orn":2110,"ĠII":2111,"ĠLoan":2112,"ĠQuyáº¿t":2113,"Ġpin":2114,"HNN":2115,"Ġeuro":2116,"22":2117,"45":2118,"80":2119,"Fast":2120,"Má»¹":2121,"ap":2122,"bon":2123,"cá»ķ":2124,"cuá»Ļc":2125,"ik":2126,"kg":2127,"lla":2128,"lyn":2129,"nÄĥm":2130,"re":2131,"ton":2132,"ui":2133,"uá»ĳi":2134,"¦y":2135,"«ng":2136,"Ġo":2137,"ĠÃ¢m":2138,"Ġtáº£ng":2139,"Ġtiá»ģm":2140,"Ġtáº·ng":2141,"ĠcÃ¡nh":2142,"Ġcar":2143,"ĠÄĳe":2144,"ĠÄĳau":2145,"ĠvÃ©":2146,"ĠvÆ°á»Ŀn":2147,"Ġhu":2148,"Ġháº¡t":2149,"ĠhoÃłng":2150,"Ġkiáº¿m":2151,"Ġluyá»ĩn":2152,"ĠchÃªnh":2153,"Ġsao":2154,"Ġgáº¡o":2155,"Ġgá»¡":2156,"Ġmá»ĳi":2157,"Ġmá»¹":2158,"Ġbang":2159,"ĠbáºŃt":2160,"Ġnháº¯c":2161,"ĠkhÃ¡":2162,"ĠnÃło":2163,"ĠphÃºc":2164,"Ġphim":2165,"ĠgiÃ¡c":2166,"ĠTá»©":2167,"ĠxÃ³a":2168,"ĠNestlÃ©":2169,"ĠCá»¥":2170,"ĠhÃło":2171,"ĠVÆ°á»£ng":2172,"ĠVÃµ":2173,"ĠBiá»ĥn":2174,"ĠlÃłn":2175,"ĠÄĲoÃłn":2176,"ĠLÃ£nh":2177,"ĠThÃ¡ng":2178,"ĠThiáº¿t":2179,"ĠTháº¯ng":2180,"ĠChá»©ng":2181,"ĠUNESCO":2182,"ĠPhá»§":2183,"ĠQuÃ½":2184,"Ġ2030":2185,"onic":2186,"Ġ43":2187,"ĠtuÃ¢n":2188,"thá»Ŀi":2189,"ĠluÃ´n":2190,"ÄĳÆ°á»Ŀng":2191,"áº¹n":2192,"ĠVilla":2193,"ĠGia":2194,"ĠGiáº£i":2195,"Ġcá»ĳt":2196,"rook":2197,"ill":2198,"Ġá»§ng":2199,"Ġáº¤n":2200,"kistan":2201,"ampions":2202,"Ġcarbon":2203,"rooklyn":2204,"25":2205,"35":2206,"500":2207,"75":2208,"AC":2209,"TO":2210,"Viá»ĩc":2211,"VÃło":2212,"XH":2213,"as":2214,"cÃ´ng":2215,"há»ĩ":2216,"if":2217,"lÃ£i":2218,"per":2219,"se":2220,"ven":2221,"vill":2222,"ĠJ":2223,"Ġá»©c":2224,"ĠÆ°Æ¡ng":2225,"ĠÆ°á»Ľc":2226,"ĠâĢ":2227,"ĠtáºŃn":2228,"Ġcá»Ļt":2229,"ĠcÃ£i":2230,"Ġcáº¥m":2231,"ĠÄĳÃ¡o":2232,"ĠÄĳÃ¨n":2233,"ĠvÄ©":2234,"Ġvui":2235,"iá»ħ":2236,"ĠthiÃªn":2237,"ĠthÃ¹":2238,"Ġthiá»ĩt":2239,"ĠthÆ°á»£ng":2240,"Ġtháº¯p":2241,"ĠhÃ¡t":2242,"Ġháº¥p":2243,"Ġhá»©ng":2244,"ĠkÃ©m":2245,"Ġtráº§n":2246,"Ġtrai":2247,"ĠtrÄĥm":2248,"Ġchá»Ł":2249,"Ġcháº½":2250,"Ġsá»Ľ":2251,"Ġgom":2252,"Ġbáº¡i":2253,"Ġbáº£ng":2254,"Ġbuá»Ļc":2255,"Ġdáº§n":2256,"ĠnháºŃt":2257,"Ġnhá»Ľ":2258,"Ġngá»§":2259,"Ġngá»¯":2260,"Ġngáº¡ch":2261,"Ġquanh":2262,"Ã£n":2263,"ĠCáº£":2264,"ĠrÃło":2265,"Ġrá»ĵi":2266,"ĠVR":2267,"ĠVÃłnh":2268,"ĠHÆ°ng":2269,"ĠBá»ĩnh":2270,"ĠBáº£y":2271,"Ġ27":2272,"ĠnghÃ¬n":2273,"ĠÄĲa":2274,"ĠMá»©c":2275,"ĠMÃ´i":2276,"Ġlá»Ĺi":2277,"ĠLL":2278,"ĠThá»Ŀi":2279,"ĠPar":2280,"ĠChampions":2281,"ĠDÃ¹":2282,"ĠAven":2283,"Ġmá»ı":2284,"Ġmá»«ng":2285,"Ġyen":2286,"ent":2287,"ĠKhÃ¡ch":2288,"our":2289,"ÄĲá»ĵng":2290,"Ġ116":2291,"Ġ117":2292,"ĠXu":2293,"ĠEU":2294,"ston":2295,"giao":2296,"ĠYáº¿n":2297,"Ã¨o":2298,"lobal":2299,"Quáº£ng":2300,"Ġá»¦y":2301,"ĠPakistan":2302,"Ġweb":2303,"vills":2304,"Ġsá»Ľm":2305,"ĠAvenue":2306,"%,":2307,"12":2308,"15":2309,"23":2310,"200":2311,"400":2312,"76":2313,"95":2314,"AN":2315,"CN":2316,"Cuá»Ļc":2317,"Huáº¿":2318,"HXH":2319,"Tá»«":2320,"cast":2321,"du":2322,"há»£p":2323,"ig":2324,"ip":2325,"lá»«a":2326,"sea":2327,"tÃłi":2328,"uáºŃt":2329,"vÃłng":2330,"¢nh":2331,"Â²":2332,"ngroup":2333,"Ġcáº£n":2334,"ĠcÃ¢u":2335,"ĠÄĳÃªm":2336,"ĠÄĳÃ²i":2337,"Ġva":2338,"ĠthÃ¡o":2339,"ĠtháºŃt":2340,"ĠkiÃªn":2341,"ĠkÃŃnh":2342,"ĠchÃ¢n":2343,"Ġchá»ĳt":2344,"Ġsáº¡t":2345,"ĠgÃ¬":2346,"Ġgáº¯ng":2347,"áº¡y":2348,"ĠbÃ²":2349,"Ġbá»ĳi":2350,"ĠdÃ¢y":2351,"Ġkhen":2352,"Ġngá»Ļt":2353,"ĠngÃ´i":2354,"ĠngÃłn":2355,"ĠngÆ°á»¡ng":2356,"ĠniÃªn":2357,"Ġnáº±m":2358,"Ġnáº·ng":2359,"ĠpháºŃn":2360,"ĠgiáºŃt":2361,"ĠTH":2362,"ĠNHNN":2363,"ĠCÃ³":2364,"ĠCung":2365,"ĠCuá»Ļc":2366,"ĠhÃłi":2367,"ĠHo":2368,"ĠHá»¯":2369,"ĠHÃ¹ng":2370,"ĠHou":2371,"ĠHiáº¿u":2372,"Ġ23":2373,"ĠMa":2374,"ĠMo":2375,"ĠLá»±c":2376,"ĠThÃ¡p":2377,"ĠTrÆ°á»Łng":2378,"ĠPi":2379,"Ġgiá»ĳng":2380,"ĠNgÃ´":2381,"ĠUn":2382,"ĠGlobal":2383,"ĠDÅ©ng":2384,"Ġ201":2385,"ĠKing":2386,"ĠNhu":2387,"Ġ400":2388,"Ġ2026":2389,"thi":2390,"Ġháº¡nh":2391,"NgÃ¢n":2392,"Ġ118":2393,"Ġkháº©n":2394,"ĠVingroup":2395,"ĠEm":2396,"giáº£i":2397,"ĠFor":2398,"elsea":2399,"Chiá»ģu":2400,"ick":2401,"ĠTruman":2402,"ĠÄĳá»©c":2403,"ĠNghÄ©a":2404,"Ġbuá»ķi":2405,"ĠthoÃ¡t":2406,"ĠSavills":2407,"ĠbÃ³n":2408,"Vietnam":2409,"echcombank":2410,"ĠVRG":2411,"ĠXuÃ¢n":2412,"castle":2413,"ĠHá»¯u":2414,"'s":2415,"85":2416,"Ban":2417,"Nam":2418,"cáº§u":2419,"dá»±":2420,"dim":2421,"mÆ°a":2422,"speed":2423,"ting":2424,"xuáº¥t":2425,"ĠZ":2426,"Ġai":2427,"ĠÆ¡n":2428,"Ġáº¥y":2429,"īnh":2430,"Ńa":2431,"Ġtuy":2432,"Ġtung":2433,"Ġtang":2434,"ĠtÃ¢y":2435,"Ġcá»Ń":2436,"Ġcáº£ng":2437,"Ġcáº©n":2438,"ĠvÃ´":2439,"ĠthÆ¡":2440,"Ġthá»¥":2441,"ĠthÃ©p":2442,"Ġthuyá»ģn":2443,"ĠkÃªu":2444,"Ġtriá»ģu":2445,"Ġtrá»ĵng":2446,"Ġláº¡m":2447,"Ġcháº¡m":2448,"Ġcháº£y":2449,"Ġcháº¡y":2450,"ĠsÆ°":2451,"ĠÄĳá»īnh":2452,"Ġgáº¥p":2453,"Ġmá»ģ":2454,"Ġbinh":2455,"Ġbá»ĳc":2456,"Ġdá»ĭ":2457,"Ġdá»įc":2458,"Ġnhá»ĭp":2459,"Ġkháº¯p":2460,"ĠvÃłi":2461,"Ġngá»įt":2462,"Ġninh":2463,"ĠphÃº":2464,"Ġpháº«u":2465,"Ġgiáº¥y":2466,"ĠTN":2467,"ĠTá»ķ":2468,"ĠquáºŃn":2469,"Ġquen":2470,"ĠNÄĥm":2471,"á»ĭa":2472,"Ã£y":2473,"ĠCT":2474,"ĠCÃ´":2475,"ĠCáº§u":2476,"á»©t":2477,"Ġrá»Ŀi":2478,"Ġhá»ĵng":2479,"ĠÄĳÃ£i":2480,"ĠBrooklyn":2481,"ĠBHXH":2482,"Ġ29":2483,"ĠlÃłng":2484,"ĠnghÃ¨o":2485,"ĠÄĲáº¿n":2486,"ĠÄĲáº·c":2487,"ĠMorn":2488,"Ġlá»Ńa":2489,"ĠLÄĥng":2490,"ĠLai":2491,"ĠLáº¡t":2492,"ĠTháº¿":2493,"ĠTrÃ¬":2494,"ĠChelsea":2495,"aysia":2496,"ĠQuÃ¢n":2497,"ĠNháº¥t":2498,"ĠKhÃ´ng":2499,"Nga":2500,"Thá»ĭ":2501,"ĠmÃłu":2502,"alaysia":2503,"ĠEVN":2504,"Ġlá»ĩnh":2505,"ell":2506,"ĠVinFast":2507,"ĠYÃªn":2508,"Ġ122":2509,"NhÃł":2510,"lebal":2511,"Ġáº¢nh":2512,"ĠÄĳuá»ķi":2513,"SEAN":2514,"PCI":2515,"ĠxoÃ¡y":2516,"Ġtá»©c":2517,"ĠNewcastle":2518,"ĠLLTP":2519,"icklebal":2520,"Ġmá»ģm":2521,"ĠMorning":2522,"ickleball":2523,");":2524,",'":2525,"16":2526,"24":2527,"27":2528,"36":2529,"300":2530,"800":2531,"AP":2532,"Cá»¥c":2533,"HH":2534,"LG":2535,"NG":2536,"OSE":2537,"PM":2538,"Sá»Ł":2539,"TT":2540,"Táº¡i":2541,"is":2542,"ies":2543,"ward":2544,"xy":2545,"Ġ\"":2546,"įc":2547,"ngÆ°á»Ŀi":2548,"Ġta":2549,"ĠtÃ´ng":2550,"Ġtáº¯m":2551,"ĠcÃ¡t":2552,"Ġcá»Ŀ":2553,"ĠcÃ¡i":2554,"ĠÄĳÃłi":2555,"ĠÄĳÃŃch":2556,"ĠÄĳáº¯t":2557,"ĠÄĳem":2558,"Ġvinh":2559,"Ġthá»±":2560,"Ġhiáº¿n":2561,"ĠtrÃ´i":2562,"Ġláº¡c":2563,"Ġláº¡nh":2564,"ĠlÃ¹i":2565,"Ġcháº¯c":2566,"ĠchÃło":2567,"Ġsong":2568,"ĠsÃ©t":2569,"Ġsá»¯a":2570,"ĠÄĳá»ĵ":2571,"ĠmÃ¡i":2572,"ĠbÃª":2573,"ĠbÃło":2574,"ĠbÃ£i":2575,"ĠnhÃ¡nh":2576,"ĠkhÃ³a":2577,"Ġngo":2578,"Ġngang":2579,"ĠngÃ´n":2580,"Ġná»Ł":2581,"Ġphanh":2582,"Ġphá»ķ":2583,"ĠphÃºt":2584,"ĠTÆ°Æ¡ng":2585,"ĠTÃŃnh":2586,"ĠTá»Ļi":2587,"ĠTÃłu":2588,"á»Ļn":2589,"quy":2590,"ĠquÃªn":2591,"Ã³t":2592,"iáº¿p":2593,"ĠCáº£ng":2594,"ĠCÃ¹ng":2595,"á»©a":2596,"ĠrÃ¨n":2597,"chuyá»ĥn":2598,"ĠVI":2599,"ĠVan":2600,"ĠViá»ĩn":2601,"ĠVND":2602,"ĠHai":2603,"ĠHÃłng":2604,"ĠHar":2605,"ĠHOSE":2606,"ĠBÃªn":2607,"ĠBÃ¹i":2608,"Ġnghe":2609,"ĠnghÄ©":2610,"ĠLÆ°Æ¡ng":2611,"ĠLáº¯k":2612,"ĠLNG":2613,"ĠPl":2614,"ĠPr":2615,"ĠChá»ĭ":2616,"ĠChÆ°Æ¡ng":2617,"ĠChuyÃªn":2618,"ĠSan":2619,"ĠSÄ©":2620,"Ġrau":2621,"ĠDN":2622,"ĠDáº§u":2623,"Ġ34":2624,"Ġ37":2625,"ĠQuÃ¡n":2626,"áº«y":2627,"ĠAston":2628,"ĠASEAN":2629,"ĠKinh":2630,"ĠNhÆ°":2631,"Ġtá»ķn":2632,"Ġcuá»ĳng":2633,"Ġcuá»ĳn":2634,"ond":2635,"Ġ65":2636,"Ġ54":2637,"ending":2638,"Ġ2027":2639,"thÆ°Æ¡ng":2640,"thá»ıa":2641,"esel":2642,"ThÃ¡i":2643,"ÄĲT":2644,"Ġ70":2645,"Ġ75":2646,"Ġ92":2647,"Ġ95":2648,"ore":2649,"ĠThá»§y":2650,"Chá»§":2651,"Ġdiesel":2652,"ata":2653,"PhÃ³":2654,"ĠTrá»ĭnh":2655,"á»³nh":2656,"ody":2657,"Ġkáº¹t":2658,"ĠâĢĵ":2659,"ĠTNHH":2660,"140":2661,"57":2662,"61":2663,"65":2664,"780":2665,"84":2666,"90":2667,"97":2668,"AM":2669,"Báº£o":2670,"CP":2671,"Fed":2672,"GT":2673,"ID":2674,"OX":2675,"RON":2676,"ad":2677,"ck":2678,"ev":2679,"giá»":2680,"ky":2681,"land":2682,"má»Ł":2683,"op":2684,"uá»ĳc":2685,"ve":2686,"yr":2687,"Æ¯":2688,"Ġáº©n":2689,"įa":2690,"Ķng":2691,"ngÃ¢n":2692,"ĠtÃºc":2693,"Ġtiá»ĥu":2694,"Ġcoi":2695,"ĠÄĳÃºc":2696,"ĠÄĳÃło":2697,"Ġváº¹n":2698,"ĠthÃŃ":2699,"ĠtháºŃn":2700,"ĠtháºŃp":2701,"Ġthiá»ĥu":2702,"Ġthiá»ĩp":2703,"ĠtháºŃm":2704,"Ġháº¡ch":2705,"Ġháº§m":2706,"Ġká»ĭch":2707,"ĠlÆ°Æ¡ng":2708,"ĠlÃµi":2709,"Ġcha":2710,"Ġchá»¥c":2711,"Ġchiáº¿u":2712,"ĠchÃ©o":2713,"Ġsá»ķ":2714,"Ġgh":2715,"ĠmÃ³":2716,"Ġmay":2717,"ĠbÄĥng":2718,"Ġbá»©c":2719,"Ġbáº¯c":2720,"Ġdá»Ŀi":2721,"ĠdÃ¡m":2722,"Ġnhiá»ħ":2723,"Ġkhung":2724,"ĠkhÃ¡ng":2725,"Ġngá»ĵi":2726,"ĠphÆ°á»Ŀng":2727,"Ġgiáº£n":2728,"ĠTÃ¡m":2729,"Ġtá»Ŀ":2730,"Ġtá»įa":2731,"Ġquáº§n":2732,"ĠNov":2733,"ĠCP":2734,"ĠCá»§":2735,"ĠCÃ²n":2736,"uyáº¿t":2737,"ĠrÆ¡i":2738,"ĠVÅ©":2739,"ĠHÃ¬nh":2740,"ĠHÃłn":2741,"á»¥t":2742,"ĠÄĲÆ°á»Ŀng":2743,"ĠÄĲÆ¡n":2744,"ĠÄĲiá»ĥm":2745,"ĠÄĲÃło":2746,"ĠMá»Ľi":2747,"ĠMalaysia":2748,"Ġthuáº«n":2749,"ĠLao":2750,"ĠLuáºŃt":2751,"ĠThay":2752,"ĠThiÃªm":2753,"Ġdá»±a":2754,"á»Ńu":2755,"ĠCha":2756,"ine":2757,"inBank":2758,"ĠSU":2759,"ĠSáº£n":2760,"á»ĩt":2761,"ĠGD":2762,"ĠGr":2763,"Ġhoang":2764,"ĠDuyÃªn":2765,"Ġ31":2766,"Ġ36":2767,"Ġ2050":2768,"ĠNhÆ°ng":2769,"Ġ676":2770,"Ġtuá»ĩ":2771,"ĠÃĿ":2772,"2030":2773,"Ġlogistics":2774,"etro":2775,"Äĳiá»ģu":2776,"ĠHÃłm":2777,"Ġ114":2778,"erat":2779,"ĠÄĳoan":2780,"ĠÄĳoÃ¡n":2781,"ĠXe":2782,"ĠGiao":2783,"ĠEC":2784,"ĠEx":2785,"Ġchui":2786,"ingap":2787,"ĠRiÃªng":2788,"ĠRON":2789,"ĠVinspeed":2790,"Ġhá»ıa":2791,"ĠtÃ´m":2792,"ite":2793,"iram":2794,"ilip":2795,"ĠLove":2796,"khÃ´ng":2797,"ladim":2798,"Ġcamera":2799,"line":2800,"Quáº£n":2801,"ĠthoÃ¡i":2802,"ĠÄĳua":2803,"180":2804,"uriram":2805,"luá»ĵng":2806,"Khu":2807,"Ġoxy":2808,"Ġhuá»ĳng":2809,"ĠPark":2810,"ĠMoody":2811,"PMB":2812,"Ġnhiá»ħm":2813,"erato":2814,"ingapore":2815,"ladimir":2816,"11":2817,"43":2818,"81":2819,"Anh":2820,"ACO":2821,"AHN":2822,"ATO":2823,"Ben":2824,"CÃł":2825,"Cáº§u":2826,"Chi":2827,"Doanh":2828,"Há»Ļi":2829,"Háº£i":2830,"Há»ĩ":2831,"NQ":2832,"ST":2833,"SPC":2834,"TM":2835,"TÃ´i":2836,"Tok":2837,"VAC":2838,"Wh":2839,"cÆ¡":2840,"cá»©":2841,"cÄĥn":2842,"ckh":2843,"des":2844,"ham":2845,"iq":2846,"ier":2847,"iev":2848,"káº¿t":2849,"kiá»ĥm":2850,"ma":2851,"mÃ£":2852,"net":2853,"oa":2854,"ow":2855,"ool":2856,"pai":2857,"sáº§u":2858,"sáº£n":2859,"son":2860,"site":2861,"tÆ°":2862,"tá»Ń":2863,"yot":2864,"zut":2865,"ÃĶng":2866,"Ġ&":2867,"Ġao":2868,"Ġin":2869,"Ġon":2870,"Ġtiá»ĩc":2871,"ĠtÃ¡ng":2872,"ĠtuyÃªn":2873,"ĠtÃºng":2874,"Ġcong":2875,"Ġcáº¥t":2876,"ĠcÃº":2877,"ĠcÆ°á»Ľi":2878,"Ġcá»¡":2879,"ĠÄĳÃł":2880,"ĠÄĳáº¹p":2881,"Ġháº§u":2882,"Ġháº£i":2883,"ĠhÃ¹ng":2884,"Ġkáº»":2885,"Ġtráº¡i":2886,"Ġtreo":2887,"Ġtráº¡m":2888,"Ġtrá»ĳn":2889,"Ġtrá»«":2890,"ĠlÆ°á»Ŀng":2891,"ĠláºŃn":2892,"Ġlá»ĳc":2893,"Ġláº«n":2894,"Ġláº¯p":2895,"ĠlÆ°á»Ľi":2896,"Ġche":2897,"Ġcháº¯n":2898,"Ġcháº¥m":2899,"Ġsá»©":2900,"Ġsho":2901,"ĠÄĳá»ı":2902,"ĠÄĳá»£i":2903,"ĠÄĳá»ĵn":2904,"Ġgá»įn":2905,"ĠmÆ°á»£":2906,"Ġmá»±c":2907,"ĠmÃ¢u":2908,"ĠmÃ£i":2909,"Ġmáº¯n":2910,"ĠmÃ©p":2911,"Ġbong":2912,"ĠbÃ¹":2913,"Ġda":2914,"Ġdá»į":2915,"Ġdá»ħ":2916,"ĠdÃµi":2917,"ĠkhuyÃªn":2918,"ĠngÅ©":2919,"ĠngáºŃp":2920,"Ġnguyá»ĩn":2921,"Ġngá»£i":2922,"Ġná»ĵng":2923,"ĠTao":2924,"ĠToÃłn":2925,"ĠTá»ĭch":2926,"ĠTÃ¢m":2927,"ĠTuyÃªn":2928,"ĠTÃ´n":2929,"ĠTuyáº¿n":2930,"Ġtá»§":2931,"quáº£n":2932,"á»§ng":2933,"ĠNÃł":2934,"ĠNá»¯":2935,"ĠCai":2936,"ĠCá»Ļng":2937,"ĠCá»Ńa":2938,"ĠCá»Ńu":2939,"ĠCAHN":2940,"ano":2941,"ance":2942,"ĠrÄĥn":2943,"ĠVinh":2944,"ĠVá»ģ":2945,"ĠVladimir":2946,"ĠBáº¥t":2947,"ĠBÃłi":2948,"ĠBÃ¡o":2949,"ĠBun":2950,"ĠBID":2951,"ĠBuriram":2952,"ĠlÃłnh":2953,"á»¥y":2954,"ĠÄĲá»ı":2955,"ĠÄĲá»Ĺ":2956,"ĠÄĲáº¯k":2957,"ĠMe":2958,"ĠMi":2959,"ĠMáº·t":2960,"ĠMar":2961,"ĠMus":2962,"ĠMLG":2963,"ĠLG":2964,"ĠLÃ²":2965,"ĠLá»ĭch":2966,"ĠLat":2967,"ĠLá»ħ":2968,"ĠLending":2969,"ĠThá»į":2970,"ĠThá»¥y":2971,"ĠTrang":2972,"ind":2973,"ĠNgÆ°á»£c":2974,"ĠSIM":2975,"ĠSingapore":2976,"ĠUS":2977,"ĠGT":2978,"ĠGÃ²":2979,"ĠGen":2980,"ĠGol":2981,"ĠGPMB":2982,"Ġmáº¡ch":2983,"ĠDJ":2984,"ĠDá»¯":2985,"Ġ39":2986,"ĠQuá»³nh":2987,"ĠAl":2988,"ĠAr":2989,"ĠAward":2990,"ĠATM":2991,"ĠKáº¿t":2992,"ĠKon":2993,"ĠKiev":2994,"Ġ42":2995,"Ġ45":2996,"Ġ62":2997,"Ġ63":2998,"Ġ52":2999,"ĠyÃªn":3000,"Ġ2020":3001,"thÃ¡ng":3002,"thuáº¿":3003,"ess":3004,"Nguyá»ħn":3005,"Nghá»ĩ":3006,"Äĳá»ĳi":3007,"ÄĲÃł":3008,"ÄĲá»ģ":3009,"Ġvá»ĭt":3010,"Ġ112":3011,"erce":3012,"Ġ71":3013,"aland":3014,"Ġ90":3015,"2026":3016,"ĠEV":3017,"ĠRo":3018,"ĠRá»įt":3019,"Ġtop":3020,"Ġcá»¥m":3021,"emier":3022,"ited":3023,"ĠIs":3024,"PhÃ¡t":3025,"Pháº¡m":3026,"ilton":3027,"ĠLogistics":3028,"Ġmazut":3029,"Ġtá»ıa":3030,"ĠSacombank":3031,"CCI":3032,"Ġpickleball":3033,"vie":3034,"tevie":3035,"ĠTop":3036,"ĠToyot":3037,"ĠTuáº¥n":3038,"ĠTupai":3039,"VinSpeed":3040,"ĠBeckh":3041,"Ġkáº¹o":3042,"ĠkÃ¨m":3043,"ikTok":3044,"Ġmá»ıi":3045,"ĠTHPT":3046,"ĠUnited":3047,"yria":3048,"ĠExp":3049,"Benz":3050,"cá»©u":3051,"iqlo":3052,"Ġonline":3053,"ĠmÆ°á»£n":3054,"Ġdá»įa":3055,"ĠBIDV":3056,"ĠAwards":3057,"ercedes":3058,"ĠToyota":3059,"ĠBeckham":3060,"%/":3061,"17":3062,"26":3063,"37":3064,"330":3065,"56":3066,"750":3067,"88":3068,"900":3069,"AV":3070,"ACC":3071,"AIM":3072,"BÃł":3073,"BÃłi":3074,"BÃ¡o":3075,"CI":3076,"Cá»ķ":3077,"Chá»ĭ":3078,"DBank":3079,"EA":3080,"ER":3081,"For":3082,"GC":3083,"Long":3084,"LER":3085,"MÆ°a":3086,"NS":3087,"NÄĲ":3088,"OJ":3089,"PL":3090,"ROX":3091,"TV":3092,"TW":3093,"TÃ¬nh":3094,"Tiá»ģn":3095,"Tá»īnh":3096,"Techcombank":3097,"Ukraine":3098,"UTO":3099,"Xuáº¥t":3100,"bá»Ļ":3101,"báº£o":3102,"cÃ³":3103,"cáº£i":3104,"cá»įc":3105,"den":3106,"ff":3107,"gri":3108,"ht":3109,"hoÃłn":3110,"iv":3111,"ji":3112,"kinh":3113,"mm":3114,"má»©c":3115,"ola":3116,"ron":3117,"tÃ¬nh":3118,"tÆ°Æ¡ng":3119,"tai":3120,"tÃŃnh":3121,"tiáº¿t":3122,"tá»·":3123,"ties":3124,"ub":3125,"uá»ķi":3126,"váºŃn":3127,"vin":3128,"xÃ£":3129,"Ġá»ĳng":3130,"ĠÃ¡ch":3131,"Ġáº£o":3132,"Ġá»ĵn":3133,"Ġounce":3134,"Ġáº¥m":3135,"ngÃłnh":3136,"Ġtiá»ħn":3137,"Ġcá»±":3138,"Ġcá»ĳng":3139,"ĠÄĳÄ©a":3140,"ĠvÃ¡":3141,"Ġváº»":3142,"Ġviá»ħn":3143,"iá»ĳng":3144,"ĠthÄĥng":3145,"ĠthÃº":3146,"Ġthang":3147,"ĠthÆ°á»Ľc":3148,"Ġthá»Ŀ":3149,"Ġthá»«a":3150,"Ġhá»§":3151,"Ġháº¹p":3152,"Ġháº¹n":3153,"Ġká»ģ":3154,"Ġtrá»ĳng":3155,"ĠtráºŃt":3156,"ĠtrÆ°a":3157,"Ġtráº¥n":3158,"ĠtrÃłng":3159,"Ġtrá»«ng":3160,"Ġly":3161,"Ġláº¡":3162,"ĠlÃº":3163,"Ġláº¥n":3164,"ĠliÃªng":3165,"ĠchÃºc":3166,"áº¿ng":3167,"Ġsáº¡ch":3168,"ĠsÃ³ng":3169,"ĠsiÃªu":3170,"ĠÄĳá»¡":3171,"ĠÄĳá»Ĺ":3172,"ĠÄĳá»įc":3173,"ĠmÃª":3174,"Ġmá»Ļ":3175,"ĠmáºŃt":3176,"Ġmáº£ng":3177,"ĠmÃ³ng":3178,"Ġmáº£nh":3179,"ĠmÃ©t":3180,"Ġmá»ĩnh":3181,"ĠbÃŃ":3182,"ĠbÃ¹ng":3183,"Ġbá»¯a":3184,"ĠdÃ¡ng":3185,"Ġdá»©t":3186,"ĠnhÆ°á»Ŀng":3187,"Ġkhá»§ng":3188,"phÃ¢n":3189,"Ġngá»¥":3190,"Ġngáº¡t":3191,"Ġná»¯a":3192,"ĠgiÃłu":3193,"Ġgiáº¿ng":3194,"ĠTÃ¬nh":3195,"ĠTiá»ģn":3196,"ĠTÃ´i":3197,"ĠTechcombank":3198,"ĠTikTok":3199,"ĠquÃ¡n":3200,"ĠxÃ³i":3201,"ĠxÃ³m":3202,"iáº¿c":3203,"ĠNot":3204,"ĠNATO":3205,"ĠCuá»ĳi":3206,"Ġranh":3207,"ĠrÃ£nh":3208,"chung":3209,"chÄĥm":3210,"ĠVÃ¬":3211,"ĠVá»¥":3212,"ĠVÃło":3213,"ĠVPL":3214,"ĠHÃłnh":3215,"ĠHÄĲ":3216,"ĠHoÃłi":3217,"ĠHá»įc":3218,"ĠHÃ£ng":3219,"ĠHVAC":3220,"ĠHilton":3221,"Ġ220":3222,"Ġ250":3223,"ĠÄĲÄĥng":3224,"amov":3225,"ĠMÆ¡":3226,"ĠMá»Ĺi":3227,"ĠMast":3228,"ĠMercedes":3229,"Ġlá»į":3230,"ĠLá»£":3231,"ĠLÃłng":3232,"ĠLif":3233,"ĠThi":3234,"ĠThÆ°á»Ŀng":3235,"ĠTháº£o":3236,"ĠThÃºc":3237,"ĠThÃªm":3238,"ĠTrÃŃ":3239,"ĠTrÄĥn":3240,"ĠTrá»įng":3241,"ĠPro":3242,"ĠPerato":3243,"ĠPCI":3244,"ĠChÃªnh":3245,"ĠChiáº¿c":3246,"ĠNgÃły":3247,"ĠNghi":3248,"ĠStevie":3249,"ĠSyria":3250,"Å©i":3251,"ĠPhi":3252,"ĠQuá»¹":3253,"ĠQuá»Ľi":3254,"ĠAsia":3255,"ĠAUTO":3256,"ĠKiÃªn":3257,"ĠKiáº¿n":3258,"ĠKonic":3259,"Ġkhoang":3260,"Ġkhoáº£nh":3261,"eote":3262,"Ġhá»įa":3263,"Ġ55":3264,"Ġ56":3265,"Ġ57":3266,"enD":3267,"enn":3268,"Ġ2021":3269,"thÃ´ng":3270,"2019":3271,"NgÃłnh":3272,"Thá»Ŀi":3273,"Äĳiá»ĩn":3274,"ÄĲáº¡i":3275,"ers":3276,"eral":3277,"Ġ700":3278,"ĠÄĳoáº¡t":3279,"alamov":3280,"Ġ85":3281,"Ġ88":3282,"ĠGiÃ¢y":3283,"ĠGiÃ¡o":3284,"ĠGiÃ³t":3285,"omes":3286,"ĠkhÃŃa":3287,"Ġ101":3288,"ĠRos":3289,"ĠFPT":3290,"ĠFilip":3291,"pee":3292,"TPHCM":3293,"ĠÄĳÃ¡m":3294,"ate":3295,"ation":3296,"PhÃ¢n":3297,"Ġ168":3298,"Ġsuá»ĳi":3299,"COM":3300,"hopee":3301,"ĠÄĳuá»ĳi":3302,"Ġdáº¡y":3303,"ĠlÅ©y":3304,"Ġá»ŀ":3305,"ĠDoji":3306,"ream":3307,"Ġhuáº¥n":3308,"perties":3309,"Ġwebsite":3310,"ĠHouse":3311,"ĠHouthi":3312,"ĠForest":3313,"tingham":3314,"ĠCTF":3315,"ĠEVNSPC":3316,"ĠngoÃ¡i":3317,"ĠPlÃ´ng":3318,"giá»Ŀ":3319,"ĠmÃ³n":3320,"ĠGrand":3321,"ĠGTGT":3322,"ĠEVS":3323,"AIMLER":3324,"gribank":3325,"vinest":3326,"ĠlÃºa":3327,"ĠNottingham":3328,"ĠLá»£n":3329,"ĠLife":3330,"ĠProperties":3331,"ĠKonica":3332,"eotek":3333,"erali":3334,"alamove":3335,"ĠRose":3336,"\",":3337,"05":3338,"250":3339,"42":3340,"410":3341,"510":3342,"77":3343,"82":3344,"89":3345,"94":3346,"AI":3347,"ABank":3348,"Adu":3349,"Ba":3350,"CF":3351,"CH":3352,"CT":3353,"CÃ¡n":3354,"DA":3355,"DJ":3356,"DN":3357,"DR":3358,"EC":3359,"EM":3360,"Group":3361,"Hiá»ĩp":3362,"Khi":3363,"LV":3364,"LÃ¢m":3365,"Let":3366,"LÃ£i":3367,"Máº·c":3368,"NT":3369,"NÄĥm":3370,"NestlÃ©":3371,"PBank":3372,"PDR":3373,"REA":3374,"SB":3375,"Sá»±":3376,"SÃ¢n":3377,"TáºŃp":3378,"US":3379,"VÄĥn":3380,"VND":3381,"VÄ©nh":3382,"Vá»Ľi":3383,"Xa":3384,"ab":3385,"av":3386,"aGroup":3387,"bu":3388,"báº¥t":3389,"ber":3390,"cc":3391,"cao":3392,"cung":3393,"cot":3394,"cron":3395,"di":3396,"dai":3397,"deo":3398,"ee":3399,"eard":3400,"eABank":3401,"gor":3402,"ha":3403,"hu":3404,"há»įc":3405,"ith":3406,"km":3407,"lting":3408,"man":3409,"mon":3410,"mua":3411,"oáº£ng":3412,"ry":3413,"ren":3414,"sa":3415,"sinh":3416,"sá»©c":3417,"tiá»ģn":3418,"ter":3419,"tÃŃn":3420,"tel":3421,"uá»ĳng":3422,"ust":3423,"va":3424,"vÃłnh":3425,"ver":3426,"vua":3427,"xung":3428,"xá»Ń":3429,"yen":3430,"yal":3431,"yun":3432,"ypearl":3433,"zu":3434,"¥t":3435,"âĤ":3436,"ĠÃ¹":3437,"ĠÃºng":3438,"Ġuá»ĳng":3439,"ļc":3440,"ngh":3441,"nguá»ĵn":3442,"Ġtáº¿t":3443,"ĠtÃ¡o":3444,"ĠtiÃªm":3445,"Ġcm":3446,"ĠcÆ°á»Ľc":3447,"ĠcÆ°a":3448,"ĠÄĳam":3449,"ĠÄĳáºŃp":3450,"ĠÄĳen":3451,"ĠÄĳÃ¡y":3452,"ĠÄĳáº¯n":3453,"ĠÄĳáº¯p":3454,"ĠvÆ°Æ¡":3455,"Ġváº¡n":3456,"ĠviÃªm":3457,"ĠthÃ´":3458,"Ġthá»Ł":3459,"Ġthai":3460,"Ġthá»ķ":3461,"ĠthiÃªng":3462,"ĠhÆ°u":3463,"Ġhiá»ĩp":3464,"Ġhiáº¿m":3465,"Ġhá»©a":3466,"Ġkg":3467,"ĠkÃŃn":3468,"ĠtrÅ©ng":3469,"ĠtrÆ°á»£t":3470,"Ġtrá»įn":3471,"Ġtrá»Ļn":3472,"ĠlÃ¡":3473,"ĠlÃ´ng":3474,"ĠlÄĥn":3475,"Ġleo":3476,"ĠlÃ¢m":3477,"Ġchinh":3478,"Ġchá»ĳi":3479,"Ġcháº¿t":3480,"ĠchÄĥn":3481,"ĠchÃ¹a":3482,"Ġchá»©a":3483,"ĠsáºŃp":3484,"Ġsá»¥t":3485,"Ġgay":3486,"Ġgáº¯t":3487,"Ġgá»£i":3488,"Ġmai":3489,"ĠmÃ¡t":3490,"ĠmÃłi":3491,"ĠmÃłn":3492,"ĠmÃ³c":3493,"ĠmÃ¡u":3494,"Ġmá»ĩt":3495,"Ġbi":3496,"ĠbÃ¡c":3497,"ĠbáºŃ":3498,"Ġbáº§u":3499,"Ġbá»¥":3500,"Ġbá»ĳng":3501,"ĠbÃ¡ng":3502,"Ġbá»Ŀ":3503,"Ġbá»ī":3504,"ĠbÃ¡i":3505,"ĠbÃ©o":3506,"ĠdÆ°Æ¡ng":3507,"Ġdá»Ļt":3508,"ĠdÃ¢m":3509,"ĠdÃ¢ng":3510,"ĠdÃ©p":3511,"ĠdáºŃy":3512,"Ġnhi":3513,"ĠnhÅ©ng":3514,"Ġkhe":3515,"ĠkhÃ´i":3516,"ĠkhÃ¢u":3517,"ĠkhÆ¡i":3518,"phong":3519,"Ġná»Ńa":3520,"Ġphu":3521,"Ġphá»ī":3522,"Ġgiam":3523,"ĠgiÃ£n":3524,"Ġvá»ı":3525,"ĠTiáº¿n":3526,"ĠTáº¡o":3527,"ĠTÃ¹ng":3528,"ĠTet":3529,"ĠTour":3530,"ĠTTT":3531,"ĠxÃ¡":3532,"Ġxá»©":3533,"Ġxá»©ng":3534,"ĠNQ":3535,"ĠNiÃªn":3536,"ĠNÃ©":3537,"ĠNig":3538,"ĠCO":3539,"ĠCS":3540,"ĠCÅ©ng":3541,"ĠCon":3542,"ĠCen":3543,"ĠCar":3544,"ĠCáº¡nh":3545,"ĠConic":3546,"ania":3547,"Ġrá»Ļ":3548,"Ġrá»ķ":3549,"ĠrÃ£i":3550,"chiáº¿n":3551,"chÃŃnh":3552,"chuyÃªn":3553,"chool":3554,"Ġhá»¥t":3555,"ĠVÅ©ng":3556,"ĠVoi":3557,"ĠVCCI":3558,"ĠHáº¡":3559,"ĠHÃłi":3560,"ĠHáº±ng":3561,"ĠHÃło":3562,"ĠHot":3563,"ĠHá»£p":3564,"ĠHÃ£y":3565,"ĠHLV":3566,"ĠHeard":3567,"ĠHyun":3568,"ĠBT":3569,"ĠBo":3570,"ĠBá»ĥ":3571,"ĠBáº¡ch":3572,"ĠBáº¡c":3573,"ĠBel":3574,"ĠBkr":3575,"ĠÄĲá»Ļi":3576,"ĠÄĲá»Ļng":3577,"ĠÄĲá»ĭa":3578,"amond":3579,"ĠMW":3580,"ĠMy":3581,"ĠMÄĥng":3582,"ĠMá»ĳi":3583,"ĠMá»¥c":3584,"ĠMÃ´n":3585,"ĠMil":3586,"ĠMos":3587,"ĠMÅ©i":3588,"ĠLS":3589,"ĠLáº¡i":3590,"ĠLÃºc":3591,"ĠLiÃªu":3592,"ĠLÃ£i":3593,"ĠLiÃªm":3594,"ĠThá»ĳng":3595,"Ã²m":3596,"ĠTrÃł":3597,"ĠTrá»Ŀi":3598,"ĠTrÃ¡i":3599,"ĠTrenD":3600,"ĠPV":3601,"ĠPCC":3602,"ĠPri":3603,"ĠPow":3604,"ini":3605,"ĠSo":3606,"ĠSá»«ng":3607,"ĠSuá»ĳi":3608,"ĠSky":3609,"ĠSind":3610,"ĠSPDR":3611,"ĠSSB":3612,"ĠScot":3613,"ĠUng":3614,"ĠUAV":3615,"ĠQuyá»ģn":3616,"aus":3617,"ĠPhÃ¢n":3618,"ĠPháºŃt":3619,"ĠGS":3620,"ĠGre":3621,"ĠhoÃ£n":3622,"ĠDa":3623,"ĠDream":3624,"ĠDAIMLER":3625,"Ġ38":3626,"ĠQuáº§n":3627,"ĠAP":3628,"ĠKÃŃnh":3629,"ĠKera":3630,"ĠKCN":3631,"ĠÄĳá»ģn":3632,"ĠNhÃ¢n":3633,"ĠNhiá»ĩt":3634,"ones":3635,"Ġ47":3636,"Ġ419":3637,"Ġ61":3638,"Ġ600":3639,"Ġsoáº¡n":3640,"Ġyáº¿n":3641,"Ġ2023":3642,"thá»§":3643,"than":3644,"tháº»":3645,"thuá»ĳc":3646,"á»£t":3647,"ĠKhang":3648,"ĠKhÃºc":3649,"ĠKhoa":3650,"outh":3651,"Ġvideo":3652,"etco":3653,"Ġtá»±u":3654,"Äĳáº¡i":3655,"erom":3656,"eria":3657,"Ġ76":3658,"Ġ78":3659,"ĠXÃŃ":3660,"ĠXÃ£":3661,"ĠXá»Ń":3662,"ĠXuáº¥t":3663,"alo":3664,"Ġ96":3665,"Ġ99":3666,"Ġ83":3667,"TráºŃn":3668,"Ġhá»Ĺn":3669,"edding":3670,"ĠRÃ´":3671,"Ġ1975":3672,"Ġ1995":3673,"ĠFest":3674,"elania":3675,"ĠVietinBank":3676,"ĠYem":3677,"ĠYour":3678,"Ġvá»įt":3679,"Chiáº¿n":3680,"icola":3681,"Ġ123":3682,"att":3683,"tral":3684,"ĠIn":3685,"ĠInd":3686,"á»Ľp":3687,"1957":3688,"Ġhuyáº¿t":3689,"ĠWest":3690,"ĠWedding":3691,"Nhiá»ģu":3692,"NhÃ³m":3693,"hoa":3694,"ĠTuáº§n":3695,"Vinpearl":3696,"Ġxoay":3697,"ĠBeech":3698,"ĠDie":3699,"app":3700,"ashi":3701,"iá»ħu":3702,"ĠMacron":3703,"Ġ2017":3704,"ĠZalo":3705,"ĠVIB":3706,"ĠHarmon":3707,"ĠPremier":3708,"ĠSanvinest":3709,"AMA":3710,"opper":3711,"ĠNovaland":3712,"mathan":3713,"Ġshow":3714,"Ġtá»§i":3715,"ĠBunmathan":3716,"ĠMusang":3717,"ĠUSS":3718,"ĠGolden":3719,"ĠRoyal":3720,"ĠIsland":3721,"Ġcá»±u":3722,"Ġhá»§y":3723,"ĠHÄĲQT":3724,"Adulting":3725,"avetco":3726,"gorod":3727,"âĤĤ":3728,"ĠÃ¹n":3729,"ĠvÆ°Æ¡n":3730,"ĠbáºŃc":3731,"ĠTete":3732,"ĠNigeria":3733,"ĠCentral":3734,"ĠVoice":3735,"ĠHyundai":3736,"ĠBkrÃ´ng":3737,"ĠMilo":3738,"ĠPCCC":3739,"ĠPowell":3740,"ĠSindhu":3741,"onesia":3742,"erome":3743,"ĠYemen":3744,"ĠHarmony":3745,"150":3746,"28":3747,"38":3748,"323":3749,"47":3750,"48":3751,"53":3752,"58":3753,"600":3754,"700":3755,"790":3756,"AF":3757,"An":3758,"Asia":3759,"Agribank":3760,"BÃ³ng":3761,"Brooklyn":3762,"CA":3763,"Cl":3764,"Cáº§n":3765,"DÃ¹":3766,"DOJ":3767,"ED":3768,"EVN":3769,"Eco":3770,"Gi":3771,"Gen":3772,"GAP":3773,"Giá»ĳng":3774,"Ho":3775,"Hai":3776,"HÃ³a":3777,"HÃłng":3778,"HÃ´m":3779,"HACO":3780,"HDBank":3781,"In":3782,"Kia":3783,"LiÃªn":3784,"LuáºŃt":3785,"Liv":3786,"NJ":3787,"NX":3788,"Náº¯ng":3789,"NHNN":3790,"PP":3791,"Pan":3792,"Pay":3793,"PCOM":3794,"PNJ":3795,"Quy":3796,"Quyáº¿t":3797,"SF":3798,"SN":3799,"Sa":3800,"Sáº§u":3801,"SÃłn":3802,"SND":3803,"Sun":3804,"Shopee":3805,"TC":3806,"TF":3807,"Ta":3808,"Tá»ĳi":3809,"Tiáº¿t":3810,"Top":3811,"Tub":3812,"TEM":3813,"THACO":3814,"Un":3815,"Vinh":3816,"Vá»¥":3817,"VÅ©ng":3818,"VÃłng":3819,"Ving":3820,"bÃ¡n":3821,"biáº¿n":3822,"bes":3823,"bil":3824,"cÃ¡n":3825,"cÄĥng":3826,"cáº£nh":3827,"cif":3828,"cation":3829,"cCl":3830,"da":3831,"dy":3832,"dá»ĭch":3833,"der":3834,"go":3835,"háº¡":3836,"há»Ĺ":3837,"ich":3838,"ivi":3839,"iance":3840,"jet":3841,"kata":3842,"kWh":3843,"les":3844,"lá»Ĺ":3845,"lor":3846,"ltr":3847,"liance":3848,"mo":3849,"minh":3850,"mÃ´i":3851,"nes":3852,"nÃ¢ng":3853,"nem":3854,"niá»ģm":3855,"og":3856,"ps":3857,"pam":3858,"pin":3859,"ran":3860,"ric":3861,"sh":3862,"ss":3863,"sá»±":3864,"sÃ¡p":3865,"to":3866,"tÃ´ng":3867,"tá»±":3868,"tuyáº¿n":3869,"táº¯m":3870,"tÃłu":3871,"uch":3872,"uel":3873,"uzu":3874,"vn":3875,"vate":3876,"wren":3877,"zy":3878,"zda":3879,"Ġa":3880,"Ġá»ĳ":3881,"ĠÃ¡c":3882,"Ġáº¥p":3883,"Ġáº©m":3884,"Ľt":3885,"ngton":3886,"ĠtÆ°á»Ŀng":3887,"ĠtÃ³c":3888,"Ġtáº¥m":3889,"Ġtivi":3890,"Ġcá»©ng":3891,"Ġcá»ı":3892,"ĠcÃºp":3893,"Ġcá»ĵn":3894,"Ġcáº§m":3895,"ĠcÃ²i":3896,"ĠÄĳÃŃnh":3897,"ĠÄĳuÃ´i":3898,"ĠÄĳáºŃm":3899,"nhiá»ĩt":3900,"ĠvÃŃ":3901,"ĠvÄĥng":3902,"Ġvang":3903,"Ġváº¿t":3904,"ĠvÅ©":3905,"ĠvÃ©t":3906,"Ġvoi":3907,"Ġtha":3908,"Ġtháº£":3909,"Ġthá»į":3910,"ĠthÃ¡p":3911,"Ġháº±ng":3912,"ĠkÃŃ":3913,"Ġkiá»ģu":3914,"Ġkiá»ĥu":3915,"ĠkiÃªm":3916,"ĠkWh":3917,"ĠtrÃ¢n":3918,"ĠtrÃ¹ng":3919,"ĠtrÃło":3920,"ĠtrÃ³c":3921,"Ġtrá»ħ":3922,"ĠlÃ´":3923,"ĠlÃ¢n":3924,"Ġlá»¥":3925,"Ġlang":3926,"Ġlá»ĳi":3927,"Ġláº¥p":3928,"ĠlÃ£ng":3929,"ĠchÃ¢m":3930,"ĠchÃ´n":3931,"ĠchiÃªu":3932,"ĠchiÃªm":3933,"Ġsá»ĳc":3934,"ĠsÃ´i":3935,"ĠsÃºng":3936,"Ġsá»£i":3937,"ĠgÃ¡nh":3938,"ĠgÃ¬n":3939,"Ġgol":3940,"ĠmÆ¡":3941,"Ġmiá»ĩt":3942,"ĠmÅ©":3943,"Ġmá»įc":3944,"Ġby":3945,"ĠbÆ¡":3946,"Ġbá»Ł":3947,"ĠbÃ´i":3948,"Ġbá»Ľ":3949,"Ġbáº¥m":3950,"Ġdiá»ģu":3951,"Ġdá»Ļi":3952,"ĠdáºŃp":3953,"ĠdÃłng":3954,"Ġdáº·n":3955,"Ġdá»¡":3956,"Ġnhá»į":3957,"ĠnháºŃu":3958,"Ġnháº¯m":3959,"ĠnhÃ£n":3960,"Ġkhá»ķ":3961,"Ġkhá»ĳc":3962,"ĠkhÃ¡t":3963,"Ġkhá»Ľp":3964,"phÃª":3965,"phá»¥":3966,"Ġngáº¡c":3967,"ĠngÆ°ng":3968,"ĠnÃ³":3969,"Ġnáº¯p":3970,"ĠniÃªm":3971,"Ġná»Ĺi":3972,"ĠnÃ£o":3973,"Ġná»©t":3974,"Ġnano":3975,"Ġphe":3976,"ĠphÃ³":3977,"ĠphÃ¡i":3978,"Ġphiá»ģn":3979,"Ġphá»ı":3980,"Ġgiáº¿t":3981,"Ġvá»Ľt":3982,"ĠTáº¥t":3983,"ĠTÃº":3984,"ĠTá»Ń":3985,"ĠTá»ĳi":3986,"ĠTiáº¿ng":3987,"ĠTÄ©nh":3988,"ĠTÃłm":3989,"ĠTá»·":3990,"ĠTata":3991,"ĠTCT":3992,"ĠquÃ£ng":3993,"ĠxÆ¡":3994,"Ġxao":3995,"ĠxÃ¡o":3996,"ĠxÃ©":3997,"Ġxá»ı":3998,"ĠxÃ´n":3999,"ĠNina":4000,"ĠNeotek":4001,"ĠNNT":4002,"ĠNicola":4003,"ĠNavetco":4004,"á»ĭt":4005,"ĠCN":4006,"ĠCo":4007,"ĠCan":4008,"ĠCÃ¢y":4009,"ĠCÄĥn":4010,"ĠCÃ¡i":4011,"ĠCáº©m":4012,"ĠCá»įc":4013,"ĠCor":4014,"ĠCos":4015,"ĠCamp":4016,"ĠClu":4017,"Ġru":4018,"Ġrá»ĳi":4019,"ĠrÅ©":4020,"Ġráº£i":4021,"Ġráº¡n":4022,"ĠrÃ²ng":4023,"Ġrá»ĳn":4024,"Ġráº«y":4025,"Ġcá»§ng":4026,"chi":4027,"chá»§":4028,"chá»©ng":4029,"ĠVF":4030,"ĠVen":4031,"ĠVá»įng":4032,"ĠVÃ²m":4033,"ĠVAMA":4034,"ĠHu":4035,"ĠHá»Ļ":4036,"ĠHuy":4037,"ĠHáº§u":4038,"ĠHiá»ĥn":4039,"ĠHáºŃu":4040,"ĠHol":4041,"ĠHaus":4042,"ĠHNX":4043,"ĠBla":4044,"ĠBour":4045,"ĠBST":4046,"ĠBess":4047,"ĠBUS":4048,"Ġnghiá»ĩt":4049,"Æ°Æ¡i":4050,"ĠÄĲÃ´":4051,"ĠÄĲáº§u":4052,"ĠÄĲá»ĩ":4053,"ĠÄĲÃ¡ng":4054,"ĠÄĲáº¡o":4055,"ĠÄĲáº±ng":4056,"ĠÄĲáº·ng":4057,"ĠÄĲá»£t":4058,"ams":4059,"amil":4060,"unge":4061,"ĠMÃ´":4062,"ĠMai":4063,"ĠMin":4064,"ĠMay":4065,"ĠMáº¹":4066,"ĠMá»įi":4067,"ĠMelania":4068,"ĠMiá»ħu":4069,"ĠMcCl":4070,"Ġthuáº§n":4071,"Ġgiáº£ng":4072,"Ġlá»įc":4073,"ĠLÃ½":4074,"ĠLÃ¡i":4075,"ĠLá»«a":4076,"ĠLá»£i":4077,"ĠLalamove":4078,"ĠLPBank":4079,"ĠThu":4080,"ĠThÆ°":4081,"ĠThÆ¡":4082,"ĠThá»ķ":4083,"ĠThÆ°á»£ng":4084,"ĠTháº¡nh":4085,"ĠThorn":4086,"ĠgiÃ¡p":4087,"ĠTri":4088,"ĠTriá»ģu":4089,"ĠTram":4090,"ĠTráºŃn":4091,"ĠTrÃ¢m":4092,"ĠTrá»įn":4093,"ĠPatt":4094,"Ġgiá»į":4095,"ĠCháº¥t":4096,"ĠCháº£i":4097,"ĠChÃ¡nh":4098,"ĠChá»£":4099,"ĠChá»ĳt":4100,"inson":4101,"inance":4102,"ĠNgoáº¡i":4103,"Ġquyáº¿n":4104,"ĠSá»ĳ":4105,"ĠSik":4106,"ĠSeABank":4107,"ĠSchool":4108,"ĠSTEM":4109,"ĠUltr":4110,"ĠQR":4111,"ĠPhu":4112,"ĠPhÃ¡":4113,"ĠPhong":4114,"ĠPháº§n":4115,"ĠPhÃ¹":4116,"ĠPhÃ¹ng":4117,"ĠPhim":4118,"ĠGiá»":4119,"ĠGrou":4120,"Ġhoan":4121,"Ġhoáº¡i":4122,"Ġmáº¡c":4123,"Ġtiáº¿c":4124,"ĠDÃ¢n":4125,"ĠDinh":4126,"ĠDÃ²ng":4127,"ĠQua":4128,"ĠKH":4129,"ĠKáº¿":4130,"ĠKan":4131,"ĠKiá»ĩt":4132,"ĠKáº¡n":4133,"ĠKá»³":4134,"ĠNha":4135,"ĠNhÃłn":4136,"ĠNhÃ¬n":4137,"ĠNhuáºŃn":4138,"Ġcua":4139,"ĠÄĳá»ĳt":4140,"Ġ48":4141,"Ġ64":4142,"Ġ66":4143,"Ġ67":4144,"ĠÃļc":4145,"ĠkhuÃ´n":4146,"Ġyáº¿t":4147,"Ġtá»¥y":4148,"Ġ2022":4149,"thu":4150,"thanh":4151,"tham":4152,"thon":4153,"thiáº¿u":4154,"Ġhá»Ļp":4155,"ĠKhÃŃ":4156,"2020":4157,"ouse":4158,"ouTub":4159,"The":4160,"Thu":4161,"ThÃłnh":4162,"Thuáº¿":4163,"Tháº§y":4164,"etric":4165,"Äĳáº¥t":4166,"are":4167,"arla":4168,"ÄĲC":4169,"ÄĲV":4170,"Ġ113":4171,"Ġ72":4172,"Ġ719":4173,"ĠXÆ°Æ¡ng":4174,"ĠÃĶn":4175,"Ġ900":4176,"Ġ81":4177,"Ġ84":4178,"Ġ800":4179,"Ġ877":4180,"imetro":4181,"2022":4182,"TrÃł":4183,"TrÆ°á»Ľc":4184,"Tráº£i":4185,"Triá»ĥn":4186,"ometric":4187,"ĠEdu":4188,"ĠEver":4189,"hip":4190,"hite":4191,"ĠRáº¡ch":4192,"ĠRom":4193,"ĠRá»ĭa":4194,"ĠHá»ĵi":4195,"gia":4196,"giáº£":4197,"Ġ199":4198,"Ġ1961":4199,"ork":4200,"ĠVinamil":4201,"ĠViettel":4202,"ĠVietGAP":4203,"ĠYÃªu":4204,"ĠYouTub":4205,"Chuyá»ĥn":4206,"Ġ121":4207,"atur":4208,"tre":4209,"trong":4210,"iti":4211,"Ġbaht":4212,"PhÃ²ng":4213,"ĠLounge":4214,"ĠNghiá»ĩp":4215,"1975":4216,"âĢĿ":4217,"khÃŃ":4218,"ĠWGC":4219,"ĠWashi":4220,"ĠWhite":4221,"Ġbus":4222,"Ġ187":4223,"ĠVNG":4224,"NháºŃt":4225,"low":4226,"Ġthoáº£i":4227,"ĠthoÃ¡ng":4228,"uri":4229,"ĠToÃ¡n":4230,"Ġ135":4231,"ĠLawren":4232,"VietinBank":4233,"erathon":4234,"VinFast":4235,"dings":4236,"ĠDiamond":4237,"luáºŃt":4238,"usarla":4239,"ĠMans":4240,"Kham":4241,"Ġoan":4242,"ĠVillas":4243,"asonic":4244,"ifer":4245,"ĠJerome":4246,"ĠâĢľ":4247,"ĠChampionship":4248,"ĠTHACO":4249,"ĠMazda":4250,"ĠMobil":4251,"ĠUniqlo":4252,"ĠFord":4253,"Ġdá»ĭu":4254,"ellan":4255,"iss":4256,"ĠbÃªtÃ´ng":4257,"ĠPlay":4258,"ĠSanest":4259,"973":4260,"AMG":4261,"ĠghÃ©":4262,"ĠNovaGroup":4263,"ĠChaff":4264,"Ġ360":4265,"anoimetro":4266,"ĠMeypearl":4267,"ĠMarina":4268,"ĠAlliance":4269,"ĠExpo":4270,"ĠExplor":4271,"562":4272,"Forex":4273,"NSO":4274,"ĠTikToker":4275,"ĠMasters":4276,"Ġlá»įt":4277,"ennifer":4278,"CFC":4279,"bert":4280,"ccine":4281,"ternet":4282,"Ġbiometric":4283,"Ġbá»¥ng":4284,"ĠTTTD":4285,"ĠCargo":4286,"ĠBelgorod":4287,"ĠPrivate":4288,"ĠGreen":4289,"ĠIndonesia":4290,"DOJI":4291,"Generali":4292,"Panasonic":4293,"ShopeePay":4294,"Tax":4295,"Uniqlo":4296,"Vinhomes":4297,"Vingroup":4298,"cific":4299,"nemouth":4300,"uchia":4301,"ĠkÃŃp":4302,"Ġlá»¥a":4303,"Ġgolf":4304,"ĠbÆ¡m":4305,"Ġbá»Ľt":4306,"Ġphá»ıng":4307,"ĠTatae":4308,"ĠTCTD":4309,"ĠCannes":4310,"ĠCorp":4311,"ĠCosmo":4312,"ĠCampuchia":4313,"ĠClub":4314,"ĠVenkata":4315,"ĠHoldings":4316,"ĠBlack":4317,"ĠBournemouth":4318,"ĠBessent":4319,"ĠMinzy":4320,"ĠMcClellan":4321,"ĠPattinson":4322,"ĠSika":4323,"ĠUltra":4324,"ĠGrout":4325,"ĠEducation":4326,"ĠVinamilk":4327,"ĠYouTube":4328,"ĠWashington":4329,"ĠLawrence":4330,"ĠMobile":4331,"ĠChaffee":4332,"ĠExplorer":4333}