{"<pad>":0,"<unk>":1,"<sos>":2,"<eos>":3,"<sep>":4,"!":5,"\"":6,"#":7,"$":8,"%":9,"&":10,"'":11,"(":12,")":13,"*":14,"+":15,",":16,"-":17,".":18,"/":19,"0":20,"1":21,"2":22,"3":23,"4":24,"5":25,"6":26,"7":27,"8":28,"9":29,":":30,";":31,"<":32,"=":33,">":34,"?":35,"@":36,"A":37,"B":38,"C":39,"D":40,"E":41,"F":42,"G":43,"H":44,"I":45,"J":46,"K":47,"L":48,"M":49,"N":50,"O":51,"P":52,"Q":53,"R":54,"S":55,"T":56,"U":57,"V":58,"W":59,"X":60,"Y":61,"Z":62,"[":63,"\\":64,"]":65,"^":66,"_":67,"`":68,"a":69,"b":70,"c":71,"d":72,"e":73,"f":74,"g":75,"h":76,"i":77,"j":78,"k":79,"l":80,"m":81,"n":82,"o":83,"p":84,"q":85,"r":86,"s":87,"t":88,"u":89,"v":90,"w":91,"x":92,"y":93,"z":94,"{":95,"|":96,"}":97,"~":98,"¡":99,"¢":100,"£":101,"¤":102,"¥":103,"¦":104,"§":105,"¨":106,"©":107,"ª":108,"«":109,"¬":110,"®":111,"¯":112,"°":113,"±":114,"²":115,"³":116,"´":117,"µ":118,"¶":119,"·":120,"¸":121,"¹":122,"º":123,"»":124,"¼":125,"½":126,"¾":127,"¿":128,"À":129,"Á":130,"Â":131,"Ã":132,"Ä":133,"Å":134,"Æ":135,"Ç":136,"È":137,"É":138,"Ê":139,"Ë":140,"Ì":141,"Í":142,"Î":143,"Ï":144,"Ð":145,"Ñ":146,"Ò":147,"Ó":148,"Ô":149,"Õ":150,"Ö":151,"×":152,"Ø":153,"Ù":154,"Ú":155,"Û":156,"Ü":157,"Ý":158,"Þ":159,"ß":160,"à":161,"á":162,"â":163,"ã":164,"ä":165,"å":166,"æ":167,"ç":168,"è":169,"é":170,"ê":171,"ë":172,"ì":173,"í":174,"î":175,"ï":176,"ð":177,"ñ":178,"ò":179,"ó":180,"ô":181,"õ":182,"ö":183,"÷":184,"ø":185,"ù":186,"ú":187,"û":188,"ü":189,"ý":190,"þ":191,"ÿ":192,"Ā":193,"ā":194,"Ă":195,"ă":196,"Ą":197,"ą":198,"Ć":199,"ć":200,"Ĉ":201,"ĉ":202,"Ċ":203,"ċ":204,"Č":205,"č":206,"Ď":207,"ď":208,"Đ":209,"đ":210,"Ē":211,"ē":212,"Ĕ":213,"ĕ":214,"Ė":215,"ė":216,"Ę":217,"ę":218,"Ě":219,"ě":220,"Ĝ":221,"ĝ":222,"Ğ":223,"ğ":224,"Ġ":225,"ġ":226,"Ģ":227,"ģ":228,"Ĥ":229,"ĥ":230,"Ħ":231,"ħ":232,"Ĩ":233,"ĩ":234,"Ī":235,"ī":236,"Ĭ":237,"ĭ":238,"Į":239,"į":240,"İ":241,"ı":242,"Ĳ":243,"ĳ":244,"Ĵ":245,"ĵ":246,"Ķ":247,"ķ":248,"ĸ":249,"Ĺ":250,"ĺ":251,"Ļ":252,"ļ":253,"Ľ":254,"ľ":255,"Ŀ":256,"ŀ":257,"Ł":258,"ł":259,"Ń":260,"á»":261,"áº":262,"ng":263,"Ġt":264,"Ġc":265,"ĠÄ":266,"nh":267,"ĠÄĳ":268,"Ãł":269,"Ġv":270,"há»":271,"Æ°":272,"Ã¡":273,"Ġl":274,"iá»":275,"Ġk":276,"Ġtr":277,"Ġb":278,"Ġth":279,"Ġs":280,"Ġm":281,"Æ°á»":282,"Ġh":283,"Ġnh":284,"áº¿":285,"Ã´":286,"Ġn":287,"Ġg":288,"áº¡":289,"Ġch":290,"áº£":291,"Ġkh":292,"ĠÄĳá»":293,"Ãª":294,"Ġd":295,"Ġng":296,"Ã³":297,"iá»ĩ":298,"Ġp":299,"ĠT":300,"áº¥":301,"Ã´ng":302,"Ãªn":303,"ĠvÃł":304,"á»ĳ":305,"Ã¢":306,"Ġph":307,"Ã¡c":308,"Ġvá»":309,"á»Ļ":310,"Ġgi":311,"Æ¡":312,"Ġthá»":313,"Ġhá»":314,"áº§":315,"áºŃ":316,"Ġtá»":317,"Ġcá»":318,"uy":319,"iáº¿":320,"Ġq":321,"Äĥ":322,"Ã¬":323,"Æ°á»Ŀ":324,"ĠN":325,"Ľi":326,"ÃŃ":327,"Ġx":328,"Ġqu":329,"ĠlÃł":330,"Ġr":331,"áº¡i":332,"Ġchá»":333,"Æ°á»£":334,"ong":335,"an":336,"ĠC":337,"Ġcá»§":338,"Ġcá»§a":339,"áº¥t":340,"ĠcÃ³":341,"ĠcÃ¡c":342,"iá»ģ":343,"ĠH":344,"Ã¢n":345,"Ãº":346,"á»Ł":347,"Ã¬nh":348,"á»±":349,"áº¯":350,"iÃªn":351,"ch":352,"Ã£":353,"ĠM":354,"áº§n":355,"Ġcho":356,"inh":357,"Æ°á»£c":358,"Ãły":359,"Ġtrong":360,"iá»ĩn":361,"á»Ļt":362,"Ġvá»Ľi":363,"ai":364,"Æ°á»Ľ":365,"ĠV":366,"Æ°á»Ŀi":367,"iá»ģu":368,"ĠB":369,"Ġhá»į":370,"anh":371,"ĠnÄĥ":372,"ĠÄĳÆ°á»£c":373,"á»ĭ":374,"Ãłnh":375,"ĠkhÃ´ng":376,"Ã²":377,"ay":378,"Ã¹":379,"áº§u":380,"Ġmá»":381,"iá»ĥ":382,"Æ°á»Ŀng":383,"Ġ1":384,"Æ°Æ¡":385,"ĠngÆ°á»Ŀi":386,"Ġmá»Ļt":387,"©ng":388,"áº·":389,"Æ°Æ¡ng":390,"ĠÄĳá»Ļ":391,"á»¯":392,"Ġ2":393,"áº£i":394,"on":395,"ao":396,"am":397,"ĠÄĲ":398,"©c":399,"ĠTr":400,"Ġlá»":401,"uyá»":402,"ĠS":403,"áºŃn":404,"ang":405,"Ġ\"":406,"Ġtá»«":407,"Æ°á»Ľc":408,"áº£n":409,"Ãłi":410,"áº¿n":411,"ung":412,"Ġngh":413,"ĠA":414,"Ġhá»įc":415,"uá»ĳ":416,"Ġkhi":417,"Æ¡n":418,"ĠnÄĥm":419,"ĠL":420,"ĠnhÆ°":421,"in":422,"ĠÄĳá»ĥ":423,"ĵng":424,"Ġá»Ł":425,"Ãłng":426,"ĠTh":427,"au":428,"áº¿t":429,"Ãłn":430,"iáº¿n":431,"ĠcÃ´ng":432,"Ã¡n":433,"á»ķ":434,"eo":435,"00":436,"Ã´i":437,"iáº¿t":438,"Ġho":439,"Ġthá»ĥ":440,"Ã¢y":441,"ĠÄĳÃ³":442,"ÃŃnh":443,"Ġsá»ĳ":444,"Ã¡t":445,"ĠP":446,"Ŀi":447,"ĠnÃły":448,"áºŃp":449,"ĠÄĳÃ£":450,"Ã¡ng":451,"Ġthu":452,"Ġdá»":453,"Ã¹ng":454,"Ġgiá»":455,"ĠÄĳáº§u":456,"ĠÄĳáº¿n":457,"ĠNg":458,"á»¯ng":459,"ĠK":460,"áº±":461,"Ġnhá»¯ng":462,"áº©":463,"iá»ĩu":464,"Ġnhiá»ģu":465,"Ġsáº":466,"iá»ĩt":467,"Ġ(":468,"Ġvá»ģ":469,"Ã½":470,"ĠvÃło":471,"¥c":472,"ĠD":473,"Äĥng":474,"Å©ng":475,"áºŃt":476,"iá»ĩc":477,"Ġphá»":478,"áº¡n":479,"Ġra":480,"ĠG":481,"ĠÄĳá»ĭ":482,"er":483,"Ã¡o":484,"ĠÄĳá»Ļng":485,"ĠnÃ³":486,"Ġtáº¡i":487,"Ġcáº£":488,"ĠÄĳá»ĵng":489,"ĠhÆ¡n":490,"Ġtrá»":491,"±c":492,"ĠcÅ©ng":493,"en":494,"á»¹":495,"ĠnhÃł":496,"Ã¡ch":497,"Ã©":498,"Ã¡i":499,"áº«":500,"Ġsá»":501,"Ġviá»ĩc":502,"ĠlÃłm":503,"Ãªu":504,"Ġsáº½":505,"iá»ĥm":506,"áº¡t":507,"ar":508,"ĠQ":509,"áº±ng":510,"ĠtrÃªn":511,"Ġdo":512,"Ġgia":513,"Ä©":514,"Ġ20":515,"áº¡o":516,"ĠthÃłnh":517,"Ġkho":518,"ĥn":519,"ĠhÃłng":520,"Ġchá»ī":521,"Ġbá»ĭ":522,"Ġsinh":523,"á»Ļc":524,"ÃŃch":525,"Ġnghiá»ĩ":526,"Ġsá»±":527,"Ġtiáº¿":528,"uyÃªn":529,"ĠtrÆ°á»Ŀng":530,"áº£ng":531,"á»ĵ":532,"áº¥p":533,"\",":534,"á»ķi":535,"ĠNh":536,"áº¥y":537,"ĠÃ´ng":538,"Ġhiá»ĩn":539,"Ġláº¡i":540,"ĠngÃły":541,"áº£o":542,"ĠgiÃ¡":543,"Ġtá»ĳ":544,"Ã²n":545,"ĠnÃ³i":546,"Ġsau":547,"Ġnghá»":548,"ģn":549,"Ġbá»":550,"ĠÄĳá»ĭnh":551,"áº«n":552,"Ġhá»Ļ":553,"ĠnhÃ¢n":554,"Ã¡p":555,"Ġ-":556,"Ġquan":557,"Ġtu":558,"Ġnháº¥t":559,"ĠchÃŃnh":560,"Ġdá»±":561,"al":562,"Ã¡nh":563,"ĠCh":564,"Äĥn":565,"áº¥n":566,"ĠnÆ°á»Ľc":567,"ĠNam":568,"ĠviÃªn":569,"ĠPh":570,"ĠnháºŃn":571,"Ġ3":572,"Ġhai":573,"á»±c":574,"Ã¢m":575,"Æ°a":576,"Æ°á»£ng":577,"Ġdá»¥":578,"Æ°á»Ł":579,"ĳng":580,"ĠViá»ĩt":581,"Æ°á»Łng":582,"Ġcon":583,"áº·c":584,"Ġpháº£i":585,"ħn":586,"uáº¥t":587,"ĠcÆ¡":588,"Ãºc":589,"áº·t":590,"Ġthá»Ŀi":591,"Ã´n":592,"áº¯c":593,"Ã²ng":594,"Ġxe":595,"Ġcao":596,"áº¯t":597,"Ã¢u":598,"ia":599,"Ġbiáº¿t":600,"Ġlá»Ľ":601,"Ġká»":602,"ĠÄĳá»ģ":603,"Ãªm":604,"Ġtheo":605,"Ãło":606,"Ġto":607,"Ġy":608,"Ġdá»¥ng":609,"ĠtrÃ¬nh":610,"£p":611,"ĠtÄĥng":612,"ĠcÃ²n":613,"Ġgiáº£":614,"iá»ĥn":615,"ĠtÃ´i":616,"ĠphÃ¡t":617,"á»Ļi":618,"ĠU":619,"á»ĭch":620,"ĠthÃ´ng":621,"Ġá»":622,"ĠthÃ¡ng":623,"Ġhá»£p":624,"ĠÄĳi":625,"Ġmá»Ľi":626,"Ġnghiá»ĩp":627,"áº¡nh":628,"iá»ģn":629,"ĠnhÆ°ng":630,"áº¹":631,"Ġqua":632,"ĳi":633,"Ġsáº£n":634,"Ġlo":635,"uá»ĳc":636,"ĠtrÆ°á»Ľc":637,"Ġthá»±c":638,"ĠÄĳiá»ĥm":639,"ĠnÄĥng":640,"ĠMá»¹":641,"á»į":642,"áº©m":643,"ĠÄĳiá»ģu":644,"ĠhÃłnh":645,"Ġtáº¿":646,"uá»Ļc":647,"Ãºng":648,"Ġhá»Ļi":649,"ĠKh":650,"Ġtáº¡o":651,"áº»":652,"iÃªu":653,"á»ĳc":654,"Ġkáº¿t":655,"įng":656,"Ġquy":657,"ĠcÃ¹ng":658,"áº¿u":659,"el":660,"Ġ5":661,"or":662,"uyá»ĥn":663,"ĠcÃ¡ch":664,"Ġtá»ķ":665,"ĠlÃ½":666,"ĠtÆ°":667,"Ġkhá»":668,"ĠmÃł":669,"ĠI":670,"uyá»ģn":671,"Ġxuáº¥t":672,"Ĺi":673,"Æ¡i":674,"Ġtiáº¿p":675,"es":676,"Ġtháº¿":677,"Ġ202":678,"ĠÄĳang":679,"áº¥u":680,"Ġ4":681,"áº¡ng":682,"Ġanh":683,"ĠR":684,"ĠhÃ¬nh":685,"ĠvÃ¬":686,"ĠQuá»ĳc":687,"Ġthá»ĳng":688,"uyá»ĩ":689,"im":690,"Ã³a":691,"Ġlá»Ľn":692,"Ġtuá»ķi":693,"ĠlÃªn":694,"Ġgiáº£i":695,"Ġngo":696,"ĠlÆ°á»£ng":697,"Ġtá»±":698,"Ġlá»±c":699,"Ġcáº§u":700,"ua":701,"Ġcáº¥p":702,"ĠtÃ¡c":703,"ĠkhÃ¡c":704,"iá»ĥu":705,"ĠnÃªn":706,"iá»ħn":707,"Ãºp":708,"ĠÃ":709,"\".":710,"Ġlu":711,"Ġgiá»Ľi":712,"Ġtháº¥y":713,"ĠF":714,"ĠAnh":715,"ĠtÃłi":716,"Ġdoanh":717,"Ġchá»©c":718,"áº£nh":719,"Ġtriá»ĩu":720,"em":721,"ĠÄĳo":722,"ĠtáºŃp":723,"Ġgian":724,"Ġráº±ng":725,"Ġthá»ĭ":726,"ĠgiÃºp":727,"Æ°á»Ľng":728,"Ġtin":729,"Ġtriá»ĥn":730,"Ġná»":731,"Ġsá»Ń":732,"á»ĳi":733,"Ġcáº§n":734,"Ġláº§n":735,"Ã¡y":736,"Ġbá»Ļ":737,"Ġvá»¥":738,"Ġgiáº£m":739,"Ġpháº©m":740,"Ġchá»§":741,"Ġbáº±ng":742,"ĠtiÃªu":743,"ĠtoÃłn":744,"ĠthÆ°á»Ŀng":745,"ĠcÃ´":746,"Ġbáº¡n":747,"ĠThá»":748,"Ġcuá»Ļc":749,"uyá»ĩn":750,"000":751,"Ġtiá»ģn":752,"Äĥm":753,"ĠÄĳá»ķ":754,"ĠÃ¡n":755,"ĠÄĳÆ°á»Ŀng":756,"Å©":757,"Ġnhá»":758,"á»Ļng":759,"Ġtá»·":760,"áº¯ng":761,"ĠsÄ©":762,"ĠkhÃ¡ch":763,"Ġgiá»¯":764,"Ġgáº§n":765,"Ġkinh":766,"Ãºt":767,"et":768,"Ġbáº£n":769,"Ġquá»ĳc":770,"Ġnghá»ĩ":771,"Ġhay":772,"Ġbáº£o":773,"Ġ6":774,"Ġpháº§n":775,"ic":776,"ĠÄĳá»ĳi":777,"ĩnh":778,"Æ°u":779,"ĠÄĳáº¡i":780,"ĠTrong":781,"Ġváº«n":782,"ĠtÃ¢m":783,"Ġhá»ĩ":784,"Ġcá»©":785,"as":786,"Ġvá»ĭ":787,"áº¡ch":788,"áº¡c":789,"is":790,"ĠphÃŃ":791,"ĠnhiÃªn":792,"Ġso":793,"ĠTrung":794,"at":795,"Ġtá»Ľi":796,"áº¡m":797,"Ġhoáº·c":798,"ĠÄĳiá»ĩn":799,"Ġsá»ĳng":800,"Ġbá»ĳ":801,"ĠÄĳÃ¢y":802,"ĠdÃ¢n":803,"Ġthá»§":804,"ĠÄĲá»":805,"ĠmÃ¬nh":806,"Ġtrá»Ł":807,"Ġhiá»ĩu":808,"Ġthá»©c":809,"ĠÄĥn":810,"ĠtÃ¬nh":811,"áº¯n":812,"..":813,"20":814,"Ġnay":815,"ĠÄĳá»ķi":816,"ĠTheo":817,"hi":818,"ĠthÃªm":819,"iáº¿u":820,"ıi":821,"iá»ĩm":822,"ĠtÃŃnh":823,"Ġáº£nh":824,"Ġkhoáº£ng":825,"Ġtrung":826,"uá»ĳn":827,"Ġthi":828,"ĠbÃ¡o":829,"ĠGi":830,"ĠbÃ¡n":831,"Ã³ng":832,"£i":833,"ĠhÃ³a":834,"ĠdÃ¹ng":835,"Ġtá»«ng":836,"Ġtrá»£":837,"um":838,"ĠliÃªn":839,"uyáº¿n":840,"Ġtrá»įng":841,"ĠQu":842,"Ġmáº·t":843,"Ġdiá»ħn":844,"Ã¬m":845,"Ġhoáº¡t":846,"Ġ10":847,"ol":848,"Ã¨":849,"Ġá»©ng":850,"id":851,"Ńa":852,"Ġtrá»ĭ":853,"Ġty":854,"Ġkiáº¿n":855,"Ġba":856,"ĠmÃ¡y":857,"Ġká»³":858,"uá»ĳi":859,"Ġgiao":860,"Ġcháº¥t":861,"ĠW":862,"Ġtiáº¿ng":863,"it":864,"Ġchuyá»ĥn":865,"Ġtá»ĳt":866,"Ġmá»©c":867,"Ġcáº£m":868,"ĠÃ½":869,"ĠchuyÃªn":870,"áº©n":871,"ĠthÆ°Æ¡ng":872,"ĠE":873,"Ġmá»Ĺi":874,"ĠsÃ¡t":875,"ĠkhÃ³":876,"Ġkhu":877,"ĠphÆ°Æ¡ng":878,"«a":879,"Ġdá»ĭch":880,"Ġ7":881,"ĠtÃ¬m":882,"Ġkhiáº¿n":883,"ĠtÃŃch":884,"Ġráº¥t":885,"įn":886,"Ġcáº£nh":887,"Ġchá»ĭ":888,"ĠchÆ°a":889,"Ġquáº£":890,"Ġmáº¡nh":891,"Ġthiáº¿t":892,"Ġcá»©u":893,"Ġthá»©":894,"Ã³m":895,"ĠJ":896,"Æ°ng":897,"ĠsÃ¡ng":898,"ro":899,"Ġchi":900,"Ġtham":901,"ĠUS":902,"Ġbáº¯t":903,"Ġ8":904,"ĠnháºŃp":905,"ĠHÃł":906,"Ġem":907,"ĠquÃ¡":908,"Ġmua":909,"Ġquyáº¿t":910,"ĠláºŃp":911,"Ġmuá»ĳn":912,"ĠÄĳÆ¡n":913,"ĠxÃ£":914,"á»ĵi":915,"ĠyÃªu":916,"Ġtá»¥c":917,"áº§m":918,"us":919,"ĠsÃ¡ch":920,"Ġhá»ĵ":921,"Ġchiáº¿n":922,"Ã¡m":923,"áº±m":924,"īnh":925,"uá»ĳng":926,"ĠphÃ¡p":927,"Ġliá»ĩu":928,"Ġngá»":929,"Ġná»¯":930,"ĠUSD":931,"le":932,"ĠhÆ°á»Ľng":933,"Ġdáº«n":934,"Ġvá»±c":935,"),":936,"ĠÄĳÆ°a":937,"Æ°á»£t":938,"ĠtiÃªn":939,"á»ķng":940,"ĠÄĳÃ¬nh":941,"Ġthay":942,"ra":943,"Ãµ":944,"Ġchu":945,"Ġváº¥n":946,"ĠphÃ²ng":947,"Ġloáº¡i":948,"Ã²a":949,"ĠÄĳÃ¡nh":950,"Ġkáº¿":951,"áº·p":952,"Ġtráº»":953,"Ġcháº¿":954,"Ġchá»įn":955,"Ġ9":956,"ĠnÃło":957,"Ġsá»©c":958,"ĠHo":959,"Ġbáº¥t":960,"ĠchÃºng":961,"«ng":962,"Ġdiá»ĩn":963,"Ã©t":964,"ĠthÃ¢n":965,"CM":966,"ĠbÃł":967,"ĠY":968,"ĠÄĳáº¡t":969,"ĠTuy":970,"ĠngoÃłi":971,"ĠdÃłi":972,"ĠCÃ¡c":973,"ĠbÃ¬nh":974,"Ġrá»":975,"ĠÄĳá»ģu":976,"ĠX":977,"Ġmang":978,"á»ĵn":979,"Ã©p":980,"á»Ń":981,"Ġchá»©ng":982,"ĠÄĳá»ĭa":983,"Ġtrang":984,"ĠlÃ£":985,"áºŃy":986,"ÄĲ":987,"Ġbá»ĩnh":988,"il":989,"Ķng":990,"Ġmáº¹":991,"Ġnghiá»ĩm":992,"ĠTP":993,"ĠtrÆ°á»Łng":994,"Ġan":995,"áº³":996,"Ġbiá»ĩt":997,"ĠhoÃłn":998,"Ġdu":999,"áºŃu":1000,"ĠngÃłnh":1001,"Ġkiá»ĩn":1002,"ump":1003,"ĠnhÃ³m":1004,"ĠSau":1005,"Ġsá»Ł":1006,"Ġhá»Ĺ":1007,"Ã´m":1008,").":1009,"ĠgÃ¢y":1010,"ĠgÃ³":1011,"ĠcÃ¡":1012,"á»ĵm":1013,"Ġphá»¥":1014,"ĠtÆ°Æ¡ng":1015,"ĠTrump":1016,"uyá»ħn":1017,"Æ°á»Ľi":1018,"ĠtrÃŃ":1019,"om":1020,"áº¡y":1021,"ĠO":1022,"¯ng":1023,"Ġcuá»ĳi":1024,"ĠÃ¡p":1025,"Ġlá»ĭch":1026,"ĠnghÄ©":1027,"Ġbiáº¿n":1028,"áº³ng":1029,"Ġtay":1030,"ĠváºŃt":1031,"ing":1032,"ĠÃĶng":1033,"Ġtá»ķng":1034,"uá»ĵn":1035,"Ġmá»¥c":1036,"ĠÄĲáº¡i":1037,"ĠNá»Ļi":1038,"ĠÄĳáº¡o":1039,"Ġmá»Ł":1040,"ĠgiÃ¡o":1041,"Ġ19":1042,"Ġgá»ĵm":1043,"ĠNgo":1044,"ĠCÃ´ng":1045,"ad":1046,"iáº¿m":1047,"ĠÄĳáº·c":1048,"ĠbÃłi":1049,"Ġcá»ķ":1050,"Ġtranh":1051,"ĠphÃ¢n":1052,"ĠBá»Ļ":1053,"ĠthÃŃch":1054,"Ġquyá»ģn":1055,"ĠbÃªn":1056,"ĠthuáºŃt":1057,"Ġgiá»¯a":1058,"Ã¬n":1059,"Ġgiá»Ŀ":1060,"Ġlá»£i":1061,"ĠvÄĥn":1062,"ne":1063,"Ġphá»ĳ":1064,"ĠNguyá»ħn":1065,"Ġchia":1066,"Ġkhai":1067,"th":1068,"Th":1069,"áº£m":1070,"ĠChá»":1071,"Ġtruyá»ģn":1072,"Ġvá»£":1073,"ĠVá»":1074,"áº¯p":1075,"ĠnÆ¡i":1076,"Ġkháº£":1077,"ĠÄĳá»Ļi":1078,"Ġphá»¥c":1079,"ĠHCM":1080,"Ġtiáº¿t":1081,"ĠchÆ°Æ¡ng":1082,"Ġtho":1083,"Ġgáº·p":1084,"Ġdá»±ng":1085,"ĠÄĳáº¥t":1086,"Ġnáº¿u":1087,"Ġcá»ĳ":1088,"Ġmá»į":1089,"Ġbá»ı":1090,"Ġháº¡n":1091,"202":1092,"Ġthuá»Ļc":1093,"ĠxÃ¢y":1094,"ur":1095,"áº·ng":1096,"ĠhÆ°á»Łng":1097,"ĠTá»ķng":1098,"Ãłu":1099,"Ġtá»īnh":1100,"ĠthÃ¬":1101,"ĠnghiÃªn":1102,"Ġká»¹":1103,"Ġnhiá»ĩm":1104,"ĠÄĳáº·t":1105,"áº¥m":1106,"ĠÄĳÃ³ng":1107,"áº§y":1108,"Ġká»ĥ":1109,"tr":1110,"á»ĳn":1111,"Ġvá»ĩ":1112,"Ġmá»įi":1113,"Ä©nh":1114,"Ġmáº¥t":1115,"ÃŃt":1116,"Ġ201":1117,"Ġtá»ĳi":1118,"Ġyáº¿u":1119,"áº¯m":1120,"Ġnhau":1121,"Ġkiá»ĥm":1122,"ac":1123,"ĠAn":1124,"Ġnhá»ı":1125,"Ġlao":1126,"Ġtuyá»ĥn":1127,"Ġgá»į":1128,"ĠMá»Ļt":1129,"ĠÄĳáº¥u":1130,"Ġlá»Ŀi":1131,"Ġnguá»ĵn":1132,"ĠmÃ´":1133,"ĠváºŃy":1134,"os":1135,"Ġrá»Ļng":1136,"ĠtÃªn":1137,"ĠÄĳá»§":1138,"ĠNgoÃłi":1139,"Ġkhoa":1140,"Ġta":1141,"iÃªm":1142,"Ġchung":1143,"Ġtinh":1144,"áº¹p":1145,"Ġtra":1146,"ĠcÃ¡o":1147,"Ġquáº£n":1148,"ĠlÃºc":1149,"ĠÄĳá»ĵ":1150,"ĠquÃ¢n":1151,"Ã³c":1152,"Ġtiáº¿n":1153,"ĠgÃ¬":1154,"Ġvá»įng":1155,"Ġcung":1156,"Ġlá»Ľp":1157,"ĠvÃłng":1158,"Ġviá»ĩn":1159,"áºŃm":1160,"Ġban":1161,"Ãªng":1162,"Ġdanh":1163,"ter":1164,"ĠKhi":1165,"Ġthuáº¿":1166,"un":1167,"Ġtuáº§n":1168,"...":1169,"Ġtráº£":1170,"and":1171,"ĠnÃ³ng":1172,"Ġmáº¡ng":1173,"ĠchÃŃ":1174,"áº£y":1175,"ĠAI":1176,"ot":1177,"Ġhá»ĵi":1178,"uá»ķi":1179,"áº½":1180,"ĠTá»":1181,"Ġchuáº©n":1182,"Ġnhanh":1183,"Ġbao":1184,"ĠkhÃŃ":1185,"Ġbay":1186,"Ġxem":1187,"áº¿p":1188,"iÃªng":1189,"áº«u":1190,"ĠÄĳoáº¡n":1191,"įc":1192,"ov":1193,"áº©u":1194,"Ġ12":1195,"Ġtá»Ń":1196,"Ġdá»¥c":1197,"ag":1198,"Ġná»Ļi":1199,"ĠnguyÃªn":1200,"Ã¹a":1201,"Ġhá»ıi":1202,"Æ°á»¡":1203,"Ġsáº»":1204,"ĠÄĳá»Ŀi":1205,"ĠÄĳoÃłn":1206,"Ġphá»§":1207,"ĠxÃ¡c":1208,"Ġtrá»±c":1209,"Ġvá»«a":1210,"Ġnhu":1211,"Ġnghá»ĭ":1212,"Ġcáº¡nh":1213,"á»Łi":1214,"ap":1215,"Ġná»ķi":1216,"Ġkhá»ı":1217,"Ġhiá»ĥu":1218,"Ġchá»ĵng":1219,"Ġháº¿t":1220,"Ġhoáº¡ch":1221,"Ġkhá»ıe":1222,"ĠkÃ½":1223,"ĠÄĳáº£m":1224,"ĠNhá»":1225,"ĠhÃ´m":1226,"ĠtráºŃn":1227,"á»įc":1228,"ĠÃŃt":1229,"ok":1230,"ĠmÃ´n":1231,"Ã©o":1232,"Ġchuyá»ĩn":1233,"áº©y":1234,"ĠcÃ¢u":1235,"ĠxÃ©t":1236,"ĠNhÃł":1237,"Ġduy":1238,"Ġvá»ĳn":1239,"Ġná»ģn":1240,"Ġ15":1241,"Ġgá»įi":1242,"Ġtráº£i":1243,"Ġminh":1244,"Æ°á»¡ng":1245,"ĠÄĳá»ĳ":1246,"ĠthÆ°":1247,"Ġcá»Ńa":1248,"Ġkhoáº£n":1249,"ĠngÃ¢n":1250,"Ġkháº©u":1251,"Ġcá»Ń":1252,"ĠNÄĥm":1253,"Ã³n":1254,"ĠluáºŃn":1255,"rai":1256,"ĠNga":1257,"ĠMinh":1258,"ĠluÃ´n":1259,"Ġghi":1260,"Ġsang":1261,"Ġnháº±m":1262,"ed":1263,"Ġmáº¯t":1264,"Ã¢ng":1265,"Ġca":1266,"Ġ30":1267,"ĠÄĳa":1268,"Ġbá»Łi":1269,"Ġlá»ĩ":1270,"Ġsuáº¥t":1271,"Ġhuy":1272,"Ġtuyáº¿n":1273,"Ġsao":1274,"Äĳ":1275,"Ġ2024":1276,"Ġvi":1277,"ĠNhÆ°ng":1278,"Ġphim":1279,"Ġ11":1280,"ĠgÃ³p":1281,"ĠÄĳáº¹p":1282,"Ġrá»ĵi":1283,"Tr":1284,"Ã¡u":1285,"krai":1286,"Ġdá»ħ":1287,"ĠÄĳÄĥng":1288,"kraine":1289,"Ġphiáº¿u":1290,"ĠkhÄĥn":1291,"ĠvÃ¹ng":1292,"ĠsÃ¢n":1293,"one":1294,"ĠriÃªng":1295,"Ġsáº¯c":1296,"á»ĭp":1297,"Ġxuá»ĳng":1298,"iáº¿c":1299,"ĠváºŃn":1300,"ĠIn":1301,"á»±a":1302,"ĠvÆ°á»£t":1303,"Ġthiá»ĩn":1304,"Tin":1305,"ĠrÃµ":1306,"ĠtÆ°á»£ng":1307,"Ġviáº¿t":1308,"ĠÄĳáº©y":1309,"Ġpháº¡m":1310,"Ch":1311,"ĠchÆ¡i":1312,"©a":1313,"re":1314,"ÃŃn":1315,"ĠhÃ²a":1316,"TÃ´i":1317,"ĠdÃłnh":1318,"Ġnghá»ī":1319,"ĠnÃ¢ng":1320,"ĠÆ°u":1321,"Ġtrai":1322,"ĠÄĲÃ¢y":1323,"ĠVá»Ľi":1324,"Ġká»·":1325,"ĠVÄĥn":1326,"iá»ĩp":1327,"ĠphÃ¹":1328,"ĠdÆ°á»Ľi":1329,"ĠchÃ¢u":1330,"ĠUkraine":1331,"Ġcá»Ļng":1332,"ĠtrÃ²":1333,"ĠnhÃ¬n":1334,"Ġthanh":1335,"ĠbÃłn":1336,"ĠBÃ¬nh":1337,"Ġtá»ĳc":1338,"ĠvÃ´":1339,"ĠhÃ£":1340,"ĠThanh":1341,"Ġdi":1342,"ĠluáºŃt":1343,"ĠvÃ²ng":1344,"ĠÄĲá»©c":1345,"ĠcÃłng":1346,"Theo":1347,"ĠlÆ°u":1348,"Ġmáº¡i":1349,"ĠChÃŃnh":1350,"áº¡p":1351,"ĠgÃ¡i":1352,"ĠlÄ©nh":1353,"Ġtháº¯ng":1354,"ak":1355,"Ġhiá»ĥm":1356,"PT":1357,"Ľm":1358,"ĠNháºŃt":1359,"Ġá»§":1360,"Ġngay":1361,"Ġtráº¡ng":1362,"ine":1363,"ĠmÃłu":1364,"od":1365,"Ġngoáº¡i":1366,"ĠphÃ©p":1367,"Ġnháº¡c":1368,"Ġsá»Ľm":1369,"Ġcá»¥":1370,"ĠthÃºc":1371,"Ġtá»ĭ":1372,"Ġcá»±c":1373,"Ġtháº¥p":1374,"ıa":1375,"Ġdung":1376,"Ġxá»Ń":1377,"Ġbiá»ĥu":1378,"up":1379,"ĠbÃ³ng":1380,"ĠdÃ¹":1381,"Ġpháº£n":1382,"Ġláº¥y":1383,"ĠHá»":1384,"ĠÄĳá»ĳc":1385,"ĠNhá»¯ng":1386,"ĠÄĳá»Ļc":1387,"Ġchiáº¿c":1388,"ĠAl":1389,"ĠDo":1390,"ew":1391,"Ng":1392,"ĠÄĳÃ¡ng":1393,"ĠZ":1394,"ĠhÃºt":1395,"ĠmÃ³n":1396,"ion":1397,"ĠtrÃ¬":1398,"ĠphÃŃa":1399,"Ġcáº£i":1400,"ĠTo":1401,"ĠkÃŃch":1402,"á»Ĺi":1403,"ĠphiÃªn":1404,"ĠCÃ´":1405,"ĠTáº¿t":1406,"ĠvÃłi":1407,"ĠphÃ¡":1408,"Ġhoa":1409,"¯u":1410,"Ġcháº¡y":1411,"Ġmáº«u":1412,"Ã£i":1413,"Ġtá»ĭch":1414,"19":1415,"Ġxáº¿p":1416,"ĠchÃ¢n":1417,"Ġ200":1418,"ĠThá»§":1419,"ĠTÃ´i":1420,"Ġnáº±m":1421,"ĠBan":1422,"Ġgá»":1423,"ĠlÆ°Æ¡ng":1424,"Ġnguy":1425,"ho":1426,"ie":1427,"Ġná»ĳi":1428,"ĠNgÆ°á»Ŀi":1429,"ĠNáº¿u":1430,"ob":1431,"Ġtháº§n":1432,"ĠlÃ£nh":1433,"ig":1434,"ĠHá»į":1435,"ĠthuáºŃn":1436,"Ġ'":1437,"ĠtÃłu":1438,"Ġkm":1439,"ent":1440,"ĠÃ¢m":1441,"iá»ģm":1442,"Ġnhá»Ŀ":1443,"iv":1444,"ĠmÃ¹a":1445,"Ġhá»¯u":1446,"ĠbÆ°á»Ľc":1447,"Ġchá»ĭu":1448,"ĠÄĳÃ´ng":1449,"Ġlá»Ļ":1450,"Ġháº¡":1451,"Ġ16":1452,"Ġthiáº¿u":1453,"Ġphong":1454,"ph":1455,"ĠcÃ¢y":1456,"Ãłm":1457,"ĠÄĳÃło":1458,"ĠgiÃ¡m":1459,"ĠThá»ĭ":1460,"Ġ2025":1461,"Ġvai":1462,"Ġtáº¥n":1463,"Ġxanh":1464,"Łi":1465,"ĠcÆ°":1466,"Ġkiáº¿m":1467,"ĠsÆ¡":1468,"ĠTrÆ°á»Ľc":1469,"ĠtoÃ¡n":1470,"ĠthÆ°á»Łng":1471,"ĠbÃ©":1472,"ĠsÆ°":1473,"ĠTÃ¢y":1474,"Ph":1475,"ĠmÃ´i":1476,"te":1477,"Ġxa":1478,"ĠtÆ°á»Łng":1479,"Ġbiá»ĥn":1480,"ĠháºŃu":1481,"Ġ100":1482,"ĠlÆ°á»£t":1483,"ĠkÃ©o":1484,"az":1485,"Ġuá»ĳng":1486,"ĠlÃ¢u":1487,"Ġnam":1488,"ĠLe":1489,"Ġbuá»Ļc":1490,"Ġáº¥y":1491,"ĠcÃ¢n":1492,"ĠBáº¯c":1493,"á»¯a":1494,"Ãºi":1495,"ĠTá»«":1496,"pp":1497,"ĠsoÃ¡t":1498,"ard":1499,"Ġbuá»ķi":1500,"ĠÄĳÃ´i":1501,"Ġda":1502,"ĠÃģ":1503,"Ġai":1504,"ĠnghÄ©a":1505,"ĠtÆ°á»Ľng":1506,"ĠdÃ²ng":1507,"ĠchÄĥm":1508,"Ġ25":1509,"ui":1510,"ĠtrÃ¡i":1511,"ĠvÅ©":1512,"uyáº¿t":1513,"Ġlá»ħ":1514,"Ġ50":1515,"ĠÄĳá»©ng":1516,"Ġmong":1517,"ĠÃĤ":1518,"ut":1519,"Ġáº":1520,"ĠIs":1521,"ĠdÆ°á»¡ng":1522,"ıng":1523,"ĠÄĳÃºng":1524,"ĠsÃ¢u":1525,"ĠchÃº":1526,"ĠphÃºt":1527,"Ġquen":1528,"Ġá»ķ":1529,"ĠtÃ¡i":1530,"ik":1531,"ĠÄĳÃ¡p":1532,"ĠÃ¡o":1533,"ĠThÃłnh":1534,"á»Ńi":1535,"ĠÄĳÃ¡":1536,"Ġkhá»ıi":1537,"Ġ18":1538,"ĠhÃ´n":1539,"oi":1540,"ĠLan":1541,"Ġmá»ĳi":1542,"Ġchiá»ģu":1543,"Ġdá»¯":1544,"ĠHáº£i":1545,"Ġgiai":1546,"ĠThu":1547,"og":1548,"ĠxuyÃªn":1549,"á»³":1550,"ir":1551,"Ġthoáº¡i":1552,"Ġtáº¥t":1553,"Ġgá»Ńi":1554,"ĠcÄĥn":1555,"Ġnáº·ng":1556,"ĠcÃ¡i":1557,"Ġxu":1558,"ĠÄĳá»Ļt":1559,"ĠÄĳÃłn":1560,"ĠtÃŃn":1561,"Ġchá»īnh":1562,"ĠÃ´":1563,"Ġcam":1564,"Ġthá»Ń":1565,"ĠbÃ¡c":1566,"ĠBáº£n":1567,"ĠHÃłn":1568,"Ġ14":1569,"ce":1570,"ĠtrÃ¡ch":1571,"ĠThÃ¡i":1572,"Ġnghá»ģ":1573,"ĠÄĲiá»ģu":1574,"Ġ2023":1575,"ĠxÃºc":1576,"Ġngá»¯":1577,"ex":1578,"ĠHoÃłng":1579,"ah":1580,"ĠÄĳÃªm":1581,"Ġgh":1582,"ĠkhoÃ¡n":1583,"ĠMar":1584,"ĠtrÃ¡nh":1585,"ĠcáºŃn":1586,"Ġquanh":1587,"ĠTáº¡i":1588,"Ġdáº¡ng":1589,"Ġphá»ķ":1590,"Ġnghe":1591,"ĠbÃ¡nh":1592,"Ġchuyáº¿n":1593,"Ġluyá»ĩn":1594,"30":1595,"Ġdáº¡y":1596,"ĠViá»ĩc":1597,"uÃ´i":1598,"ĠÄĳáº§y":1599,"Ġtrá»¥":1600,"ĠlÃ²ng":1601,"Ġbá»ķ":1602,"ĠkÃª":1603,"Ġquay":1604,"ĠNhiá»ģu":1605,"ĠLong":1606,"Ġá»ķn":1607,"Ġlá»±a":1608,"ĠÄĲÃ´ng":1609,"Ġgiá»ĳng":1610,"ĠKho":1611,"ĠÄĲá»ĥ":1612,"ĠkhÃ³a":1613,"ĠlÃ¡i":1614,"ĠÄĲá»ĵng":1615,"Ġ17":1616,"Ġtháº¥t":1617,"ĠngoÃ¡i":1618,"Ġnhá»Ľ":1619,"ĠÃĤu":1620,"á»ĩ":1621,"Ã£n":1622,"Ġchá»¯":1623,"ton":1624,"uá»ĳt":1625,"%.":1626,"ĠTu":1627,"Ġhuyá»ĩn":1628,"av":1629,"Ġkhá»Łi":1630,"ĠDÆ°Æ¡ng":1631,"áº§ng":1632,"Ġdáº¥u":1633,"Ġtiá»ĩn":1634,"Ġtá»©c":1635,"ĠthuÃª":1636,"ĠCá»":1637,"Ġná»¯a":1638,"Ġchá»ĳng":1639,"rael":1640,"ideo":1641,"10":1642,"ĠChá»§":1643,"Ġháº¡ng":1644,"Ġngá»§":1645,"ĠÄĳáº£o":1646,"ue":1647,"ĠtÃ¹":1648,"ĠthÃ¡i":1649,"Ġnáº¡n":1650,"Ġsuy":1651,"Ġloáº¡t":1652,"ly":1653,"ĠSÆ¡n":1654,"ĠRe":1655,"Ġvui":1656,"Ġtáº§ng":1657,"ĠKhÃ´ng":1658,"ĠNew":1659,"ĠNgá»įc":1660,"Ġá»ŀ":1661,"Ġbá»ĳn":1662,"Ġbang":1663,"ou":1664,"ĠBÃł":1665,"Ġ13":1666,"Ġtrao":1667,"ank":1668,"ald":1669,"Ġcháº¥p":1670,"ab":1671,"Ġtáº£i":1672,"Ġháº¡i":1673,"ĠhÃ£ng":1674,"Ã¹i":1675,"Ġtá»Ļi":1676,"ĠDÃ¹":1677,"Ġtáº£ng":1678,"ĠHiá»ĩn":1679,"ĠgiÃłnh":1680,"Ġtháº£o":1681,"ĠTráº§n":1682,"ĠTH":1683,"Ġxáº£y":1684,"Ġvá»¯ng":1685,"Ġsong":1686,"Ġphá»ĳi":1687,"Ġnháº¥n":1688,"ĠgiÃ¡c":1689,"ĠIsrael":1690,"ĠquÃ½":1691,"Ġlai":1692,"Ġthuá»ĳc":1693,"ĠquÃ¡n":1694,"Ġo":1695,"Ġmáº¯c":1696,"á»ĳng":1697,"uyá»ĩt":1698,"ĠPhÆ°Æ¡ng":1699,"Ġquá»¹":1700,"ĠphÃª":1701,"ĠLu":1702,"ĠsÃ³c":1703,"ill":1704,"Ġnhiá»ĩt":1705,"Nh":1706,"µn":1707,"ee":1708,"Ġháº¡t":1709,"ĠlÆ°á»£c":1710,"Ã³i":1711,"ul":1712,"Ġá»§ng":1713,"Ġhá»įa":1714,"Ã¨n":1715,"ĠHai":1716,"ĠBáº£o":1717,"Ġngáº¯n":1718,"ĠbiÃªn":1719,"Ġsáº¯p":1720,"ck":1721,"ĠLinh":1722,"Ġngá»Ŀ":1723,"ĠÄĳÃ´":1724,"Ġcá»±":1725,"ĠquÃª":1726,"Ġsáºµn":1727,"Ġtáº§m":1728,"ĠtháºŃt":1729,"Ġnghi":1730,"12":1731,"Ġtháº³ng":1732,"ĠniÃªn":1733,"ĠPhÃ¡p":1734,"¥p":1735,"iet":1736,"if":1737,"Ġdáº§n":1738,"Ġxin":1739,"ĠtuyÃªn":1740,"Ġtrá»Ŀi":1741,"ian":1742,"ĠLÃª":1743,"Ġxung":1744,"ell":1745,"ĠnuÃ´i":1746,"ĠhÃ¡t":1747,"Ġkhuyáº¿n":1748,"©t":1749,"ĠNghá»":1750,"ĠkhÃ¡m":1751,"áº·n":1752,"ĠSt":1753,"eb":1754,"Ãµi":1755,"ris":1756,"ub":1757,"ĠlÃ£i":1758,"iá»ħ":1759,"Ġ40":1760,"50":1761,"Ġdáº§u":1762,"ĠLiÃªn":1763,"Ġvideo":1764,"ĠrÃºt":1765,"Ġkháº¯c":1766,"ĠtháºŃm":1767,"ĠmÃłn":1768,"ĠcÅ©":1769,"ĠVÃ¬":1770,"ĠcÃ¡nh":1771,"ess":1772,"Ġbá»ģn":1773,"ĠPhÃ³":1774,"Ġná»Ĺ":1775,"âĢ":1776,"Ġcáº¯t":1777,"ĠthÃŃ":1778,"Ġvay":1779,"ĠcÆ°á»Ŀng":1780,"ĠÄĳau":1781,"onald":1782,"Ġw":1783,"AI":1784,"ĠBÃªn":1785,"Ġlá»Ńa":1786,"Ġsuá»ĳt":1787,"ĠphÃ³ng":1788,"ĠHá»Ļi":1789,"Ġkháº³ng":1790,"ĠÄĳá»ı":1791,"Ġkiá»ĩm":1792,"ĠmÃ£":1793,"Ġngáº¡i":1794,"Ġmiá»ģn":1795,"ĠBá»":1796,"est":1797,"Má»¹":1798,"Ġquáº§n":1799,"ĠphÃ¡n":1800,"Ġbá»©c":1801,"2024":1802,"ĠTrÆ°á»Ŀng":1803,"Ġtháº£i":1804,"Ã£o":1805,"Ġhy":1806,"art":1807,"ĠkhÃ¡n":1808,"gi":1809,"Ġnháº¹":1810,"Ġláº¡c":1811,"ĠÄĳáº£ng":1812,"ĠHu":1813,"ĵn":1814,"ĠGiang":1815,"Ġf":1816,"Ġthao":1817,"Ġpháº¡t":1818,"ĠGiÃ¡o":1819,"ran":1820,"ĠHy":1821,"Ġ24":1822,"tÃ´":1823,"ĠbÃły":1824,"Ġchá»Ŀ":1825,"ĠquáºŃn":1826,"ĠngÃ´i":1827,"Ġtháº©m":1828,"Ġmiá»ħn":1829,"Ġbáº§u":1830,"Ġgá»ĳc":1831,"ĠcáºŃp":1832,"Ġsá»Ńa":1833,"ĠchÃ³ng":1834,"Ġin":1835,"ĠthÄĥm":1836,"ore":1837,"Ġtháº§y":1838,"ĠnÃ´ng":1839,"Ġáº¥n":1840,"ĠÄĳá»įc":1841,"tral":1842,"Ġná»£":1843,"Ġthá»«a":1844,"ĠPháº¡m":1845,"ĠnghiÃªm":1846,"ĠbÄĥng":1847,"ĠJo":1848,"ĠbáºŃt":1849,"Ġvá»£t":1850,"ĠÃŃch":1851,"Ġgáº¯n":1852,"Ġlá»ĩnh":1853,"Ġchiáº¿m":1854,"Ġdá»«ng":1855,"ĠNguyÃªn":1856,"Ġnháº¯c":1857,"Ġkhá»ĳi":1858,"ĠMáº·t":1859,"ĠkhÃ¡":1860,"Ã²i":1861,"Ã¨o":1862,"%,":1863,"Ġ2022":1864,"Ġgiáº¥y":1865,"Ġsung":1866,"ĠmÃ¡u":1867,"ĠÄĳá»ĭch":1868,"ĠhÆ°Æ¡ng":1869,"ĠÄĳÃ³n":1870,"Ġcá»±u":1871,"Ġkháº£o":1872,"Ġchá»¥p":1873,"Ġi":1874,"Ġ21":1875,"ĠtáºŃn":1876,"Ġtá»ĩ":1877,"ĠÆ°á»Ľc":1878,"Ġ0":1879,"Ġhá»©ng":1880,"Ġcha":1881,"Ġdá»±a":1882,"ustral":1883,"TP":1884,"Ġcháº¯c":1885,"Ġváº»":1886,"ĠcÃł":1887,"ĠÄĳÆ°Æ¡ng":1888,"Ġsai":1889,"á»Ļn":1890,"ĠGiá»":1891,"ustralia":1892,"ĠVÅ©":1893,"ND":1894,"Ã©m":1895,"ĠNgÃły":1896,"ĠHá»ĵng":1897,"ĠAr":1898,"Ġcháº¿t":1899,"ich":1900,"ĠKinh":1901,"ĠÃ´tÃ´":1902,"lo":1903,"ĠthÃ¡ch":1904,"Ġro":1905,"Ġcoi":1906,"sk":1907,"ĠÃ¡nh":1908,"ĠÄĲáº¿n":1909,"ĠthÃº":1910,"ĠNgh":1911,"Ġbáº£ng":1912,"Ġgáº¥p":1913,"ĠKhoa":1914,"Ġbá»ĳi":1915,"Ġgáº¯ng":1916,"áº¹n":1917,"Ġtiá»ĥu":1918,"iáº¿ng":1919,"amp":1920,"ers":1921,"ĠkhÃºc":1922,"Ġphi":1923,"Ġná»Ńa":1924,"Ġdá»ĭp":1925,"kh":1926,"Ġrá»Ŀi":1927,"ĠTÃłi":1928,"Ġchá»Ĺ":1929,"Ġrá»§":1930,"Ġthiá»ĩu":1931,"Ġthá»ĭt":1932,"ĠCan":1933,"ĠTuáº¥n":1934,"Ġ22":1935,"ada":1936,"11":1937,"ina":1938,"ĠThe":1939,"ĠnghÃ¬n":1940,"Ġtáº¡p":1941,"ĠtÃ²a":1942,"Ġninh":1943,"era":1944,"Ġsá»£":1945,"don":1946,"op":1947,"ĠNha":1948,"Ġngá»ĵi":1949,"ĠbÃ¨":1950,"ĠsÃłng":1951,"ĠsÃłn":1952,"Ġlá»¥c":1953,"ĠsiÃªu":1954,"Ġgiáº£n":1955,"Ġniá»ĩm":1956,"Ġtáº¯c":1957,"Ġthuyáº¿t":1958,"Ġthá»¥":1959,"Ġmáº·c":1960,"Ġtráº¯ng":1961,"Ġthá»ıa":1962,"ĠvÃ©":1963,"Ġhá»įp":1964,"Ã¨m":1965,"UN":1966,"ĠLá»":1967,"ĠHoa":1968,"Ġáº©m":1969,"ĠViet":1970,"Ġcáº¥u":1971,"Ġháº¥p":1972,"ĠtháºŃp":1973,"ģm":1974,"Ġ199":1975,"Ġlinh":1976,"ĠXu":1977,"ax":1978,"ĠthÆ¡":1979,"ĠdÃµi":1980,"iá»ħm":1981,"ĠNgÃ¢n":1982,"Ġgiáº£ng":1983,"ĠTrÃªn":1984,"Phone":1985,"ner":1986,"ĠcáºŃu":1987,"ĠÄĳÃłm":1988,"Ġláº¯ng":1989,"ChÃºng":1990,"ĠMai":1991,"ĠKim":1992,"co":1993,"ĠChÃ¢u":1994,"ĠÄĳoÃ¡n":1995,"ĠCÃ³":1996,"ĠHar":1997,"ĠSh":1998,"ĠngÃ´n":1999,"ĠmáºŃt":2000,"ĠAustralia":2001,"all":2002,"ĠQuang":2003,"st":2004,"ĠMus":2005,"£t":2006,"ĠcÄĥng":2007,"Ġchá»©a":2008,"Ġly":2009,"ĠMá»Ĺi":2010,"ĠSá»Ł":2011,"Ġtai":2012,"iX":2013,"UNiX":2014,"ĠsÃ³ng":2015,"Ġká»ĭch":2016,"ev":2017,"ĠthiÃªn":2018,"Ġnáº¯m":2019,"á»ĭnh":2020,"Ġ60":2021,"eg":2022,"ĠTÃ¢n":2023,"Ġung":2024,"ĠSp":2025,"ĠCon":2026,"Ġngá»«ng":2027,"ĠHÃ²a":2028,"Ġbu":2029,"iden":2030,"ĠnhuáºŃn":2031,"ĠsÃ´ng":2032,"Ġ23":2033,"ĠTHPT":2034,"Ġthua":2035,"ĠgiÃłu":2036,"Ġtim":2037,"ĠtrÄĥm":2038,"Ġmay":2039,"ĠngÄĥn":2040,"pple":2041,"ĠPhÃº":2042,"Ġláº¡nh":2043,"ĠnÃºi":2044,"Ġlá»Ĺi":2045,"Ġrá»§i":2046,"Ġchá»¥c":2047,"Ġbá»ķng":2048,"ĠGiÃ¡m":2049,"ĠThÆ°Æ¡ng":2050,"Ġsáº¡ch":2051,"Ġtá»ı":2052,"ĠlÃłng":2053,"ĠCar":2054,"Æ°á»Ŀn":2055,"200":2056,"Ġkim":2057,"¢nh":2058,"Ġxo":2059,"Ġchá»¯a":2060,"ĠphÃºc":2061,"ĠCup":2062,"Ġláº«n":2063,"ĠÆ°Æ¡ng":2064,"Ġmá»ģm":2065,"man":2066,"TS":2067,"Ġkg":2068,"ĠDá»±":2069,"ĠBiden":2070,"ĠcháºŃm":2071,"Ġbiá»ĩn":2072,"Ġxá»":2073,"Ġtáº·ng":2074,"Ġbá»¯a":2075,"ĠngÆ°á»£c":2076,"ĠÄĳuá»ķi":2077,"á»³nh":2078,"ĠlÃłn":2079,"ĠhÆ°u":2080,"á»Ļp":2081,"ĠdÃ¢y":2082,"ĠngÅ©":2083,"Ġmáº¡ch":2084,"ff":2085,"ĠthÃ¡c":2086,"car":2087,"ĠChÃºng":2088,"á»©c":2089,"Ġniá»ģm":2090,"Ġ26":2091,"ĠPro":2092,"Ġtiá»ģm":2093,"ĠLo":2094,"Ġchiáº¿u":2095,"son":2096,"ĠnháºŃt":2097,"ĠkÃ¨m":2098,"ĩt":2099,"qu":2100,"ĠPar":2101,"Ġáº¢nh":2102,"Ġ27":2103,"ĠphÃ³":2104,"ĠXuÃ¢n":2105,"ĠNinh":2106,"ĠmÃ¡i":2107,"ĠLÃ¢m":2108,"¥t":2109,"Ġáº¤":2110,"Ġnhiá»ħm":2111,"ĠCÆ¡":2112,"įa":2113,"ĠTrang":2114,"ĠSá»±":2115,"Ġrau":2116,"SE":2117,"ĠBa":2118,"Ġ28":2119,"ĠLuáºŃt":2120,"ĠkÃ©m":2121,"ĠrÃłng":2122,"ez":2123,"ĠrÆ¡i":2124,"ĠQuáº£ng":2125,"io":2126,"Ġbinh":2127,"2023":2128,"Ġcáº¥m":2129,"ĠdÃłng":2130,"ĠCÃ²n":2131,"ĠÄĳÃ¨n":2132,"ĠÄĲÃło":2133,"ĠSo":2134,"ĠmÃª":2135,"Ġbáº¡i":2136,"ĠlÃ¡":2137,"Ġmáº½":2138,"ick":2139,"ĠkÃŃnh":2140,"ĠlÅ©":2141,"ĠkhÃŃch":2142,"ĠtrÆ°ng":2143,"ĠFUNiX":2144,"ĠCanada":2145,"ĠLÃ½":2146,"ĠChá»ĭ":2147,"Ġlan":2148,"Ġkháº¯p":2149,"ĠGia":2150,"Ġhuynh":2151,"Ľt":2152,"ĠÄĳen":2153,"ters":2154,"ry":2155,"ĠHá»ĵ":2156,"ame":2157,"ĠÄĳá»£t":2158,"ĠiPhone":2159,"á»ĵng":2160,"Ġtáº¡m":2161,"Ġkhá»ķ":2162,"ĠtÃ´n":2163,"Ġsá»¯a":2164,"ld":2165,"Ġtá»ĵn":2166,"Ġsáº¯t":2167,"ĠApple":2168,"ovic":2169,"ĠmÆ°a":2170,"ey":2171,"Ġháº§u":2172,"Æ°Æ¡i":2173,"ĠPhá»":2174,"Ġtrá»«":2175,"ĠThá»Ŀi":2176,"Ġpin":2177,"Ġká»ĭp":2178,"ĠhÃ¨":2179,"Ġquáº£ng":2180,"lin":2181,"omb":2182,"Ġbáº¡c":2183,"ĠPhÃ²ng":2184,"ow":2185,"ĠkhuyÃªn":2186,"ĠMusk":2187,"Ġga":2188,"ĠtrÃº":2189,"ĠtrÃºc":2190,"¥ng":2191,"ĠAm":2192,"Ġcuá»ĳn":2193,"ĠGo":2194,"ert":2195,"Ġxáº¿":2196,"Ġ500":2197,"Ġ2021":2198,"ĠÄĳá»¡":2199,"ĠgÃ³c":2200,"iáº¿p":2201,"ĠkÃªnh":2202,"Ġtáº£":2203,"Ġcá»Ŀ":2204,"ĠÄĲÃł":2205,"Ġmá»Ŀi":2206,"ĠThÃ´ng":2207,"Ġná»ķ":2208,"ort":2209,"ri":2210,"ĠhÃłi":2211,"Ġ70":2212,"ĠhÆ¡i":2213,"ĠÄĳá»īnh":2214,"§y":2215,"ĠDu":2216,"Ġthiá»ĩt":2217,"ass":2218,"ĵi":2219,"line":2220,"ĠgiÃ³":2221,"ĠThÃ¡ng":2222,"ĠChi":2223,"ĠÄĳÃ£i":2224,"du":2225,"ĠÄĳua":2226,"Ġcháº¯n":2227,"ĠÄĲáº§u":2228,"Ġtuá»ĩ":2229,"Ġngá»į":2230,"ast":2231,"ashi":2232,"ĠlÆ°á»Ľi":2233,"ĠÄĲá»Ļ":2234,"ĠHá»įc":2235,"Ġkiá»ĥu":2236,"Ġtri":2237,"Ġháº¡nh":2238,"Ġthiá»ĥu":2239,"Ġtrá»ĵng":2240,"áºŃc":2241,"Ġná»Ļp":2242,"ĠBá»ĩnh":2243,"ĠÄĳÃŃch":2244,"Ġrá»«ng":2245,"ĠgÃ³i":2246,"ork":2247,"ĠtÃ¹y":2248,"Ã³t":2249,"ĠvÃŃ":2250,"ĠViá»ĩn":2251,"jok":2252,"jokovic":2253,"ĠÄĳÃ¢u":2254,"Ġphá»ıng":2255,"ĠEl":2256,"ĠTháº¿":2257,"ĠEm":2258,"how":2259,"ist":2260,"ĠnÃªu":2261,"Ġnguyá»ĩn":2262,"ĠbáºŃc":2263,"ĠtrÃŃch":2264,"ĠDÃ¢n":2265,"ĠloÃłi":2266,"ĠCá»Ļng":2267,"ĠToÃ¡n":2268,"Ġbáº¯n":2269,"ĠNhÃ¢n":2270,"Ġchuá»Ĺi":2271,"ĠHuy":2272,"Ġtháº»":2273,"Ġgiáº¿t":2274,"oll":2275,"ĠmÆ¡":2276,"Ġtop":2277,"LV":2278,"ud":2279,"Ġtuyá»ĩt":2280,"ĠhoÃłng":2281,"mp":2282,"ĠtÆ°Æ¡i":2283,"ĠÄĲáº¥t":2284,"ĠÄĳá»£i":2285,"Ġgiá»ıi":2286,"ack":2287,"ĠtÃºi":2288,"Ġháº¹n":2289,"ĳt":2290,"Ġáº©n":2291,"ĠTiáº¿n":2292,"Ġváº½":2293,"ĠchÃ¡y":2294,"ĠDjokovic":2295,"BND":2296,"ĠCá»¥c":2297,"Ġtá»Ļc":2298,"¦y":2299,"Ġcháº¡m":2300,"500":2301,"ĠphÆ°á»Ŀng":2302,"Ġ80":2303,"Ġmá»¹":2304,"ico":2305,"ĠNhÆ°":2306,"ĠbÃło":2307,"ĠquÃł":2308,"Ġ29":2309,"ĠNgoáº¡i":2310,"enn":2311,"ram":2312,"ation":2313,"Trung":2314,"ĠÄĳÃ²i":2315,"Ã£y":2316,"Ġkáº»":2317,"ĠlÃłnh":2318,"Ġtrá»¯":2319,"Ãºy":2320,"pen":2321,"ec":2322,"Å©i":2323,"ĠcÆ°á»Ľi":2324,"Ġláº»":2325,"orld":2326,"Ãºa":2327,"ĠthoÃ¡t":2328,"Ġá»¦y":2329,"Ġkhung":2330,"ĠVN":2331,"Ġgá»£i":2332,"Ġcháº¥m":2333,"ĠTrÃ¡i":2334,"ĠcÃ¡n":2335,"ĠtÃ³c":2336,"Ġáº¤n":2337,"Ġthá»ķ":2338,"In":2339,"Ġlá»ĳi":2340,"ity":2341,"Ġhuyáº¿t":2342,"ĠphÃº":2343,"ĠMan":2344,"ĠQuÃ¢n":2345,"Ġcamera":2346,"Kh":2347,"ĠVÃ¢n":2348,"ingap":2349,"ingapore":2350,"įt":2351,"Ġchá»£":2352,"ague":2353,"á»ĳt":2354,"Ġrá»ĳi":2355,"ate":2356,"Ġkháº¥u":2357,"Ġtá»ķn":2358,"ĠdÆ°":2359,"Ġdá»įa":2360,"da":2361,"Ġchip":2362,"Ġhiáº¿m":2363,"ĠVá»ģ":2364,"ip":2365,"aly":2366,"ĠthÃ³i":2367,"Ġcáº§m":2368,"ĠbÃŃ":2369,"ĠtháºŃn":2370,"Ġloáº¡n":2371,"ĠAs":2372,"ĠâĢ":2373,"ĠUBND":2374,"ĠDonald":2375,"Ä©a":2376,"Ġhá»§y":2377,"ĠÄĳÃ¡m":2378,"ĠHLV":2379,"ĠChá»ī":2380,"ĠBar":2381,"ĠtrÃ¹ng":2382,"Ġ35":2383,"ĠTÃ¢m":2384,"ĠHÆ°Æ¡ng":2385,"Ã£ng":2386,"ath":2387,"ĠHiá»ĩp":2388,"ĠCuá»ĳi":2389,"Ġcháº·t":2390,"Ġon":2391,"Ġdinh":2392,"Ġ2020":2393,"Ġtá»¥":2394,"ord":2395,"Ġá»§y":2396,"Ġtruy":2397,"ant":2398,"ĠPhÃ¡t":2399,"ĠNghá»ĩ":2400,"ĠtrÃºng":2401,"Ġthá»§y":2402,"Ġsáº¡c":2403,"ovid":2404,"HÃł":2405,"ĠCo":2406,"ĠÄĳá»©a":2407,"ĠvÆ°á»Ŀn":2408,"áºµ":2409,"Ġtrá»©ng":2410,"ĠÄĳe":2411,"ĠTháº£o":2412,"2025":2413,"áºµng":2414,"ĠchÃ¡u":2415,"theo":2416,"ĠcÆ¡m":2417,"áº¥c":2418,"201":2419,"Ġpha":2420,"ann":2421,"Ġbáº¿p":2422,"ĠtiÃªm":2423,"Ġ31":2424,"ĠcÃº":2425,"Ġmá»ĳc":2426,"ace":2427,"ĠNghá»ĭ":2428,"ĠyÃªn":2429,"ĠFPT":2430,"Trong":2431,"ĠSin":2432,"ashing":2433,"CÃ¡c":2434,"Thá»":2435,"Ġ300":2436,"aw":2437,"ĠpháºŃn":2438,"ĠTáºŃp":2439,"ach":2440,"ech":2441,"Ġráº»":2442,"ĠNáºµng":2443,"ĠGr":2444,"ashington":2445,"Ġ2019":2446,"obot":2447,"SA":2448,"ĠÄĲÃ³":2449,"ĠkÃªu":2450,"Æ°á»£u":2451,"Ġláº¡":2452,"Ġxáº¥u":2453,"ĠTiÃªn":2454,"und":2455,"ĠBr":2456,"Ġhá»Ļp":2457,"Ġgame":2458,"nam":2459,"ĠdÃ¡ng":2460,"ĠWashington":2461,"orn":2462,"ĠCáº£nh":2463,"Ġá»ĳng":2464,"ĠxÄĥng":2465,"dex":2466,"ĠTráº¯ng":2467,"ĠPhi":2468,"ix":2469,"thá»":2470,"Ġthai":2471,"Ġcáº·p":2472,"ĠTrÄĥng":2473,"aza":2474,"ĠSam":2475,"ĠInter":2476,"ĠLeague":2477,"ĠKhÃ¡nh":2478,"ĠWorld":2479,"HCM":2480,"Ġ90":2481,"ĠSingapore":2482,"hn":2483,"ĠSc":2484,"ros":2485,"Ġváº¿t":2486,"ĠVin":2487,"Ġcháº³ng":2488,"ĠCovid":2489,"ĠhÃło":2490,"Ġtá»Ŀ":2491,"ĠgiÃł":2492,"Ġphá»©c":2493,"Ġná»Ĺi":2494,"Ġcan":2495,"Ġliá»ĩt":2496,"ĠTá»ķ":2497,"lymp":2498,"ĠDuy":2499,"Ġsáº¡n":2500,"Ġgá»¡":2501,"ĠthÆ°á»Ľc":2502,"ĠsÃºng":2503,"ĠThiÃªn":2504,"Ġnáº¥u":2505,"khÃ´ng":2506,"Ġgá»įn":2507,"ĠKáº¿t":2508,"Ġhuá»ĳng":2509,"ĠKá»³":2510,"Ġdá»©t":2511,"EO":2512,"chá»":2513,"ĠGu":2514,"',":2515,"ĠIt":2516,"ĠVÃŃ":2517,"Ġliá»ģn":2518,"Ġ198":2519,"ĠCáº£":2520,"ĠkhÃ´":2521,"ĠrÆ°á»£u":2522,"iz":2523,"ĠhÃ£y":2524,"Ġchá»ĳi":2525,"ĠÃ©p":2526,"Ġdá»ĭ":2527,"Ã¹y":2528,"Ġgháº¿":2529,"Ġthang":2530,"ĠThá»±c":2531,"ions":2532,"ĠChÆ°Æ¡ng":2533,"Ľp":2534,"Ġlá»«a":2535,"Qu":2536,"ĠdáºŃy":2537,"ĠÄĳiá»ĩp":2538,"Ġru":2539,"Ġsá»ĳt":2540,"Ġ2018":2541,"Ġlá»Ĺ":2542,"ĠdÃły":2543,"Ġláº½":2544,"Ġnáº¯ng":2545,"yl":2546,"Ġáº¥m":2547,"Ġtá»ĳn":2548,"ogle":2549,"Ġhá»ĵng":2550,"rid":2551,"ca":2552,"ge":2553,"ĠHÃ³a":2554,"AT":2555,"Ġtáº¥m":2556,"Ġngang":2557,"Ġmá»Ļ":2558,"Ġmá»«ng":2559,"§ng":2560,"Ġsáº¯m":2561,"Ġmiáº¿ng":2562,"Ġláº¯p":2563,"ĠCÃ¹ng":2564,"mart":2565,"lor":2566,"ĠBÃŃ":2567,"ĠPhong":2568,"ood":2569,"60":2570,"Ġtá»ıa":2571,"Ġháº£i":2572,"ĠbÃ³":2573,"ĠHÃłng":2574,"ĠÄĲáº£ng":2575,"ĠÄĳoáº¡t":2576,"Ġngá»įt":2577,"Ġof":2578,"ĠkiÃªn":2579,"Ġvong":2580,"ĠVinh":2581,"ĠCN":2582,"Ġtráº¥n":2583,"Ġthe":2584,"ĠAnd":2585,"á»«":2586,"Ġcáº£n":2587,"ĠbÃ£o":2588,"Ġchá»Ł":2589,"ĠBH":2590,"ĠÄĲiá»ĩn":2591,"Ãªnh":2592,"ĠÄĳáºŃu":2593,"ĠnÃ©t":2594,"Ġcá»©ng":2595,"igh":2596,"Ġpháº«u":2597,"ain":2598,"Ġnháº«n":2599,"ĠÃ´n":2600,"ĠHÃ¹ng":2601,"ĠQuá»³nh":2602,"Bá»Ļ":2603,"Ġonline":2604,"la":2605,"Ġlá»įc":2606,"ĠBra":2607,"ĠlÃ£m":2608,"BC":2609,"ĠÄĳam":2610,"Ġmáº¯n":2611,"ĠPháº§n":2612,"ĠbÃ¹":2613,"ĠxÆ°Æ¡ng":2614,"uters":2615,"ĠHarris":2616,"XH":2617,"Ġchá»ĳt":2618,"Anh":2619,"ook":2620,"ĠthÃ¹":2621,"amas":2622,"ĠBe":2623,"Ġma":2624,"EL":2625,"Ġvinh":2626,"ĠQuáº£n":2627,"ber":2628,"lympic":2629,"yr":2630,"ĠâĢĵ":2631,"ĠÆ¡n":2632,"caraz":2633,"Ġmu":2634,"ĠrÃ¡c":2635,"ĠReuters":2636,"Ġngon":2637,"Ġe":2638,"ÄĲV":2639,"á»ĭa":2640,"ĠÄĲá»ĳi":2641,"ĠTim":2642,"ĠchÃºt":2643,"ĠkhÃ¡ng":2644,"Ġcháº·n":2645,"ĠHÆ°ng":2646,"ĠGÃ²n":2647,"ĠKhu":2648,"ĠSÃłi":2649,"Ġthoáº£i":2650,"CS":2651,"ĠLa":2652,"Ġgiá»įng":2653,"ĠcÃ£i":2654,"Ġshow":2655,"ĠdÆ°Æ¡ng":2656,"ĠBáº¡n":2657,"ĠGaza":2658,"ĠNhá»Ŀ":2659,"ĠbÃ²":2660,"ĠPhan":2661,"roup":2662,"Ġnháº¯n":2663,"ĠcÆ¡n":2664,"ĠYork":2665,"ĠGoogle":2666,"Náº¿u":2667,"ĠCEO":2668,"our":2669,"end":2670,"Chá»":2671,"ĠcÆ°á»Ŀi":2672,"ĠCol":2673,"ĠÄĲá»ĭnh":2674,"ĠTÃ¡c":2675,"ĠThá»©":2676,"á»Ľi":2677,"Ġhu":2678,"Ġsa":2679,"Ġcá»Ļt":2680,"Ġvá»¡":2681,"NgÃły":2682,"á»Ŀi":2683,"ĠnghÃ¨o":2684,"ĠAir":2685,"ĠIran":2686,"Ġchá»©":2687,"Ġbá»ĵi":2688,"ĠPhÃºc":2689,"ĠlÅ©y":2690,"Ġleo":2691,"Ġnon":2692,"Ġ''":2693,"±ng":2694,"ĠÄĳá»Ĺ":2695,"ĠghÃ©p":2696,"ĠHá»ĵi":2697,"ĠsÃ¡u":2698,"Ġmá»ĩt":2699,"ĠGiÃ¡":2700,"ĠOpen":2701,"Ġsá»©":2702,"ite":2703,"ĠAlcaraz":2704,"ĠChiáº¿n":2705,"uro":2706,"Ġcá»¡":2707,"Ġbuá»ĵn":2708,"ĠJohn":2709,"eal":2710,"40":2711,"ĠÄĳáº¡p":2712,"ĠsÄĥn":2713,"ĠMich":2714,"ELTS":2715,"Ġláº¡m":2716,"Ġcá»¥c":2717,"ence":2718,"Index":2719,"ĠnÃ£o":2720,"Ġtráº¡m":2721,"ĠgÃł":2722,"ĠCao":2723,"Ġcháº£y":2724,"Ġxong":2725,"ĠMas":2726,"ĠchÃło":2727,"ĠTik":2728,"'.":2729,"Ġnhá»±a":2730,"Ġcar":2731,"2022":2732,"¥y":2733,"uk":2734,"Ġtráº¡i":2735,"Ġgiáº¥c":2736,"esia":2737,"ĠtrÃł":2738,"Ġweb":2739,"ĠtrÆ°Æ¡ng":2740,"ĠSl":2741,"ĠSá»ĳ":2742,"Ġ45":2743,"ĠMy":2744,"Nhá»":2745,"ĠbÃ©o":2746,"Ġrobot":2747,"rab":2748,"ĠmÃ¡t":2749,"ĠQuá»¹":2750,"ampions":2751,"Ġcháº¥n":2752,"CB":2753,"há»įc":2754,"ib":2755,"Ġnhá»ĭp":2756,"á»ĥ":2757,"donesia":2758,"á»¥c":2759,"ombank":2760,"ĠgiÃły":2761,"ĠGiá»Ľi":2762,"ĠHuáº¿":2763,"Khi":2764,"Ġkhá»§ng":2765,"Ġlá»ĩch":2766,"LB":2767,"ĠÄĳáº¯c":2768,"Ġche":2769,"ĠSong":2770,"sen":2771,"Ġhiá»ĩp":2772,"ost":2773,"ĠThá»§y":2774,"ett":2775,"ĠgiÃ¢y":2776,"ĠMá»Ł":2777,"ĠthÃ´n":2778,"Ġbá»ģ":2779,"ĠItaly":2780,"ĠGiao":2781,"ĠBHXH":2782,"á»įng":2783,"ĠtÃ¡n":2784,"ĠLÃºc":2785,"Ġdao":2786,"ĠNhÃ³m":2787,"ĠThuáºŃn":2788,"á»įi":2789,"iss":2790,"25":2791,"ĠÄĳá»ĳt":2792,"ĠNghiÃªn":2793,"ĠGiáº£i":2794,"ĠÄĳáº¡n":2795,"ĠGD":2796,"con":2797,"pe":2798,"ĠÄĳáº³ng":2799,"ĠbÃ¹ng":2800,"ĠmÃ¹i":2801,"Ġrá»Ńa":2802,"á»·":2803,"ĠCá»¥":2804,"ĠParis":2805,"Ġbáº¡o":2806,"Ġgáº¡o":2807,"Tok":2808,"ĠÄĲo":2809,"Sau":2810,"ani":2811,"ĠII":2812,"Gi":2813,"ĠdÆ°á»Ŀng":2814,"ĠÄĲÃłi":2815,"Ġquang":2816,"amin":2817,"old":2818,"ĠbÃ£i":2819,"Ġxoay":2820,"ver":2821,"ĠkÃŃn":2822,"exico":2823,"70":2824,"ĠIELTS":2825,"Viá»ĩt":2826,"Ġmai":2827,"ĠkhuÃ´n":2828,"ĠGen":2829,"Ġ32":2830,"ĠDÅ©ng":2831,"Ġtá»ī":2832,"rist":2833,"land":2834,"ĠSinner":2835,"ĠThÆ°á»£ng":2836,"Ġtiá»ĩc":2837,"ĠBl":2838,"ĠCLB":2839,"ĠÄĳáº¯t":2840,"Ġtá»©":2841,"ĠSinh":2842,"ĠtuÃ¢n":2843,"isa":2844,"ĠVÆ°Æ¡ng":2845,"Ġmá»ıi":2846,"af":2847,"ĠkhÃ³c":2848,"Ġsá»ķ":2849,"'s":2850,"net":2851,"ĠÄĳem":2852,"ĠOlympic":2853,"oy":2854,"ĠmÃ¬":2855,"Ġthá»Ł":2856,"ĠDoanh":2857,"ÃĿ":2858,"ini":2859,"ive":2860,"ĠgÆ°Æ¡ng":2861,"Ġkhiá»ĥn":2862,"ĠIndonesia":2863,"phone":2864,"ĠCÃ¡ch":2865,"Bank":2866,"Ġbá»Ŀ":2867,"ĠLÃło":2868,"Ġhuáº¥n":2869,"Ġnháº£y":2870,"ĠnÃºt":2871,"etro":2872,"ĠDiá»ħn":2873,"ley":2874,"ĠQuy":2875,"ĠtÃłng":2876,"ĠTay":2877,"zil":2878,"ĠCuá»Ļc":2879,"ĠThay":2880,"15":2881,"ĠCÅ©ng":2882,"ĠUn":2883,"ĠGrand":2884,"ĠChampions":2885,"ĠthÃ¡o":2886,"ĠYÃªn":2887,"ĠÄĳiá»ĩu":2888,"ail":2889,"Ġtrá»ĳn":2890,"ĠCl":2891,"Ġkhuáº©n":2892,"ĠNews":2893,"ĠCal":2894,"eep":2895,"Ġduyá»ĩt":2896,"iá»ĩng":2897,"ĠLÆ°Æ¡ng":2898,"Ġvá»ı":2899,"ngÆ°á»Ŀi":2900,"ĠNá»¯":2901,"ance":2902,"ĠCáº§n":2903,"ĠTiá»ĥu":2904,"ÄĲÃ¢y":2905,"ĠtrÃ´ng":2906,"ĠGre":2907,"300":2908,"Ġkhen":2909,"ĠngÆ°á»¡ng":2910,"ĠMexico":2911,"ĠDe":2912,"ĠTÆ°":2913,"á»ĳp":2914,"ĠÄĳÃ¡o":2915,"sky":2916,"80":2917,"ĠsÆ°u":2918,"Ġgá»Ĺ":2919,"Ġbáº¡ch":2920,"Ġset":2921,"ĠCa":2922,"ĠhÃ²":2923,"Ġhoáº£ng":2924,"Má»Ļt":2925,"ĠlÆ°ng":2926,"Nhá»¯ng":2927,"ays":2928,"ĠÄĲáº·c":2929,"Ġbáº¯c":2930,"ĠthÃ´i":2931,"ĠÄĲÃ¬nh":2932,"Ġbá»¥ng":2933,"Ġ2016":2934,"iam":2935,"ĠHÆ¡n":2936,"ĠHamas":2937,"ĠQua":2938,"Ġcá»ĳt":2939,"Ġmiá»ĩng":2940,"ĠThÃ¹y":2941,"ies":2942,"ĠTikTok":2943,"ĠchÃŃn":2944,"ĠÄĲiá»ĥm":2945,"ĠMon":2946,"Ġtrá»¥c":2947,"ĠVietnam":2948,"ĠRob":2949,"gon":2950,"po":2951,"ĠHá»ĩ":2952,"ĠToÃłn":2953,"ĠLao":2954,"ox":2955,"ĠtÃºc":2956,"Ġphá»Ł":2957,"bon":2958,"sung":2959,"ĠVÄĲV":2960,"ern":2961,"ĠSte":2962,"Ġuy":2963,"Ġthuyá»ģn":2964,"ĠBÃ¡c":2965,"ott":2966,"Ġmá»¡":2967,"¥i":2968,"ĠchÃ³":2969,"ĠviÃªm":2970,"ĠÄĳáºŃm":2971,"ĠDav":2972,"ĠNgay":2973,"ĠGal":2974,"ĠtÃ¢y":2975,"ĠTiá»ģn":2976,"Ġpháº¥n":2977,"Ġhiáº¿n":2978,"ĠCÆ°á»Ŀng":2979,"ĠÄĳÃł":2980,"ĠgiÃ£n":2981,"ĠLoan":2982,"ark":2983,"Ġtáº¯t":2984,"ĠÄĳÃłi":2985,"ĠthÆ°á»£ng":2986,"Ġkáº¹":2987,"ĠxuÃ¢n":2988,"Ġbá»Ļt":2989,"ĠnÆ°á»Ľng":2990,"Ġ2017":2991,"combank":2992,"ĠbuÃ´n":2993,"ust":2994,"ĠOpenAI":2995,"Ġ33":2996,"ĠReal":2997,"ĠSáº£n":2998,"ft":2999,"ĠbÃ¡m":3000,"ĠsÃ¡p":3001,"Ġhá»ıng":3002,"ĠPl":3003,"Ġtráº§m":3004,"ĠLÆ°u":3005,"ĠYo":3006,"ĠtrÆ°a":3007,"Ġkháº©n":3008,"Ġhoang":3009,"ĠquÃªn":3010,"Ġmáº£nh":3011,"ĠMal":3012,"ĠVÃłng":3013,"Ġná»Ł":3014,"ĠmÅ©i":3015,"ice":3016,"Ġláº§m":3017,"Ġdáº¯t":3018,"35":3019,"ĠÃ¡m":3020,"tre":3021,"martphone":3022,"Ġbáº£y":3023,"Ġtháº£m":3024,"elen":3025,"ĠNad":3026,"ara":3027,"100":3028,"Ġháº¹p":3029,"ĠBrazil":3030,"ĠBÃ¹i":3031,"ĠmÃ£i":3032,"ans":3033,"Ġmm":3034,"Ġmáº£ng":3035,"Ġmáº¡c":3036,"ĠTHCS":3037,"ollah":3038,"Ġphanh":3039,"Ġtruyá»ĩn":3040,"iforn":3041,"ifornia":3042,"ael":3043,"Ġkem":3044,"ĠHáº¡":3045,"ei":3046,"ĠchÃłng":3047,"Ġngáº¯m":3048,"ezb":3049,"ĠngáºŃp":3050,"Ġtung":3051,"ĠtÃ¡ch":3052,"ĠCáº§u":3053,"ezbollah":3054,"ĠthÃ©p":3055,"Ġsu":3056,"eta":3057,"eek":3058,"ĠCam":3059,"ĠrÃło":3060,"ens":3061,"ĠÄĳai":3062,"Ġnhi":3063,"18":3064,"ĠTÃ¹ng":3065,"Ġkhoáº£nh":3066,"Ġbá»Ľt":3067,"ID":3068,"ĠTÃŃnh":3069,"KhÃ´ng":3070,"ight":3071,"ĠMá»©c":3072,"ham":3073,"uch":3074,"ĠTÆ°Æ¡ng":3075,"ĠFr":3076,"ĠAF":3077,"ĠStar":3078,"ĠdÃ¡m":3079,"Ġchá»§ng":3080,"per":3081,"ĠÄĳeo":3082,"ĠgÃ¡nh":3083,"ASA":3084,"ĠÄĳÃ²n":3085,"Ġhá»ıa":3086,"ĠNhi":3087,"ĠthÄĥng":3088,"ĠxÃ³m":3089,"Ġháº§m":3090,"Ġ400":3091,"ĠsÆ¡n":3092,"ĠTÃ¬nh":3093,"NgÆ°á»Ŀi":3094,"ear":3095,"ĠtÄ©nh":3096,"ĠNai":3097,"ĠNet":3098,"Ġ&":3099,"ĠSch":3100,"Ġcm":3101,"ĠHáº±ng":3102,"ĠVÄ©nh":3103,"age":3104,"Ġgan":3105,"ĠBiÃªn":3106,"ĠTrá»Ŀi":3107,"Ġráº¯n":3108,"Ġ36":3109,"ial":3110,"ind":3111,"ĠTech":3112,"Ġcáº£ng":3113,"ĠCalifornia":3114,"Ġtreo":3115,"ĠtÃºy":3116,"Ġu":3117,"ĠmÃ¢y":3118,"Ãºn":3119,"va":3120,"Ġtháº£":3121,"Ã¹m":3122,"giÃ¡":3123,"ĠsÃ´i":3124,"ica":3125,"ĠxÃ³a":3126,"Ġruá»Ļt":3127,"ĠÄĳiá»ĥn":3128,"ĠTS":3129,"ĠMc":3130,"ĠÄĲÆ°á»Ŀng":3131,"di":3132,"Ġvua":3133,"ĠtrÃ²n":3134,"ĠNháº¥t":3135,"ek":3136,"Ġmáº¡o":3137,"ĠtáºŃt":3138,"ota":3139,"ĠhoÃ£n":3140,"Ã©n":3141,"ĠchÃºc":3142,"ĠTÃłu":3143,"lex":3144,"ĠbÆ¡i":3145,"ĠnhÃ¡nh":3146,"ĠHezbollah":3147,"ĠphÃ¡o":3148,"Ġmuá»Ļn":3149,"ct":3150,"Ġmá»ĩnh":3151,"Ġ37":3152,"Ġco":3153,"ĠkhoÃ¡ng":3154,"ĠChuyÃªn":3155,"ĠNadal":3156,"Ġthiá»ĩp":3157,"ĠvÃ¡y":3158,"á»Ļm":3159,"ĠHáº¡nh":3160,"ĠVÃł":3161,"Nhiá»ģu":3162,"ĠBÃ¡o":3163,"Ġmá»ıng":3164,"ban":3165,"Ġ150":3166,"ith":3167,"ĠIT":3168,"Ġngá»«a":3169,"oo":3170,"Ġhá»¥t":3171,"ĠHiáº¿u":3172,"Ġdá»įc":3173,"ĠSpace":3174,"Ġtan":3175,"ĠngÃ£":3176,"Ġvá»Ŀi":3177,"áº«y":3178,"Ġtráº§n":3179,"ĠtrÃło":3180,"ĠSer":3181,"Ġhá»©a":3182,"ĠVÃło":3183,"ĠThiáº¿t":3184,"ĠdÃłn":3185,"Ġmáº¥y":3186,"Ġvoi":3187,"ĠMáº¡nh":3188,"ĠThá»ĳng":3189,"ĠDi":3190,"Ġáº£o":3191,"ĠÄĲá»ĭa":3192,"ĠTrÆ°á»Łng":3193,"Ġsá»ĳc":3194,"ĠsÃ³t":3195,"VN":3196,"ĠYou":3197,"Ġchinh":3198,"Æ°á»Ľp":3199,"ake":3200,"Ġ120":3201,"ĠChu":3202,"ĠlÃ£ng":3203,"Æ°Æ¡n":3204,"ĠTrÆ°Æ¡ng":3205,"Ġ34":3206,"ÃĶng":3207,"á»¯u":3208,"ipp":3209,"Ġchim":3210,"ĠTáº¥t":3211,"Ġ197":3212,"ym":3213,"ĠTháº¯ng":3214,"ĠSamsung":3215,"ĠsÃ¡nh":3216,"Ġ2030":3217,"Æ°á»£n":3218,"ĠXÃ£":3219,"ĠÄĳáº§m":3220,"Ġcá»ı":3221,"ĠPal":3222,"ĠGáº§n":3223,"AV":3224,"ĠnhÃ£n":3225,"ĠrÃ²ng":3226,"eth":3227,"ĠvÆ°á»Ľng":3228,"any":3229,"ĠCap":3230,"ĠdÃ¢u":3231,"ĠÄĳá»±ng":3232,"ĠxÆ°a":3233,"ĠHá»¯u":3234,"ĠAd":3235,"SG":3236,"ĠHÃ´m":3237,"ĠMac":3238,"ĠNÃ³":3239,"ĠÄĲÆ¡n":3240,"ĠhÃ¢m":3241,"Æ°á»Ľt":3242,"Ġbá»¥i":3243,"Ġkhá»Ľp":3244,"ĠGar":3245,"ĠÃ´m":3246,"ĠKiáº¿n":3247,"Ġlá»ĵ":3248,"ĠTÃº":3249,"ĠVI":3250,"ĠthÆ¡m":3251,"ĠSlam":3252,"ug":3253,"ĠThá»¥y":3254,"itamin":3255,"ĠmÆ°u":3256,"iev":3257,"ha":3258,"ĠÄĲoÃłn":3259,"ÄĲáº¡i":3260,"Ġinch":3261,"ĠInst":3262,"ĠrÃ¨n":3263,"to":3264,"2021":3265,"16":3266,"ĠtrÆ°á»£t":3267,"ĠQuÃ½":3268,"ĠMark":3269,"Ġha":3270,"ĠBÃ¡ch":3271,"Em":3272,"ĠtÃ´m":3273,"Ġtrá»ĳng":3274,"ĠPhil":3275,"Ġcarbon":3276,"cel":3277,"Ġxá»©ng":3278,"ron":3279,"Ġviá»ħn":3280,"ĠkiÃªm":3281,"axy":3282,"xy":3283,"Ġthá»į":3284,"ĠFed":3285,"hip":3286,"Ġsmartphone":3287,"GPT":3288,"Ġchua":3289,"ĠAP":3290,"ĠtÆ°á»Ŀng":3291,"Ġváº£i":3292,"tein":3293,"ĠKá»¹":3294,"ĠChÃŃ":3295,"199":3296,"Ġthuáº§n":3297,"ĠdÆ°á»£c":3298,"Ġkhá»ķng":3299,"ĠgiÃ¡n":3300,"Ã£nh":3301,"ĠGl":3302,"Ġpro":3303,"Ġnháº¯m":3304,"Ã¬a":3305,"Ġal":3306,"Ġbia":3307,"Ġcá»¥m":3308,"ĠMo":3309,"ĠBÃłi":3310,"Ġven":3311,"Ġtá»§":3312,"ĠLy":3313,"Ġkia":3314,"ĠHC":3315,"ines":3316,"Ġtrá»įn":3317,"ĠChat":3318,"ĠtÃ¡o":3319,"Ġtiá»ĩm":3320,"ĠCity":3321,"entor":3322,"aysia":3323,"ĠPhÆ°á»Ľc":3324,"ĠRiÃªng":3325,"Ġ38":3326,"ĠbáºŃn":3327,"Ġgiáº¥u":3328,"Ġ2015":3329,"mi":3330,"Ġtáº¯m":3331,"ĠvÄ©":3332,"ĠhÆ°":3333,"Ġtháº¡c":3334,"ĠSun":3335,"ĠLáº§n":3336,"ĠPr":3337,"ĠbÃª":3338,"atch":3339,"olf":3340,"BS":3341,"ĠphÃ¡i":3342,"ĠVÃµ":3343,"ĠGB":3344,"Ġxá»©":3345,"Ġháº¯n":3346,"ĠHuyá»ģn":3347,"ĠlÃ¢m":3348,"ĠAng":3349,"Ġcá»ķng":3350,"Ġxáº¡":3351,"ĠlÃ´ng":3352,"ĠKhang":3353,"ĠNghÄ©a":3354,"ĠrÄĥng":3355,"Ġmá»±c":3356,"ĠDung":3357,"ĠUy":3358,"ĠArab":3359,"tor":3360,"AN":3361,"ĠTiáº¿ng":3362,"ĠTruyá»ģn":3363,"ĠChá»©ng":3364,"CÃ´ng":3365,"ĠchÃ¹a":3366,"Ġtiáº¿c":3367,"ep":3368,"Ġtháº§u":3369,"ĠZelen":3370,"TE":3371,"ka":3372,"ĠEr":3373,"CÃ³":3374,"ĠCá»ķ":3375,"ĠBáº¿n":3376,"Ġ2026":3377,"ĠAFP":3378,"ĠZelensky":3379,"mar":3380,"ash":3381,"se":3382,"hop":3383,"ĠtrÃłn":3384,"ĠMÃ¡y":3385,"ĠHá»£p":3386,"400":3387,"ics":3388,"800":3389,"ĠÄĳá»ĩ":3390,"site":3391,"Ġgiáº·t":3392,"iá»ħu":3393,"ĠgiáºŃn":3394,"ĠLon":3395,"ĠLá»Ļc":3396,"ĠÄĲá»Ĺ":3397,"Ġmá»ĵi":3398,"ama":3399,"ĠLÃł":3400,"Ġ75":3401,"ĠCarl":3402,"ĠCNN":3403,"ĠGeo":3404,"ĠFran":3405,"ĠrÃł":3406,"Ġthá»Ŀ":3407,"ĠÄĲá»Ļi":3408,"Ġdá»įn":3409,"ĠAlex":3410,"Donald":3411,"ĠNÃ´ng":3412,"ĠÄĳáº¿":3413,"ester":3414,"ĠdÃ²":3415,"ĠThÆ°á»Ŀng":3416,"ĠRo":3417,"600":3418,"ĠNASA":3419,"alo":3420,"cÃ´ng":3421,"'',":3422,"ĠTÃ´":3423,"ĠxÃ¢m":3424,"Ã½t":3425,"ĠEx":3426,"Tá»ķng":3427,"Viá»ĩc":3428,"ĠnhÃłng":3429,"24":3430,"Ġhá»ĳi":3431,"Ġ48":3432,"coin":3433,"17":3434,"ĠCamp":3435,"Ġvitamin":3436,"aul":3437,"ĠKhoáº£ng":3438,"ose":3439,"agram":3440,"Vá»Ľi":3441,"ĠkhÆ¡i":3442,"ĠMax":3443,"ĠBáº±ng":3444,"AM":3445,"Ġcháº·ng":3446,"ĠTÃ²a":3447,"ĠMad":3448,"ĠHuá»³nh":3449,"Ġvang":3450,"Ġthuáº«n":3451,"Ġcháº½":3452,"ĠngÆ¡i":3453,"ĠBen":3454,"do":3455,"Ġthan":3456,"ĠGalaxy":3457,"Ġgiam":3458,"ĠMos":3459,"ĠVá»¥":3460,"Ġsá»£i":3461,"ĠvÃµ":3462,"CC":3463,"Ġtrá»Ļn":3464,"ĠHong":3465,"ĠÃ¢n":3466,"Ġcanh":3467,"ĠbÃ´ng":3468,"ĠÄĲa":3469,"ĠSw":3470,"ebook":3471,"Con":3472,"ma":3473,"Ļi":3474,"âĢĻ":3475,"kinh":3476,"ĠgiÆ°á»Ŀng":3477,"ixel":3478,"ĠTimes":3479,"ier":3480,"ĠTá»±":3481,"ĠSan":3482,"ĠInstagram":3483,"ĠnhiÃªu":3484,"ĠTrÃł":3485,"ĠThÆ¡":3486,"ĠlÃµi":3487,"att":3488,"ĠGroup":3489,"ĠghÃ©":3490,"Ġva":3491,"arl":3492,"Ġcáº¥t":3493,"ĠniÃªm":3494,"Ho":3495,"ital":3496,"NhÃł":3497,"ĠÃ¡c":3498,"Ġst":3499,"ÃŃp":3500,"ĠSÆ°":3501,"ĠPut":3502,"45":3503,"90":3504,"ĠgiÃ¡p":3505,"imb":3506,"ĠOs":3507,"mer":3508,"Ġdá»ĳc":3509,"Ġcháº©n":3510,"á»ĳm":3511,"Ġ2014":3512,"ĠsÃºt":3513,"ĠÄĳá»ĵn":3514,"ĠMalaysia":3515,"kho":3516,"ĠTel":3517,"Ġcá»§ng":3518,"ĠKiev":3519,"brid":3520,"ĠtÃ´":3521,"ĠtÃ¡m":3522,"ĠTour":3523,"ĠÄĳá»ģn":3524,"Ġthá»£":3525,"ĠKhÃ¡ch":3526,"ings":3527,"ĠEU":3528,"acebook":3529,"com":3530,"ĠlÃ¹i":3531,"ĠGDP":3532,"ike":3533,"á»£":3534,"ĠhÃłm":3535,"Ġand":3536,"iao":3537,"ĠLá»±c":3538,"ĠGreen":3539,"ĠLondon":3540,"Ġhá»ķ":3541,"ĠMess":3542,"ĠBo":3543,"ania":3544,"ĠChatGPT":3545,"de":3546,"ĠChrist":3547,"ĠkhÃ¡t":3548,"ĠQuan":3549,"ney":3550,"ĠhÃ¹ng":3551,"ĠAt":3552,"ĠTá»·":3553,"ĠHÃłnh":3554,"ĠRonald":3555,"vid":3556,"ĠTN":3557,"Ġmuá»ĳi":3558,"Ġmáº§m":3559,"ube":3560,"yo":3561,"ĠvÆ°Æ¡n":3562,"ĠchÃªnh":3563,"ana":3564,"ĠxÃ¡":3565,"Ġkhá»©":3566,"thu":3567,"Ġtuy":3568,"Ġngáº§m":3569,"ĠMed":3570,"ĠKhá»":3571,"ĠcÃ¡t":3572,"ĠDeep":3573,"ala":3574,"ĠlÃ£o":3575,"Ġváº¹n":3576,"Ġmentor":3577,");":3578,"GS":3579,"xi":3580,"ĠbÆ¡":3581,"ĠInternet":3582,"ĠquÃ©t":3583,"ĠnháºŃm":3584,"ĠLá»£i":3585,"uchia":3586,"Ġ42":3587,"ĠPutin":3588,"ĠmÃ£n":3589,"ĠSaudi":3590,"Ġwebsite":3591,"Ġ600":3592,"Ġláº·ng":3593,"Ġheo":3594,"á»±u":3595,"ĠThÃºy":3596,"are":3597,"ĠWill":3598,"ives":3599,"go":3600,"ED":3601,"ĠtrÃ´i":3602,"ĠthÃ¹ng":3603,"ĠVáºŃn":3604,"Ġoxy":3605,"gent":3606,"Ġsay":3607,"Ġmá»ķ":3608,"esla":3609,"ĠElon":3610,"Tá»«":3611,"ero":3612,"vidia":3613,"ĠHol":3614,"Ġa":3615,"ĠMá»įi":3616,"ĠLai":3617,"ĠKong":3618,"ĠbÃ¡t":3619,"Ġá»©c":3620,"Ġfan":3621,"Ġlá»ıng":3622,"ĠquÃ£ng":3623,"Äĳáº§u":3624,"ĠDavid":3625,"ve":3626,"ames":3627,"Ġtrá»į":3628,"ĠmÃ³c":3629,"ĠMá»¥c":3630,"ĠÄĲáº·ng":3631,"ink":3632,"ĠSÃ¡ng":3633,"ĠTrá»įng":3634,"Ġhá»Ĺn":3635,"ĠLeban":3636,"ĠLebanon":3637,"tel":3638,"Ġcáº¯m":3639,"ĠHon":3640,"Ġlá»ĳp":3641,"ĠHoSE":3642,"ĠLá»ħ":3643,"700":3644,"SS":3645,"Ġcua":3646,"ĠlÆ°á»¡ng":3647,"ĠTrÃŃ":3648,"ĠlÃºa":3649,"ĠXÃ¢y":3650,"ĠtrÆ¡n":3651,"ĠUt":3652,"£n":3653,"Ġlang":3654,"ĠhÃ´":3655,"ĠSyr":3656,"cÃ³":3657,"ĠÄĳáº¯p":3658,"ĠÄĳÄ©a":3659,"ĠxÆ°á»Łng":3660,"ĠBá»Łi":3661,"Ġ55":3662,"Å©a":3663,"ĠHe":3664,"ĠOr":3665,"ĠÆ°a":3666,"ĠbÃ¡":3667,"ĠFor":3668,"Ġchai":3669,"ĠBu":3670,"Ġcáº©n":3671,"ĠPhilipp":3672,"Ġngáº¡c":3673,"ĠMin":3674,"Ġbom":3675,"áº³n":3676,"ĠNov":3677,"ĠJe":3678,"Ġxáº£":3679,"ish":3680,"itcoin":3681,"Ġngá»±c":3682,"acc":3683,"Ġtáº§n":3684,"ĠNÆ°á»Ľc":3685,"ience":3686,"ÃŃa":3687,"á»ĭn":3688,"ĠAb":3689,"ĠPet":3690,"ĠkhoÃ¡c":3691,"FA":3692,"Ġngá»Ļ":3693,"ĠGeor":3694,"rone":3695,"Ġchuá»Ļng":3696,"Ġháº³n":3697,"Ġnháº¡y":3698,"ĠMessi":3699,"99":3700,"Ġvá»Ł":3701,"ĠCom":3702,"ĠKáº¿":3703,"dy":3704,"ĠtÃłn":3705,"ĠrÃ£i":3706,"eh":3707,"Ġtour":3708,"2020":3709,"ger":3710,"Ġdáº¡":3711,"Ġlá»¡":3712,"ĠSa":3713,"ĠPer":3714,"ĠÄĳáºŃp":3715,"Ġgom":3716,"Ġtrá»Ļi":3717,"ĠmÆ°á»£n":3718,"ĠMel":3719,"¯a":3720,"ĠAv":3721,"ĠNghi":3722,"ĠWal":3723,"ĠBarca":3724,"ĠJoe":3725,"ĠGiá»Ŀ":3726,"ĠlÃ²":3727,"Ã¹n":3728,"ĠXe":3729,"ĠvÃ¡n":3730,"Ġ43":3731,"ĠRobert":3732,"ĠCampuchia":3733,"75":3734,"ĠPark":3735,"he":3736,"Ġmáº»":3737,"Ġkhiáº¿u":3738,"ĠKur":3739,"ĠPhim":3740,"Ġyáº¿t":3741,"Ġ65":3742,"ĠHiá»ģn":3743,"ĠÄĲáº¡o":3744,"Ġváº¯ng":3745,"Ġquyá»ĥn":3746,"ĠUl":3747,"ĠYouT":3748,"Ġde":3749,"ĠFacebook":3750,"accine":3751,"ĠThÆ°":3752,"ida":3753,"ĠYáº¿n":3754,"tra":3755,"ona":3756,"CO":3757,"ĠBer":3758,"ĠEd":3759,"ĠAngel":3760,"ano":3761,"ĠNgÃ´":3762,"ward":3763,"ĠnhÆ°á»£ng":3764,"ĠLÃ£nh":3765,"Ġsáº§u":3766,"ĠTam":3767,"ĠDon":3768,"ĠcÆ°Æ¡ng":3769,"Ġsá»¥t":3770,"ĠQuyáº¿t":3771,"Ġ196":3772,"ĠTesla":3773,"Ġnháº§m":3774,"ĠmÃ²":3775,"ĠSe":3776,"ĠXanh":3777,"ure":3778,"Ľn":3779,"ĠHáºŃu":3780,"Ġmá»ı":3781,"ĠÄĲá»ģ":3782,"Ġtuyáº¿t":3783,"ĠVÅ©ng":3784,"ond":3785,"ĠMichael":3786,"ks":3787,"ĠCÃ¢u":3788,"iver":3789,"Ġphá»ķi":3790,"oft":3791,"ĠcÆ°á»Ľp":3792,"ĠNvidia":3793,"ĠRonaldo":3794,"ĠNa":3795,"ÄĲiá»ģu":3796,"ĠSyria":3797,"me":3798,"Ġtháº¥u":3799,"Ġháº£o":3800,"int":3801,"ĠPháºŃt":3802,"ĠHoÃłn":3803,"za":3804,"Ġngá»Ļt":3805,"Ġ39":3806,"ĠFlor":3807,"ĠTá»īnh":3808,"ĠÃģnh":3809,"ford":3810,"Ġlau":3811,"ĠBro":3812,"ĠÄĲH":3813,"ĠHoÃłi":3814,"ĠMosk":3815,"Táº¡i":3816,"ĠmÃ©t":3817,"ĠHÄĲ":3818,"Ġcá»ĳng":3819,"ĠxÆ¡":3820,"ĠPost":3821,"Ġvá»Ļi":3822,"Ġsoáº¡n":3823,"Ġá»ĵn":3824,"ĠbÃ¢y":3825,"Ġlá»Ļn":3826,"HH":3827,"Ġ>":3828,"ĠTV":3829,"ĠFranc":3830,"Ġgolf":3831,"Ġ46":3832,"ĠdÃŃnh":3833,"22":3834,"ĠtÃ¢n":3835,"ĠMic":3836,"app":3837,"Ġ2013":3838,"Ġprotein":3839,"ATO":3840,"Ġláº·p":3841,"ĠÄĳá»«ng":3842,"ĠNgÆ°á»£c":3843,"ĠToy":3844,"ĠTNHH":3845,"ile":3846,"Ġmeg":3847,"Ġeuro":3848,"JC":3849,"yd":3850,"á»¥":3851,"Ġtiá»ħn":3852,"ĠTÄ©nh":3853,"Ġhá»ĳ":3854,"Ġhoan":3855,"ĠUAV":3856,"ors":3857,"Ĺng":3858,"Ġthoáº£ng":3859,"Ġráº½":3860,"itt":3861,"ĠbÃºn":3862,"ĠthÃ¢m":3863,"ĠLá»ĩ":3864,"xe":3865,"Ġkiá»ĩt":3866,"Ġngáº¡ch":3867,"ĠÄĲáº¡t":3868,"Æ°á»¡i":3869,"tream":3870,"ĠlÃŃnh":3871,"Ġbl":3872,"Ġmáº¡n":3873,"ĠBus":3874,"ĠMÃ´i":3875,"ĠMoskva":3876,"ĠtÃ´ng":3877,"SEAN":3878,"my":3879,"sh":3880,"ĠtÃŃ":3881,"Ġváº£":3882,"Ġhá»ĵn":3883,"SI":3884,"ĠCai":3885,"Ġlá»ģ":3886,"its":3887,"ĠAndre":3888,"ĠGuard":3889,"Ġ2000":3890,"gh":3891,"Ġhá»ģ":3892,"ĠVan":3893,"ĠPhilippines":3894,"Seek":3895,"ĠBill":3896,"ide":3897,"Há»į":3898,"ĠÄĲÄĥng":3899,"ĠVá»£":3900,"na":3901,"ĠLi":3902,"ren":3903,"che":3904,"ragon":3905,"ĠCr":3906,"ĠVi":3907,"ĠViÃªn":3908,"ĠÄĲá»Ļng":3909,"Ġ2012":3910,"ĠÄĳáº»":3911,"ĠÄĳÅ©a":3912,"ĠThá»į":3913,"ander":3914,"ĠKiá»ģu":3915,"lá»":3916,"ĠÄĲÆ°á»£c":3917,"Ġdá»ĵi":3918,"ĠÄĲinh":3919,"Ġlá»£n":3920,"ĠlÃŃt":3921,"ĠHer":3922,"ĠKiÃªn":3923,"ĠgÅ©i":3924,"ĠBang":3925,"ĠYouTube":3926,"ĠMil":3927,"ĠSang":3928,"ĠDanh":3929,"ler":3930,"Ġvaccine":3931,"apixel":3932,"gentina":3933,"Ġmen":3934,"ĠScience":3935,"ĠVÃłi":3936,"ĠLá»ĭch":3937,"Ġ44":3938,"ĠVal":3939,"ĠDÆ°á»Ľi":3940,"Ġmegapixel":3941,"ĠTriá»ģu":3942,"ĠÄĳÃ¢m":3943,"Ġbáº©n":3944,"Äĥk":3945,"14":3946,"ĠgáºŃp":3947,"13":3948,"ĠkhÃ´i":3949,"ĠSon":3950,"ĠSÄ©":3951,"ien":3952,"ane":3953,"ĠthoÃ¡i":3954,"ĠToyota":3955,"Ġdá»ĵn":3956,"Ġdiá»ĩt":3957,"ya":3958,"ĠNATO":3959,"ĠHÃ¬nh":3960,"ĠBá»ĳ":3961,"ĠBitcoin":3962,"ĠÄĲan":3963,"Ġtá»±u":3964,"Ġlives":3965,"ĠRub":3966,"Ġngá»£i":3967,"odel":3968,"há»ĩ":3969,"ĠCÃł":3970,"áº«m":3971,"ĠNhÃ¬n":3972,"Ġchuá»Ļt":3973,"Ġcu":3974,"Ġmá»ĵ":3975,"ĠKursk":3976,"ĠchÃ¡n":3977,"ĠHÃ£y":3978,"ĠMeta":3979,"īa":3980,"ĠtÃ¡":3981,"nhÃł":3982,"Ġhuyá»ģn":3983,"ĠVol":3984,"ĠRom":3985,"ĠOn":3986,"bum":3987,"á»µ":3988,"ĠSu":3989,"OS":3990,"ĠduyÃªn":3991,"ĠEn":3992,"ĠPhá»¥":3993,"ĠmÃ¹":3994,"ĠCho":3995,"ole":3996,"Nguyá»ħn":3997,"ĠcÃ³c":3998,"Ġbá»įc":3999,"Ġrung":4000,"Ġlá»©a":4001,"ĠATP":4002,"ĠhoÃłi":4003,"Ġ47":4004,"ĠFin":4005,"ola":4006,"ĠUtd":4007,"á»«ng":4008,"ĠbuÃ½t":4009,"ĠCÃ¡t":4010,"ĠÄĳá»ĵi":4011,"Ġkáº¹t":4012,"Ġváº¥t":4013,"Ġbá»ĳc":4014,"ĠTin":4015,"áº±n":4016,"bo":4017,"ĠkhÃ¢u":4018,"ĠHan":4019,"ĠMay":4020,"ĠKá»ĥ":4021,"Ġ57":4022,"ĠchÃ¬m":4023,"Ġ41":4024,"rosoft":4025,"Ġláº¯m":4026,"Ġrá»±c":4027,"Ġná»ģ":4028,"PA":4029,"kÃŃp":4030,"Ġtrá»Ļm":4031,"Ġlá»ĵng":4032,"ĠASEAN":4033,"DI":4034,"ĠCháº³ng":4035,"Ġrá»¡":4036,"ĠÄĳá»©c":4037,"Ġdáº¡o":4038,"ĠHiá»ĩu":4039,"ĠAlv":4040,"Ġ1990":4041,"ĠHarv":4042,"ĠdÃ£":4043,"ino":4044,"bia":4045,"Ġbi":4046,"ĠCáºŃu":4047,"?\".":4048,"Ġbáº¡":4049,"ĠTom":4050,"ĠTok":4051,"ĠMÃ¹a":4052,"ĠMart":4053,"khoáº£ng":4054,"ĠThá»ĭnh":4055,"Ġdá»ĭu":4056,"IT":4057,"ĠlÃ´":4058,"Ġbáº¿n":4059,"ĠchÃ©p":4060,"Ġphe":4061,"ĠMasters":4062,"ĠFlorida":4063,"23":4064,"ĠmáºŃp":4065,"lad":4066,"Ġmetro":4067,"ĠAD":4068,"Ġ800":4069,"Ġá»ĳc":4070,"Ġdá»ĳi":4071,"ĠHÃ£ng":4072,"ĠSiÃªu":4073,"bot":4074,"ĠÄĳÃºc":4075,"ĠThá»ĥ":4076,"Ġvisa":4077,"ĠNÃ³i":4078,"Ġchá»«ng":4079,"ĠCÃ¡":4080,"ĠSeo":4081,"ĠPGS":4082,"Ġá»Ľt":4083,"Ġ85":4084,"Ġlog":4085,"ĠLee":4086,"ĠÄĳÃ¡y":4087,"ĠÄĳuÃ´i":4088,"Ġ250":4089,"ĠcÃłi":4090,"Ġtráº¯c":4091,"Ġtháº¯t":4092,"ĠSai":4093,"ĠNhÄ©":4094,"Ġ2010":4095,"iano":4096,"Ġrá»Ļn":4097,"Ġ54":4098,"ata":4099,"Ġváº¡ch":4100,"ĠTrá»ĭnh":4101,"ĠBáº¡ch":4102,"pa":4103,"wood":4104,"Ġdá»«a":4105,"ĠChung":4106,"ĠArgentina":4107,"ĠdÃ¢m":4108,"ĠTiáº¿p":4109,"Ġxá»ī":4110,"Ġnáº¥m":4111,"ĠMi":4112,"ĠKar":4113,"Æ°á»Łi":4114,"mua":4115,"ĠÄĲá»Ļc":4116,"giá»":4117,"ĠThi":4118,"má»Ļt":4119,"ĠhÃ£i":4120,"ull":4121,"ĠSpaceX":4122,"ĠFrancis":4123,"?\",":4124,"ĠÄĳÃ¹a":4125,"Ġbáº¯p":4126,"ĠchÄĥn":4127,"Ġdrone":4128,"Ġngá»įn":4129,"Ġkhuyáº¿t":4130,"ĠBáº¥t":4131,"ĠNhÆ¡n":4132,"Thá»§":4133,"Ġtang":4134,"ĠWe":4135,"ĠHonda":4136,"ĠÆ":4137,"á»Ńa":4138,"Ġhiá»ĥn":4139,"ĠQuÃ¡":4140,"ĠcáºŃy":4141,"ĠTaylor":4142,"ĠMiss":4143,"agen":4144,"ke":4145,"ĠCO":4146,"ĠEuro":4147,"ĠXiao":4148,"ĠbÃ¬":4149,"Ġtrá»«ng":4150,"Ġ700":4151,"berg":4152,"ire":4153,"ĠTá»ĳi":4154,"ĠmÃ²n":4155,"ĠcháºŃt":4156,"ĠJon":4157,"ĠtÃŃm":4158,"ĠVideo":4159,"Ġná»ĵng":4160,"agi":4161,"Ġdáº£i":4162,"NÄĥm":4163,"uck":4164,"ĠHáº§u":4165,"Ġkhoang":4166,"ĠÃĿ":4167,"NhÆ°ng":4168,"Ġvá»įt":4169,"ode":4170,"CA":4171,"ene":4172,"ÄĲÃ³":4173,"Ġmá»ĳt":4174,"ĠMau":4175,"Ġ2008":4176,"ĠTokyo":4177,"ĠDN":4178,"ĠGiÃ¡ng":4179,"ational":4180,"ĠMicrosoft":4181,"ĠDani":4182,"88":4183,"UV":4184,"ĠHD":4185,"ĠLáº¡t":4186,"ĠDeepSeek":4187,"ĠcÃ¡p":4188,"ĠTop":4189,"Ġmá»Ŀ":4190,"ĠÄĳÃŃnh":4191,"ĠÄĲiá»ĥn":4192,"ĠPaul":4193,"ĠChÆ°a":4194,"ĠbÃºt":4195,"ĠmÃ¢u":4196,"ĠMer":4197,"ĠLam":4198,"ary":4199,"Nga":4200,"bá»":4201,"ĠnhÃ¬":4202,"ĠTex":4203,"ĠTháº§y":4204,"esh":4205,"Ġchuyá»ģn":4206,"ĠkhÃ©p":4207,"ĠVáºŃt":4208,"ĠthoÃ¡ng":4209,"Ġkáº¹o":4210,"Ġ>>":4211,"ĠLau":4212,"ThÃ´ng":4213,"unce":4214,"obal":4215,"Fast":4216,"ko":4217,"Ġchat":4218,"ĠMat":4219,"Ġcá»Łi":4220,"ĠMáº·c":4221,"ĠSal":4222,"ĠRes":4223,"ĠmÃºa":4224,"Ġdá»Ļi":4225,"ife":4226,"Ġgáº¯t":4227,"Ġquá»µ":4228,"ĠPat":4229,"GiÃ¡":4230,"Ġhung":4231,"use":4232,"28":4233,"ĠMáº¹":4234,"ĠWilliam":4235,"Ġcáº¡n":4236,"pper":4237,"Ġ2011":4238,"ĠIII":4239,"Ġgáº§m":4240,"lock":4241,"annah":4242,"Ġgá»ĳi":4243,"26":4244,"gan":4245,"ĠLig":4246,"Ġquáº§y":4247,"Ġlá»įt":4248,"ĠGiai":4249,"chá»©ng":4250,"ĠÄĳáº·n":4251,"Ġsiáº¿t":4252,"ĠÄĳÃ³i":4253,"ÄĲT":4254,"Ġbáº¥m":4255,"ĠAi":4256,"ĠQuÃ¡n":4257,"ĠHarvard":4258,"wei":4259,"Ġla":4260,"Ġnáº¿p":4261,"ĠXuyÃªn":4262,"istan":4263,"ĠTexas":4264,"Ġcá»ĳc":4265,"ĠvÆ°Æ¡ng":4266,"Ġ56":4267,"ĠTuyÃªn":4268,"ealand":4269,"Ġalbum":4270,"ĠVy":4271,"ĠVá»įng":4272,"ĠPSG":4273,"ĠKiá»ĥm":4274,"ĠRich":4275,"ĠAlt":4276,"NháºŃt":4277,"ĠMa":4278,"ĠTráº»":4279,"Ġkhoe":4280,"ĠThá»ķ":4281,"Ġgáº¥u":4282,"Ġ49":4283,"2019":4284,"reak":4285,"ĠZealand":4286,"II":4287,"ĠmÅ©":4288,"ĠSup":4289,"ĠÄĲi":4290,"iel":4291,"tá»«":4292,"Ġráº¡p":4293,"ĠLÃłm":4294,"ĠTá»µ":4295,"Ġtá»įa":4296,"ĠSJC":4297,"ĠAc":4298,"ĠPi":4299,"¥a":4300,"ĠthÃ´":4301,"ĠUltra":4302,"MA":4303,"Ġj":4304,"Ġtháº¡ch":4305,"ĠMb":4306,"Sá»±":4307,"TC":4308,"oc":4309,"Ġtáº©y":4310,"lu":4311,"ĠtrÃ¢n":4312,"ĠTháº¡nh":4313,"ahu":4314,"que":4315,"á»ģ":4316,"Ġser":4317,"ĠkhÃ³i":4318,"ĠAtl":4319,"ta":4320,"Ġloa":4321,"EF":4322,"ĠcÃºng":4323,"ĠSk":4324,"ĠSao":4325,"ĠÃª":4326,"Ġnhá»Ł":4327,"Ġná»©t":4328,"quáºŃn":4329,"ĠÄĳÃ¡n":4330,"Ġláº¥n":4331,"ĠInd":4332,"ChÃŃnh":4333,"ivers":4334,"ĠNor":4335,"Báº¡n":4336,"ĠRos":4337,"ĠDá»ĭch":4338,"ĠEng":4339,"Ġhybrid":4340,"ĠÄĳá»ĩm":4341,"ĠAss":4342,"Ġ68":4343,"ĠTechcombank":4344,"Ġtrá»ħ":4345,"ale":4346,"ĠPhiÃªn":4347,"ise":4348,"TA":4349,"vn":4350,"ĠcÆ°á»¡ng":4351,"Ġcalo":4352,"ĠlÆ°á»Ŀng":4353,"Ġmanh":4354,"Ġsá»¥p":4355,"ĠAll":4356,"imble":4357,"Ġchanh":4358,"ĠShi":4359,"ĠGS":4360,"outh":4361,"ĠNetany":4362,"ĠGlobal":4363,"cert":4364,"ool":4365,"anc":4366,"Ġ51":4367,"ĠJack":4368,"ĠMV":4369,"Ġemail":4370,"illa":4371,"ĠNetanyahu":4372,"Ġchuá»ĳi":4373,"uawei":4374,"estine":4375,"Ġfor":4376,"DÃ¹":4377,"eon":4378,"Ġkiá»ģu":4379,"ĠLáºŃp":4380,"ĠIns":4381,"BA":4382,"TÃ¢y":4383,"Ġtriá»ģu":4384,"Ġmáº·n":4385,"ĠArt":4386,"athon":4387,"ĠTuyáº¿t":4388,"ĠSport":4389,"thuáº¿":4390,"Ġcáº¯p":4391,"ĠtrÃ¹m":4392,"Ġ2009":4393,"ĠGuardian":4394,"ĠSeoul":4395,"IS":4396,"TV":4397,"ĠMW":4398,"Ġdá»ĩt":4399,"ĠAmer":4400,"ĠlÃ¢y":4401,"ĠBay":4402,"ĠPol":4403,"ĠNhu":4404,"port":4405,"ĠÃ¹n":4406,"ĠMor":4407,"ĠBÃŃch":4408,"ĠSE":4409,"ĠmÃłng":4410,"Ġnáº¡p":4411,"ĠVic":4412,"ĠDai":4413,"appe":4414,"Ġ2006":4415,"han":4416,"Ġkhe":4417,"ĠTÃ´n":4418,"olog":4419,"Ġhiáº¿p":4420,"AD":4421,"sy":4422,"Ġlá»Ł":4423,"ustin":4424,"imbledon":4425,"BÃłi":4426,"Ġvu":4427,"ĠAlves":4428,"ali":4429,"Ġ52":4430,"Ġ53":4431,"ship":4432,"top":4433,"Ġim":4434,"Ġsen":4435,"ĠchÃ¢m":4436,"ĠMag":4437,"ĠWil":4438,"ĠMichel":4439,"Ġláº¯c":4440,"Ġmáº¯m":4441,"ĠngÃµ":4442,"Ġthá»ĭnh":4443,"ĠTuáº§n":4444,"ĠPalestine":4445,"á»§":4446,"Ġrá»ĵng":4447,"ĠVietcombank":4448,"Giá»":4449,"ĠthÃ¡m":4450,"Ġsáº¥u":4451,"ĠgÃ£y":4452,"ĠGold":4453,"AC":4454,"ura":4455,"ĠAg":4456,"Ġ95":4457,"ĠMadrid":4458,"Ukraine":4459,"for":4460,"undai":4461,"iPhone":4462,"uel":4463,"ĠláºŃn":4464,"Ġnghiá»ĩn":4465,"ĠDÆ°á»£c":4466,"ingroup":4467,"SÃ¡ng":4468,"ĠtrÃ¡ng":4469,"Ġlui":4470,"ĠBá»©c":4471,"senal":4472,"thi":4473,"Ġdáº¹p":4474,"ĠHá»ıa":4475,"lines":4476,"Viet":4477,"yn":4478,"PhÃ¡p":4479,"ĠTháºŃm":4480,"Ġ63":4481,"over":4482,"PU":4483,"ylv":4484,"Má»Ĺi":4485,"¥n":4486,"Ġnhiáº¿p":4487,"Ġvá»īa":4488,"iness":4489,"ĠkÃ©p":4490,"Ġlá»¥a":4491,"ican":4492,"ari":4493,"ĠlÃ¢n":4494,"ĠchiÃªn":4495,"ĠdÃ£y":4496,"ĠTráºŃn":4497,"ĠThÃ¡p":4498,"ross":4499,"pool":4500,"27":4501,"ty":4502,"ĠVáºŃy":4503,"Ġvá»±ng":4504,"ĠWar":4505,"ray":4506,"Ġgai":4507,"anmar":4508,"ĠNhung":4509,"Ġá»ĳm":4510,"Ġtriáº¿t":4511,"ĠXiaomi":4512,"ĠMbappe":4513,"OCM":4514,"wn":4515,"ĠhÃ´i":4516,"Ġháº»":4517,"Ġráº¯c":4518,"ĠLos":4519,"ider":4520,"ĠVinFast":4521,"ĠYoon":4522,"MC":4523,"ĠvÃ¢y":4524,"ĠBá»ĵ":4525,"ĠSAT":4526,"ĠAirlines":4527,"OCMAI":4528,"BÃ¬nh":4529,"ba":4530,"Ġnáº£y":4531,"eng":4532,"Ġcay":4533,"Ġtháº¡o":4534,"ĠhoÃ¡":4535,"29":4536,"IA":4537,"Ġmá»ĭn":4538,"ĠTá»Ń":4539,"ĠMÃ³n":4540,"ĠViáº¿t":4541,"ĠBiá»ĥn":4542,"ĠxÃ¡ch":4543,"ena":4544,"ĠSm":4545,"ĠKen":4546,"Ġláº·n":4547,"Ġnháº¡t":4548,"Hai":4549,"tÄĥng":4550,"ĠkhÃ¡i":4551,"ĠChÃ¡nh":4552,"ĠTuá»ĩ":4553,"tar":4554,"ĠhÃ¡i":4555,"Ġranh":4556,"ĠNÄĥng":4557,"ĠBÃ¡nh":4558,"ins":4559,"ella":4560,"tÃłi":4561,"ĠÄĳá»©t":4562,"Ġtá»ĵi":4563,"ĠCá»±u":4564,"ĠMur":4565,"NJ":4566,"chiáº¿n":4567,"ĠÄĲÃ´i":4568,"ĠID":4569,"ĠFl":4570,"900":4571,"lÃłm":4572,"ĠgÃ¬n":4573,"ĠchÃ¬a":4574,"ĠZh":4575,"ĠAngeles":4576,"out":4577,"ĠlÄĥn":4578,"Ġdá»Ŀi":4579,"Ġlivestream":4580,"ĠsÆ°á»Ŀn":4581,"ĠMÃ£":4582,"Ġláº¥p":4583,"ĠmÃ¨o":4584,"ĠTÄĥng":4585,"ĠxÃŃch":4586,"ĠVance":4587,"US":4588,"chain":4589,"ĠPenn":4590,"ĠbÆ¡m":4591,"ĠdÃ¡n":4592,"ĠThiá»ĩn":4593,"PS":4594,"á»įn":4595,"atar":4596,"phá»":4597,"ĠnhÃ´m":4598,"ime":4599,"Ġ67":4600,"ĠDNSE":4601,"HÃłn":4602,"TrÆ°á»Ľc":4603,"ĠAltman":4604,"km":4605,"¨ng":4606,"Ġngá»±a":4607,"ĠvÃłnh":4608,"ĠÃªkÃŃp":4609,"ĠtÃ²":4610,"ĠphÆ¡i":4611,"ĠThom":4612,"ĠvÃ³c":4613,"ĠlÄĥng":4614,"ĠxÃ´i":4615,"ates":4616,"aki":4617,"ĠGeorg":4618,"ES":4619,"Ġyou":4620,"ree":4621,"ift":4622,"ĠCapital":4623,"lockchain":4624,"ylvania":4625,"Ġliá»ģu":4626,"ĠMáº¡ch":4627,"ĠDáº£i":4628,"ĠRAM":4629,"thá»ĭ":4630,"ĠAviv":4631,"uit":4632,"ĠdÃ¢ng":4633,"Ġ195":4634,"ĠgiáºŃt":4635,"ment":4636,"sylvania":4637,"zo":4638,"Ġchay":4639,"Ġcá»įc":4640,"een":4641,"ĠthÃ¡p":4642,"ĠnÃ´n":4643,"ĠShop":4644,"by":4645,"Ġeo":4646,"Ġcháº£":4647,"Ġpháº³ng":4648,"ĠNi":4649,"iverpool":4650,"ĠTÆ°á»Ŀng":4651,"ĠLou":4652,"ĠDel":4653,"Ġkhoai":4654,"Ġ99":4655,"Ġthá»ķi":4656,"2018":4657,"nÄĥm":4658,"uz":4659,"Ġlong":4660,"ĠláºŃt":4661,"ĠBÆ°á»Ľc":4662,"ĠAward":4663,"Ġ350":4664,"ĠKhÃ´i":4665,"ĠRichard":4666,"ĠngÃ³n":4667,"Ġthá»±":4668,"erg":4669,"ĠInt":4670,"ĠVictor":4671,"21":4672,"ĠMC":4673,"ĠGiá»¯a":4674,"Ġáº¤t":4675,"Ġváº·t":4676,"ĠtráºŃt":4677,"Ġngá»įc":4678,"ĠHun":4679,"ĠEs":4680,"ĠJenn":4681,"urn":4682,"Ġtriá»ĩt":4683,"ĠTáº¥n":4684,"ĠHay":4685,"Ġ58":4686,"Ġax":4687,"Ġrá»ķ":4688,"ĠNgÃ£i":4689,"arm":4690,"ĠPennsylvania":4691,"ĠcÃ´n":4692,"Ġngáº·t":4693,"65":4694,"BÃł":4695,"ps":4696,"ngÃły":4697,"Ġtre":4698,"amil":4699,"ĠJose":4700,"ĠHolly":4701,"EC":4702,"Ġsan":4703,"ĠchÃª":4704,"Quáº£ng":4705,"ĠMyanmar":4706,"Ġbáº«y":4707,"ĠTrinh":4708,"ĠLiÃªm":4709,"azon":4710,"iami":4711,"ĠSuper":4712,"une":4713,"Ġcá»ĵn":4714,"ĠMáº«u":4715,"ĠDuyÃªn":4716,"CÃ´":4717,"Ġbáº¿":4718,"ĠHa":4719,"ĠTriá»ĩu":4720,"Ġconcert":4721,"ĠKháº£o":4722,"ase":4723,"uthi":4724,"á»Ĺ":4725,"ĠmÃły":4726,"ĠháºŃn":4727,"ĠxÄĥm":4728,"ĠSá»Ń":4729,"ĠHyundai":4730,"''.":4731,"AS":4732,"Ġná»ĵi":4733,"ĠTháº¥y":4734,"Ġmá»įc":4735,"ĠBlack":4736,"ĠvÃ£":4737,"ĠhÃ©t":4738,"ĠnÃ©m":4739,"ĠCor":4740,"ĠNghe":4741,"ĠTÃªn":4742,"ÄĲá»ĥ":4743,"Ġ2004":4744,"Ġmini":4745,"ons":4746,"Ġ64":4747,"ĠkhÃŃa":4748,"ĠHÄĲND":4749,"Há»įc":4750,"ĠmÃ¹ng":4751,"ora":4752,"ĠWimbledon":4753,"ury":4754,"ĠÆ°á»Ľt":4755,"ĠngÃłn":4756,"ĠgiÃ²n":4757,"ĠOscar":4758,"Ġká»ģ":4759,"Cuá»Ļc":4760,"Ġcá»Ĺ":4761,"ĠCÆ°Æ¡ng":4762,"ĠArsenal":4763,"Ġaxit":4764,"ĠtrÄĥn":4765,"ĠCharl":4766,"Do":4767,"Ġ73":4768,"AE":4769,"Du":4770,"ĠÄĳáº¡m":4771,"ĠPhá»ķ":4772,"Ġphiá»ģn":4773,"ĠNo":4774,"ĠNguá»ĵn":4775,"thon":4776,"aco":4777,"Ġruá»Ļng":4778,"á»ŀ":4779,"Ġtia":4780,"Ġtháº¯c":4781,"ĠTiÃªu":4782,"ĠphÃ¬":4783,"ĠBank":4784,"hÆ¡n":4785,"ken":4786,"ĠmÃ³ng":4787,"68":4788,"cast":4789,"Ġsuá»ĳi":4790,"ĠHuawei":4791,"ĠMiami":4792,"ĠÃĶ":4793,"ĠEv":4794,"ĠSÃ¢n":4795,"ĠJames":4796,"%),":4797,"IC":4798,"Táº¿t":4799,"Ġtháº§m":4800,"Ġgay":4801,"ĠSÃ¡ch":4802,"ĠKiá»ĩt":4803,"Ġno":4804,"ĠKr":4805,"als":4806,"ĠluÃ¢n":4807,"Ġná»Ľi":4808,"artup":4809,"ĠFeder":4810,"ĠSaigon":4811,"34":4812,"Ġcong":4813,"ĠDá»¯":4814,"ĠRed":4815,"Ġmá»Ļc":4816,"Ġkhuy":4817,"ĠTÃŃn":4818,"Ġmá»ī":4819,"ĠGra":4820,"ĠRaf":4821,"ĠQuáº£":4822,"Kho":4823,"sinh":4824,"ĳc":4825,"ĠtrÃłng":4826,"Ġbar":4827,"Ġsáº¥y":4828,"Ġmáº¿n":4829,"ĠnhÆ°á»Ŀng":4830,"ĠquyÃªn":4831,"ĠGer":4832,"eting":4833,"ĠUnivers":4834,"ĠchÃ¨":4835,"ĠVá»ĭ":4836,"Ġhoáº¡i":4837,"ĠKat":4838,"ille":4839,"Nghá»ĩ":4840,"Ġvá»©t":4841,"ĠMS":4842,"ĠVingroup":4843,"ĠQuáº¿":4844,"ĠAmazon":4845,"ĠTháº§n":4846,"ĠIV":4847,"ĠHá»įa":4848,"ĠThuáº¿":4849,"Ġáº¥p":4850,"ĠkhÃ¡nh":4851,"ĠTuá»ķi":4852,"ĠChia":4853,"ason":4854,"gen":4855,"ĠTrá»ĭ":4856,"Ġdá»¡":4857,"oland":4858,"ova":4859,"Ġ1980":4860,"ĠCarlos":4861,"ĠBusiness":4862,"ĠÃ¡i":4863,"Ġtáº¡ng":4864,"ĠnÃ¢u":4865,"ĠNÆ¡i":4866,"eop":4867,"pr":4868,"ĠrÃ¡p":4869,"ĠCá»Ń":4870,"Ġluá»ĵng":4871,"ĠFDI":4872,"tiá»ģn":4873,"Ġxen":4874,"ĠSn":4875,"ĠPhÃŃa":4876,"ĠUyÃªn":4877,"An":4878,"IM":4879,"ĠVP":4880,"Ġmá»¥n":4881,"ĠNgÃ´i":4882,"Ġ59":4883,"ĠPlus":4884,"Ġbá»Ļi":4885,"Ġdai":4886,"ĠSim":4887,"ago":4888,"ĠLiga":4889,"TT":4890,"Ġsáº¡t":4891,"ĠLiverpool":4892,"ĠQuyá»ģn":4893,"TrÆ°á»Ŀng":4894,"''":4895,"Má»įi":4896,"ĠhÃł":4897,"Ġ180":4898,"ny":4899,"Ġphun":4900,"ĠCÃ¡i":4901,"ĠVen":4902,"ĠLive":4903,"ium":4904,"tai":4905,"ĠlÆ°á»Ľt":4906,"ĠtrÄĥng":4907,"Ġrá»ī":4908,"ĠBá»ī":4909,"Australia":4910,"gin":4911,"Ġháº±ng":4912,"ĠTy":4913,"ĠTuyáº¿n":4914,"ĠNÃªn":4915,"ĠPhÆ°á»£ng":4916,"%).":4917,"Ġquáº¡t":4918,"ĠCung":4919,"ĠBID":4920,"ĠLiÃªu":4921,"ĠGem":4922,"ĠÄĳiÃªu":4923,"oga":4924,"istics":4925,"85":4926,"Ġbo":4927,"Ġhit":4928,"Ġounce":4929,"Ġchatbot":4930,"ĠÃ¢u":4931,"ĠCá»±c":4932,"chi":4933,"air":4934,"ĠTham":4935,"ĠPow":4936,"uss":4937,"Ġgáº¡ch":4938,"iá»ģng":4939,"ĠCha":4940,"Ġrá»ĩt":4941,"ĠÃģo":4942,"ĠvuÃ´ng":4943,"VÃ¬":4944,"ĠNguy":4945,"ere":4946,"ĠChiáº¿c":4947,"iger":4948,"ĠMacron":4949,"ĠSwift":4950,"ĠdáºŃp":4951,"ĠSab":4952,"ĠPan":4953,"ĠPTE":4954,"Ġbá»ĩ":4955,"ĠCarol":4956,"ĠgÃ¡c":4957,"ĠxÃ´":4958,"Ġnghiá»ĩt":4959,"ealth":4960,"FUNiX":4961,"ĠngÆ°":4962,"Ġngoáº·t":4963,"ĠPeter":4964,"Ġseries":4965,"há»ĵ":4966,"Ġnáº¡":4967,"ĠnghiÃªng":4968,"Ġá»¨ng":4969,"ĠIv":4970,"giáº£m":4971,"ĠHollywood":4972,"Ġluá»Ļc":4973,"Ġhiáº¿u":4974,"Ġchiáº¿t":4975,"ĠSuá»ĳt":4976,"Ġbá»ī":4977,"ĠFord":4978,"ishi":4979,"á»ģn":4980,"ĠhÃ²n":4981,"ĠVF":4982,"ory":4983,"Ġsoi":4984,"ĠComp":4985,"ĠÄĳá»Ľn":4986,"ade":4987,"ĠcÃ´i":4988,"ĠsÆ°Æ¡ng":4989,"ĠÄĲiá»ģn":4990,"enc":4991,"Ġbuá»ĵng":4992,"ĠlÃ¡t":4993,"Ġgáº¡t":4994,"ĠMe":4995,"ĠNháºŃn":4996,"Ġ2007":4997,"PV":4998,"bank":4999,"Ĥn":5000,"ĠQuyÃªn":5001,"ĠHouthi":5002,"bes":5003,"lon":5004,"ĠNháº¡c":5005,"Ġ66":5006,"ĠHoáº¡t":5007,"ĠFrank":5008,"ĠÄĳáº¡c":5009,"ĠDáº§u":5010,"Ġbá»ĥ":5011,"aka":5012,"ĠCNBC":5013,"ĠGreenland":5014,"ĠADN":5015,"PP":5016,"ĠHal":5017,"ĠRá»ĭa":5018,"BI":5019,"Ġam":5020,"Ġnáº£n":5021,"ĠBÃ³ng":5022,"Ġ2005":5023,"ppo":5024,"Chá»ī":5025,"46":5026,"Ġson":5027,"ĠSum":5028,"ĠPa":5029,"eland":5030,"Ngo":5031,"point":5032,"nes":5033,"Ġháº¡ch":5034,"Ġnháº·t":5035,"ĠHOCMAI":5036,"ĠDragon":5037,"Ġ2003":5038,"ĠÃĤm":5039,"%)":5040,"LiÃªn":5041,"national":5042,"ock":5043,"ĠvÃ¢n":5044,"Ġkhao":5045,"Ġrun":5046,"ĠAwards":5047,"36":5048,"GE":5049,"HÃ´m":5050,"YD":5051,"Ġngu":5052,"ĠMill":5053,"itz":5054,"Ġ88":5055,"ju":5056,"ĠÄĲÃ´":5057,"ĠDO":5058,"ĠOanh":5059,"trÆ°á»Ŀng":5060,"akh":5061,"ave":5062,"Ġháº»m":5063,"Ġhannah":5064,"Ġnáº¡i":5065,"Ġnáº¯p":5066,"ĠBel":5067,"ĠDÃ²ng":5068,"els":5069,"ĠOb":5070,"ĠStan":5071,"QT":5072,"ĠcÆ°ng":5073,"ĠnÃłn":5074,"á»ĭt":5075,"ĠYam":5076,"The":5077,"ĠVIB":5078,"uan":5079,"ĠgÃµ":5080,"ĠMÃ´n":5081,"Ġ84":5082,"TH":5083,"qua":5084,"Ġmá»Ļng":5085,"ĠnÃ¡t":5086,"ĠCáº©m":5087,"ĠMá»Ļc":5088,"Ġ2050":5089,"Ġ62":5090,"Chá»§":5091,"Ġbá»Ļc":5092,"ĠLat":5093,"áº»o":5094,"ĠYagi":5095,"ovak":5096,"rus":5097,"ven":5098,"ĠSM":5099,"ThÃ¡i":5100,"Apple":5101,"MÃ¬nh":5102,"ĠÃºt":5103,"Ľc":5104,"aland":5105,"ĠFI":5106,"low":5107,"ĠLoáº¡i":5108,"ology":5109,"giáº¿t":5110,"ved":5111,"ĠphÃ¡c":5112,"Ã²m":5113,"Ġ130":5114,"aser":5115,"ĠJim":5116,"ĠScott":5117,"ĠBeau":5118,"ĠÄĳÃ¨o":5119,"ĠnÃłnh":5120,"Ġxinh":5121,"ĠMÃ´ng":5122,"ĠLisa":5123,"Ġ900":5124,"ĠTháº©m":5125,"ette":5126,"ĠkW":5127,"ĠchÆ°ng":5128,"ĠngÃ¢m":5129,"Ġphu":5130,"ĠMob":5131,"iana":5132,"Ġcheck":5133,"ĠForbes":5134,"Ġtháº¥m":5135,"ĠCáº£m":5136,"ĠMetro":5137,"ĠSuá»ĳi":5138,"ĠGiáº¥y":5139,"Ġ72":5140,"Ġ76":5141,"Ġxoáº¯n":5142,"55":5143,"DP":5144,"Ġong":5145,"ĠngÆ°ng":5146,"ĠMá»Ľi":5147,"ĠWall":5148,"ĠGarros":5149,"doanh":5150,"Ġlen":5151,"ĠláºŃu":5152,"ĠBáº¡c":5153,"ĠLáº¡c":5154,"inc":5155,"ĠPhÃ¢n":5156,"ĠFox":5157,"ĠJul":5158,"erson":5159,"earch":5160,"Ġtáº£n":5161,"ĠtÃºng":5162,"Ġkhan":5163,"ĠSá»©c":5164,"vi":5165,"ĠmÃłi":5166,"ĠxÃ¡m":5167,"ĠMÃłn":5168,"ĠBy":5169,"ĠSol":5170,"erm":5171,"ĠRoland":5172,"rov":5173,"ĠchÃºa":5174,"ĠCarlsen":5175,"ĠSmith":5176,"ĠÄĳáº¯n":5177,"Ġmodel":5178,"Ġráº¡ng":5179,"ĠTranh":5180,"Ġvá»ĭnh":5181,"ect":5182,"verev":5183,"ĠcÃłnh":5184,"ĠdÆ°a":5185,"Ġ2027":5186,"Ġtá»±a":5187,"Ġrá»ĥ":5188,"una":5189,"ign":5190,"dro":5191,"uc":5192,"Ġhao":5193,"ĠBÃ¡":5194,"ĠBá»ĳn":5195,"ĠKhÃ¡c":5196,"Ġblog":5197,"yan":5198,"ĠxÃł":5199,"Ġyáº¿n":5200,"ove":5201,"ĠFederer":5202,"ĠbÃ³n":5203,"Ġdáº·n":5204,"ĠGPT":5205,"Ġbá»©t":5206,"ori":5207,"ĠLED":5208,"Ġrad":5209,"Ġná»¥":5210,"ĠphÃŃm":5211,"ĠWang":5212,"ĠTá»Ľi":5213,"ĠCá»©":5214,"á»©":5215,"ĠcÆ°á»Ľc":5216,"Ġkáº½":5217,"ĠTinh":5218,"ĠquÃ¡t":5219,"ĠThÃ¡nh":5220,"ĠIP":5221,"kok":5222,"ĳn":5223,"ĠtÃ¹ng":5224,"ĠxÆ°á»Ľng":5225,"amb":5226,"ĠDis":5227,"Ġ69":5228,"Ġ77":5229,"Ġ78":5230,"act":5231,"Ġtaxi":5232,"mone":5233,"ĩn":5234,"Ġthá»īnh":5235,"ery":5236,"ĠchuÃ´ng":5237,"ci":5238,"ĠÄĳiá»ģn":5239,"ĠHung":5240,"Ġ82":5241,"2017":5242,"ĠÄĳáº¿m":5243,"FC":5244,"ss":5245,"Ġtrau":5246,"ĠhÆ°á»Ľc":5247,"ĠhÃłn":5248,"ĠNap":5249,"ĠTriá»ĥn":5250,"ĠTháº¡ch":5251,"ĠRog":5252,"33":5253,"Al":5254,"báº£o":5255,"ĠmÄĥng":5256,"Ġnho":5257,"ĠNole":5258,"ĠPNJ":5259,"ĠQatar":5260,"Ġ98":5261,"ster":5262,"ĠTon":5263,"áº¹t":5264,"ited":5265,"ĠKhá»Łi":5266,"ĠthÃ¡nh":5267,"ĠdÃło":5268,"áº¯k":5269,"ĠLÆ°á»£ng":5270,"ĠZverev":5271,"annik":5272,"ĠInternational":5273,"men":5274,"ĠlÅ©ng":5275,"ĠmÃ¢m":5276,"aby":5277,"ellig":5278,"Ġdá»Ł":5279,"ĠphÃ´":5280,"Ġhot":5281,"2026":5282,"uki":5283,"AR":5284,"les":5285,"ĠMeg":5286,"ĠVua":5287,"ĠAM":5288,"ĠRap":5289,"ĠchiÃªm":5290,"anta":5291,"ĠbÃ¹n":5292,"Ġ61":5293,"ĠWhi":5294,"ĠJohnson":5295,"Ah":5296,"yle":5297,"Ġ110":5298,"ĠÄĳÃłnh":5299,"Ġ81":5300,"Fed":5301,"GA":5302,"áº¿ch":5303,"ĠShe":5304,"ĠInsider":5305,"Dá»±":5306,"der":5307,"ĠmÃ¡":5308,"ĠTw":5309,"ĠRa":5310,"ound":5311,"tuyá»ĥn":5312,"ĠhÃ©":5313,"ĠSi":5314,"ĠHuá»ĩ":5315,"Thá»Ŀi":5316,"Ġcuá»Ļn":5317,"Phá»":5318,"ĠÄĳáº¥y":5319,"Ġviá»ģn":5320,"Ġtha":5321,"ĠVir":5322,"imir":5323,"ĠXuáº¥t":5324,"thÃ¡ng":5325,"osh":5326,"ĠNovak":5327,"Ġlá»Ļi":5328,"Ġdáº¥y":5329,"ĠCáºŃp":5330,"ĠMÃ´":5331,"inn":5332,"áº½n":5333,"Ġ1997":5334,"ĠDaniel":5335,"cá»ķ":5336,"ĠtÃ³m":5337,"ĠlÃ¡nh":5338,"ĠchÃ©o":5339,"ĠVÄ©":5340,"ĠBuá»ķi":5341,"ĠThÃŃ":5342,"ĠChÃ¢n":5343,"ehran":5344,"EU":5345,"NG":5346,"pt":5347,"Ġcáº¯n":5348,"ĠnhÅ©ng":5349,"ĠCro":5350,"ĠTráº¥n":5351,"igan":5352,"ski":5353,"2016":5354,"ĠmAh":5355,"ĠnÃłng":5356,"ĠkhÃ©o":5357,"ĠTáº¡":5358,"Ġhá»Ł":5359,"Ġngháº½n":5360,"ĠChuyáº¿n":5361,"ĠRam":5362,"Ġnghá»ĭch":5363,"rick":5364,"war":5365,"ye":5366,"Ġham":5367,"ĠSUV":5368,"ĠUN":5369,"aptop":5370,"á»©ng":5371,"198":5372,"Ġ1996":5373,"SJ":5374,"ĠtÆ°á»Ľc":5375,"ĠmiÃªu":5376,"Ġgym":5377,"ĠHiá»ĥu":5378,"ĠWood":5379,"ÄĲá»ĵng":5380,"ĠDaily":5381,"ĠIntellig":5382,"31":5383,"ĠngÃ´":5384,"ĠNas":5385,"ĠSil":5386,"Ġbá»Ĺng":5387,"ĠXin":5388,"Ġ160":5389,"giÃ¡o":5390,"ĠSteph":5391,"ĠStarship":5392,"Nam":5393,"ĠTa":5394,"ĠVar":5395,"ĠPra":5396,"ĠWest":5397,"eople":5398,"38":5399,"47":5400,"ja":5401,"khá»":5402,"Ġgá»ĳm":5403,"ĠTe":5404,"ĠVáº¥n":5405,"ita":5406,"TháºŃt":5407,"ĠBeck":5408,"Co":5409,"oe":5410,"ĠÄĳuá»ĳi":5411,"ĠÄĳá»įng":5412,"ĠphÃłn":5413,"Ġtá»¥t":5414,"ĠHiáº¿n":5415,"ĠBur":5416,"ĠAnton":5417,"ÄĳÆ°á»Ŀng":5418,"ladimir":5419,"ráº¥t":5420,"ric":5421,"áº¿m":5422,"ĠrÃ³t":5423,"enz":5424,"ĠKhanh":5425,"ĠXÃ´":5426,"anda":5427,"Ġstartup":5428,"DÃ¢n":5429,"cher":5430,"ĠBlo":5431,"ĠChiá»ģu":5432,"ĠRod":5433,"ĠWSJ":5434,"ĠZero":5435,"ĠMaster":5436,"ĠBangkok":5437,"vedev":5438,"ĠcÃ²i":5439,"ĠTehran":5440,"ĠNob":5441,"ĠBYD":5442,"ĠÄĲáº£o":5443,"ĠWeb":5444,"ield":5445,"ĠbÃ¡ch":5446,"Ġpháº¿":5447,"ĠHÃłm":5448,"Thanh":5449,"âĢ¦":5450,"ĠBlue":5451,"LED":5452,"ĠÄĳan":5453,"ĠbÆ°á»Ľ":5454,"ĠcháºŃu":5455,"Ġrá»Ļ":5456,"ĠACB":5457,"ĠChÃłng":5458,"Ġsá»Łi":5459,"Ġthoa":5460,"Ġrock":5461,"ĠMedvedev":5462,"48":5463,"Is":5464,"Ġ,":5465,"ĠJer":5466,"Ġ83":5467,"ome":5468,"ager":5469,"Ġvirus":5470,"ogue":5471,"thá»§":5472,"ĠKhá»ĳi":5473,"ĠNguyen":5474,"bour":5475,"ĠKá»·":5476,"ĠDub":5477,"ĠChan":5478,"ÄĲá»©c":5479,"ChÆ°Æ¡ng":5480,"phÃ¡t":5481,"Gia":5482,"ĠBÃ©":5483,"alk":5484,"Ġ86":5485,"ude":5486,"otti":5487,"ĠGemini":5488,"HÃ£y":5489,"Ġpl":5490,"Æ¡m":5491,"roid":5492,"ĠOl":5493,"ĠÃło":5494,"ĠlÃ´i":5495,"ĠVá»ĭnh":5496,"ĠÄĲá»įc":5497,"ĠDa":5498,"omes":5499,"ĠStud":5500,"ĠchÃ´n":5501,"Ġxi":5502,"ĠrÃ²":5503,"ĠDinh":5504,"ĠkhoÄĥn":5505,"ele":5506,"emy":5507,"ĠÄĳoan":5508,"95":5509,"ĠPin":5510,"ĠNguyá»ĩt":5511,"ĠIr":5512,"ĠMartin":5513,"ĠThomas":5514,"Pad":5515,"Ġ.":5516,"ĠlÃ¹ng":5517,"ĠbÄĥn":5518,"Ġnuá»ĳi":5519,"Ġgam":5520,"ĠNat":5521,"ĠSTE":5522,"ĠKon":5523,"ĠÄĲá»ı":5524,"odym":5525,"ĠColle":5526,"ĠSteve":5527,"bá»ĩnh":5528,"37":5529,"ki":5530,"ĠCen":5531,"ĠÄĲÄĥk":5532,"ĠDá»ĭp":5533,"ĠChris":5534,"ÄĲá»Ļi":5535,"ĠVá»ĩ":5536,"ĠIntelligence":5537,"odymyr":5538,"Ca":5539,"rit":5540,"ange":5541,"ĠkhiÃªu":5542,"ĠDiá»ĩu":5543,"ĠCháº¥t":5544,"ĠKháº£":5545,"RE":5546,"VI":5547,"quy":5548,"su":5549,"ĠtÃª":5550,"ĠÄĤn":5551,"Ġkhuáº¥t":5552,"ĠMike":5553,"aya":5554,"Ġhor":5555,"Ġ71":5556,"ther":5557,"oud":5558,"ĠAlexander":5559,"ĠCá»Ńu":5560,"lÄĥng":5561,"įi":5562,"Ġváº¥p":5563,"ĠCÃ¢y":5564,"ĠTho":5565,"2030":5566,"ĠJan":5567,"Ġwith":5568,"si":5569,"Ġcl":5570,"Ġvá»Ĺ":5571,"ĠxÃ´ng":5572,"ĠTráº¡m":5573,"ĠLand":5574,"ĠKing":5575,"otte":5576,"edes":5577,"Chiá»ģu":5578,"Ġlogic":5579,"ji":5580,"let":5581,"ĠtrÃ¢u":5582,"ĠTor":5583,"ĠCT":5584,"ĠNgá»¯":5585,"iff":5586,"chá»ī":5587,"ĠAndroid":5588,"ĠMilan":5589,"Ġkhuya":5590,"Lá»":5591,"we":5592,"work":5593,"ĠÄĳiÃªn":5594,"ĠVogue":5595,"ĠBern":5596,"ĠGh":5597,"ĠWh":5598,"ĠTá»©":5599,"ga":5600,"gar":5601,"Ġ+":5602,"ĠsÃ©t":5603,"ĠHS":5604,"amala":5605,"ĠTrav":5606,"ĠSar":5607,"ĠDr":5608,"Ġkhá»ĳc":5609,"ĠFood":5610,"ĠGeorge":5611,"ĠLouis":5612,"nghá»":5613,"Ġblockchain":5614,"ĠCáº·p":5615,"ĠSyd":5616,"Ġyoga":5617,"NgÃ¢n":5618,"ĠMaria":5619,"ĠJeff":5620,"Bá»":5621,"Ġme":5622,"ÃŃu":5623,"Ġ79":5624,"athan":5625,"67":5626,"Ġis":5627,"ĠcÆ°á»£c":5628,"ĠÄĳá»±c":5629,"ĠNe":5630,"ĠBÃ¡i":5631,"ĠNhiÃªn":5632,"Ġvá»ĭt":5633,"ati":5634,"Ġ74":5635,"ĠTá»«ng":5636,"báº¥t":5637,"Ġmi":5638,"Äĳáº¡i":5639,"ĠGiá»ĳng":5640,"Ġhormone":5641,"ON":5642,"bert":5643,"ĠÃªm":5644,"ĠvÃº":5645,"ĠbÃºa":5646,"ĠCÄĲV":5647,"ĠkhiÃªm":5648,"aga":5649,"ĠchÃ©n":5650,"ĠÄĳá»Ľi":5651,"ĠVCB":5652,"Ġlá»¥t":5653,"TrÃªn":5654,"cl":5655,"ĠlÃª":5656,"Ġlaptop":5657,"ĠTÃ¹y":5658,"ĠHÃ¢n":5659,"ĠLife":5660,"ĠKia":5661,"itan":5662,"trÃ¡i":5663,"oto":5664,"Ġ125":5665,"Ġ2001":5666,"awa":5667,"dam":5668,"ĠnÃ©n":5669,"ĠBiáº¿t":5670,"Æ°Æ¡m":5671,"Ġdá»Ĺ":5672,"ĠOm":5673,"Ġtá»ıi":5674,"ĠNick":5675,"ĠTrÃºc":5676,"ĠTháº¡c":5677,"ĠRobot":5678,"rey":5679,"own":5680,"Chá»ĭ":5681,"ĠSerbia":5682,"giá»Ŀ":5683,"To":5684,"ĠSen":5685,"ĠAut":5686,"ĠTháºŃt":5687,"ĠKel":5688,"Äĳi":5689,"Ġcode":5690,"ĠÄĳÃ¹i":5691,"ĠxÃło":5692,"ĠrÆ°á»¡i":5693,"ĠCÄĥn":5694,"ĠÄĲiá»ĩp":5695,"ĠIm":5696,"ĠFBI":5697,"Quá»¹":5698,"GI":5699,"ball":5700,"iro":5701,"king":5702,"Ġthen":5703,"ĠnhÆ°á»£c":5704,"ĠCross":5705,"ĠThÄĥng":5706,"ĠPak":5707,"ĠgÃ³t":5708,"ĠOne":5709,"Äĳiá»ĩn":5710,"ĠMarc":5711,"ĠStarlin":5712,"celona":5713,"Can":5714,"DA":5715,"can":5716,"ning":5717,"ĠsáºŃp":5718,"ĠTiáº¿t":5719,"ĠNgÃłnh":5720,"ĠIS":5721,"Ġchui":5722,"zy":5723,"ĠÄĲá»ĵ":5724,"Ġthá»§ng":5725,"Ġ1995":5726,"ĠBIDV":5727,"pl":5728,"ĠHáº¯n":5729,"ĠSouth":5730,"ĠOppo":5731,"ĠHunter":5732,"LÃºc":5733,"nhá»¯ng":5734,"Ġkiá»ģm":5735,"Ġbáº¡t":5736,"ĠVÆ°á»Ŀn":5737,"ĠÄĲÃªm":5738,"ĠÃĤn":5739,"2015":5740,"39":5741,"Ġtrinh":5742,"ĠModel":5743,"ĠBook":5744,"ĠThiáº¿u":5745,"Ãµm":5746,"Ġrá»¥ng":5747,"Ġcá»¥t":5748,"ĠcÃºm":5749,"ĠSydney":5750,"CI":5751,"kin":5752,"ware":5753,"ĠÃ¡":5754,"Ġgu":5755,"Ġdáº¡i":5756,"ĠBos":5757,"Ġhá»įng":5758,"ĠStr":5759,"ĠPy":5760,"ĠGPU":5761,"rom":5762,"Ġrá»Ĺi":5763,"ote":5764,"ĠÆ¯u":5765,"Ar":5766,"FL":5767,"eing":5768,"gáº§n":5769,"Ġbáº¥y":5770,"ĠBao":5771,"ĠTráº£i":5772,"ĠNhiá»ĩm":5773,"Ġngoan":5774,"Ġ87":5775,"ÄĲÃł":5776,"ĠFIFA":5777,"ĠtÃº":5778,"ely":5779,"ĠWatch":5780,"ĠAsia":5781,"01":5782,"cÃ¡":5783,"ĠchiÃªu":5784,"Ġráº¡n":5785,"ĠDiá»ħm":5786,"ĠbuÃ´ng":5787,"ĠGood":5788,"49":5789,"Hen":5790,"Ġbong":5791,"Ġhang":5792,"Ġgram":5793,"Ġnhá»©c":5794,"ĠLuÃ¢n":5795,"ĠViettel":5796,"Giáº£i":5797,"celotti":5798,"ĠAmerica":5799,"Ġtáº¡":5800,"Ġráº¡ch":5801,"ĠSH":5802,"ĠDJ":5803,"ĠUng":5804,"ĠJr":5805,"Há»Ļi":5806,"Ńi":5807,"ĠtÃ¡ng":5808,"ĠTs":5809,"ĠgiÃ²":5810,"ĠBi":5811,"ĠBin":5812,"ĠPeople":5813,"ĠDar":5814,"ChuyÃªn":5815,"ĠNhuáºŃn":5816,"Ġradar":5817,"32":5818,"tÆ¡":5819,"Ġbá»ĵn":5820,"Ġráº£nh":5821,"ĠMáº«n":5822,"ĠPu":5823,"Ġá»§i":5824,"iety":5825,"ction":5826,"way":5827,"ĠxÃ¬":5828,"ĠKe":5829,"ĠRon":5830,"197":5831,"ĠTeleg":5832,"Sam":5833,"TÃ¬nh":5834,"Ġdáº»o":5835,"Ġngáº¯t":5836,"ĠLew":5837,"ĠDom":5838,"ĠDá»±a":5839,"odcast":5840,"izza":5841,"Israel":5842,"jet":5843,"tÃ¬nh":5844,"Ġ*":5845,"Ġmar":5846,"ĠnhÃŃ":5847,"ĠVladimir":5848,"ĠDes":5849,"ĠTPHCM":5850,"ĠChá»£":5851,"ĠAncelotti":5852,"Äĳiá»ģu":5853,"Ġxoa":5854,"ĠObama":5855,"Diá»ħn":5856,"HÆ¡n":5857,"Lu":5858,"Ġuá»ĳn":5859,"ĠvÆ°á»£ng":5860,"Ġquáº¥y":5861,"aman":5862,"ĠGiÃ¡p":5863,"ĠChá»ĵng":5864,"tech":5865,"Ġlogistics":5866,"ping":5867,"tÃłu":5868,"ĠTO":5869,"ĠHen":5870,"ĠVáº¡n":5871,"ĠBBC":5872,"ĠPo":5873,"Ġnhá»§":5874,"nedy":5875,"54":5876,"Ban":5877,"Hiá»ĩn":5878,"gy":5879,"sá»±":5880,"ĠvÃ²i":5881,"ĠlÃ¡ch":5882,"Ġmark":5883,"ĠchÄĥng":5884,"ĠÄĳá»¥c":5885,"Ġxá»ĭt":5886,"ĠMÆ°á»Ŀng":5887,"ĠXÃ©t":5888,"ily":5889,"ĠNiÃª":5890,"tainer":5891,"ĠkWh":5892,"ling":5893,"Ġthiá»ģn":5894,"Ġnhá»įn":5895,"ĠKiáº¿m":5896,"giáº£i":5897,"ever":5898,"res":5899,"ĠchÃ´ng":5900,"Ġthá»¥c":5901,"ĠHz":5902,"ĠShow":5903,"aris":5904,"emen":5905,"Ġ2002":5906,"ifer":5907,"ĠResearch":5908,"á»īnh":5909,"ĠbÃłng":5910,"ĠMass":5911,"ĠLab":5912,"ĠghÃ©t":5913,"ĠPhá»§":5914,"ĠKennedy":5915,"ĠCharles":5916,"ĠPakistan":5917,"ius":5918,"ker":5919,"ĠvÄ©nh":5920,"ĠTas":5921,"ĠLÄĥk":5922,"Ġrapper":5923,"ical":5924,"atican":5925,"Thá»ĭ":5926,"ĠbÃ³p":5927,"ĠEngine":5928,"tÃªn":5929,"ngÃ¢n":5930,"ĠchÃ¡nh":5931,"ĠDen":5932,"thá»±c":5933,"57":5934,"kg":5935,"oph":5936,"Ġse":5937,"ĠhÃ¡o":5938,"ĠnhÃłn":5939,"Ġchá»Ľp":5940,"Ġ1000":5941,"ĠKháº£i":5942,"itch":5943,"Ġ1970":5944,"rain":5945,"Tráº§n":5946,"ombia":5947,"ĠChampionship":5948,"Ġnguá»Ļi":5949,"ĠSTEM":5950,"Tiá»ģn":5951,"Ġchá»įi":5952,"ĠCá»ĳ":5953,"ĠHuyá»ĩn":5954,"ĠViv":5955,"raph":5956,"evel":5957,"ather":5958,"ĠHÄĲQT":5959,"):":5960,"Háº£i":5961,"ĠvÃ¡ch":5962,"ĠthÃ¨m":5963,"ĠchÃ¨o":5964,"Ġngáº«u":5965,"ĠTer":5966,"ĠTur":5967,"Ġrao":5968,"Ġ140":5969,"giao":5970,"Ġcanxi":5971,"ĠColum":5972,"OC":5973,"fl":5974,"hu":5975,"Ġao":5976,"ĠlÃ©o":5977,"ĠMB":5978,"Ġkhá»Ń":5979,"ĠRi":5980,"ĠRen":5981,"ĠLyn":5982,"Ġneo":5983,"ĠdÃ¬":5984,"Ġgiá»¥c":5985,"ĠÃļ":5986,"ĠOx":5987,"ĠSoc":5988,"ĠSchool":5989,"ĠBoeing":5990,"HO":5991,"bur":5992,"ĠnhÄĥn":5993,"Ġgene":5994,"ĠMong":5995,"Ġgiá»įt":5996,"oly":5997,"ĠUnited":5998,"ĠlÆ°á»¡i":5999,"ĠbÆ°á»Łi":6000,"ĠnÆ°Æ¡ng":6001,"ĠgáºŃy":6002,"Ġhá»©c":6003,"ĠCas":6004,"ĠCop":6005,"Ġnhuá»Ļm":6006,"Ġwon":6007,"ĠMerc":6008,"cuá»Ļc":6009,"Ġcau":6010,"ĠlÃ¡ng":6011,"ĠlÃ³t":6012,"ĠmÆ°á»£t":6013,"ĠClin":6014,"ĠTrÃ¢n":6015,"oli":6016,"rop":6017,"Ġngá»¡":6018,"ĠbÃ©n":6019,"ĠLá»¥c":6020,"ĠVolodymyr":6021,"ĠMichelin":6022,"?\"":6023,"Le":6024,"ĠÆ¡i":6025,"Ġtáº¥u":6026,"Ġháº¡m":6027,"ĠTod":6028,"ĠMu":6029,"ĠBal":6030,"ĠTriáº¿t":6031,"ĠTháº¥t":6032,"ĠKy":6033,"ĠISS":6034,"ĠRu":6035,"ĠEver":6036,"ĠCamera":6037,"ĠrÅ©":6038,"ĠMate":6039,"ĠVer":6040,"ĠVÆ°á»£ng":6041,"iate":6042,"etsk":6043,"ÄĳÃ£":6044,"PhÆ°Æ¡ng":6045,"ĠHarry":6046,"ollagen":6047,"HoÃłng":6048,"44":6049,"New":6050,"Ġáº¥u":6051,"áº¤":6052,"Ġcáº©u":6053,"Ġhi":6054,"ĠdÃ©p":6055,"ĠTÃ¡o":6056,"ĠVND":6057,"ĠLin":6058,"ison":6059,"ĠMarathon":6060,"ĠCá»Ńa":6061,"ĠYoung":6062,"press":6063,"Elon":6064,"ĠhÃŃt":6065,"Ġná»ĳt":6066,"ĠVoy":6067,"ĠLG":6068,"ĠLá»¯":6069,"unt":6070,"ĠLá»Ŀi":6071,"esterol":6072,"LM":6073,"Máº·t":6074,"Tech":6075,"Ġliá»ħu":6076,"Ġlaser":6077,"Ġbe":6078,"Ġmod":6079,"ĠHÆ°á»Ľng":6080,"ĠHigh":6081,"ĠMot":6082,"ĠVik":6083,"ĠBig":6084,"ont":6085,"ĠÄĲá»ķi":6086,"ĠAT":6087,"ĠChuyá»ĩn":6088,"ement":6089,"ĠWell":6090,"Ġ89":6091,"duc":6092,"tt":6093,"Ġnang":6094,"ĠHÃ¡n":6095,"ĠHel":6096,"ĠBS":6097,"ĠSÃ¡u":6098,"ĠLang":6099,"ĠPay":6100,"Ġkhoan":6101,"Ġcontainer":6102,"icon":6103,"Ġ1998":6104,"ĠsuÃ´n":6105,",\"":6106,"150":6107,"ĠHealth":6108,"ĠSand":6109,"ĠKore":6110,"ĠHuang":6111,"ĠKrem":6112,"sá»©c":6113,"tÆ°Æ¡ng":6114,"Ġnhá»ĭn":6115,"Ġráº£i":6116,"ĠchoÃ¡ng":6117,"ĠAp":6118,"ĠLáº¡ng":6119,"ĠKo":6120,"ĠDay":6121,"lev":6122,"Ġ92":6123,"ordan":6124,"Ġlá»ģu":6125,"PI":6126,"bao":6127,"Ġbreak":6128,"Ġnhá»ĵi":6129,"ĠdÅ©ng":6130,"ĠNav":6131,"Ġrong":6132,"ĠrÃ¡n":6133,"chester":6134,"ĠMid":6135,"inBank":6136,"ĠhoÃłnh":6137,"ĠGÃ³c":6138,"ĠGames":6139,"ĠJen":6140,"ĠKhoáº£n":6141,"ĠPhá»ĳ":6142,"Hoa":6143,"ĠGeorgia":6144,"field":6145,"ĠthÃŃnh":6146,"ĠsÆ°ng":6147,"Ġkháº¯t":6148,"ĠngÃło":6149,"ĠUAE":6150,"acombank":6151,"Ġ170":6152,"able":6153,"ifi":6154,"ubishi":6155,"ĠAndrew":6156,"ĠMurray":6157,"CN":6158,"Kinh":6159,"Sá»Ł":6160,"hiÃªn":6161,"ĠBáº£y":6162,"ĠÄĲen":6163,"ĠPe":6164,"ĠDiá»ĩp":6165,"ĠChÃºa":6166,"ĠBarcelona":6167,"ibo":6168,"ĠBayern":6169,"Canada":6170,"HM":6171,"lÆ°á»£ng":6172,"ngo":6173,"Ġcá»į":6174,"ĠBM":6175,"ĠBáº£ng":6176,"Ġ96":6177,"ild":6178,"ristiano":6179,"ĠPython":6180,"Olympic":6181,"QG":6182,"Vin":6183,"ĠÄĳáº¥m":6184,"Ġná»Ļ":6185,"ĠVÃ²ng":6186,"ĠBÄĥng":6187,"áº·m":6188,"ĠWi":6189,"ĠxoÃ¡y":6190,"ĠSinwar":6191,"itsubishi":6192,"ĠCarolina":6193,"UAV":6194,"ĠbÃ£":6195,"Ġbáº©m":6196,"Ġnhiá»ħu":6197,"Ġpodcast":6198,"ĠÄĲÃłm":6199,"ĠKu":6200,"ĠGÃ²":6201,"ĠKhÆ°Æ¡ng":6202,"ĠWin":6203,"Ġ91":6204,"Ġ97":6205,"urt":6206,"ĠxuÃ´i":6207,"ĠNetwork":6208,"ĠKremlin":6209,"wagen":6210,"Ġchá»įc":6211,"ĠAf":6212,"ĠAqu":6213,"ering":6214,"ĠPhÃ¹ng":6215,"ĠThá»¥c":6216,"olate":6217,"ĠJun":6218,"ody":6219,"kswagen":6220,"Ġti":6221,"ĠlÆ°á»£n":6222,"Ġbáº©y":6223,"ĠsÆ°á»Łi":6224,"ĠVilla":6225,"ĠPau":6226,"erb":6227,"ĠRoy":6228,"ĠMichigan":6229,"ĠÆ¯":6230,"dá»±":6231,"mo":6232,"ĠcÃºc":6233,"ĠlÆ¡":6234,"Ġtháº¯p":6235,"ĠTem":6236,"ĠVá»ĳn":6237,"ĠKang":6238,"ĠFind":6239,"row":6240,"raq":6241,"ingham":6242,"NgoÃłi":6243,"ĠVirgin":6244,"Fi":6245,"bin":6246,"ll":6247,"ĠhÃ´ng":6248,"ĠHill":6249,"ĠMatt":6250,"ĠVÃ¹ng":6251,"ĠBaby":6252,"ĠTráº¡ch":6253,"ĠNgÃ´n":6254,"ĠFer":6255,"ĠÄĲá»«ng":6256,"Ġrá»ħ":6257,"trong":6258,"edan":6259,"evin":6260,"omberg":6261,"ennis":6262,"áº¤n":6263,"cao":6264,"nÆ°á»Ľc":6265,"ĠbÃ³c":6266,"ĠquÃ¢y":6267,"ĠrÄĥn":6268,"ĠVatican":6269,"ĠSel":6270,"ition":6271,"ush":6272,"Ġhydro":6273,"ĠDonetsk":6274,"bourne":6275,"Ġapp":6276,"Ġcáº¥y":6277,"Ġlam":6278,"ĠÄĳá»ĳng":6279,"ĠBáº§u":6280,"Ġrap":6281,"thew":6282,"Ġ1999":6283,"ĠHungary":6284,"ĠOxford":6285,"MO":6286,"á»Ľc":6287,"Ġcai":6288,"Ġlá»Ļc":6289,"ĠsÃło":6290,"Ġmáº¯ng":6291,"ĠTá»ĳt":6292,"ĠTráº£":6293,"Ġlá»Ŀ":6294,"ĠDan":6295,"ĠNhÃ£":6296,"Ġgá»«ng":6297,"ĠBuff":6298,"ĠJennifer":6299,"64":6300,"TÃ¡c":6301,"page":6302,"Ġláº§y":6303,"Ġdáº¡n":6304,"ĠxÆ°ng":6305,"ĠrÃ¹a":6306,"ĠThÃªm":6307,"ĠNhiá»ĩt":6308,"Ġbá»įt":6309,"ĠFA":6310,"ĠYÃªu":6311,"thÆ°Æ¡ng":6312,"ĠiPad":6313,"2014":6314,"imbank":6315,"ĠTyson":6316,"ĠBloomberg":6317,"LÃª":6318,"Novak":6319,"nie":6320,"Ġdiá»ħu":6321,"ĠTáº¡p":6322,"ĠCháº¥p":6323,"Ġ450":6324,"ĠJordan":6325,"ucker":6326,"ĠIreland":6327,"ĠVoyager":6328,"It":6329,"ze":6330,"Ġnhan":6331,"Ġxáº»":6332,"ĠViá»ħn":6333,"Ġmá»³":6334,"ĠÄĲÃ¡nh":6335,"ĠGrab":6336,"Ġká»ĩ":6337,"Ġngá»ı":6338,"ady":6339,"ivi":6340,"ĠCá»§":6341,"ult":6342,"eva":6343,"ĠDavis":6344,"ĠFinals":6345,"ĠAssad":6346,"ĠZhang":6347,"Gen":6348,"PG":6349,"den":6350,"ĠNV":6351,"ĠLáº¡p":6352,"ĠJannik":6353,"ĠmÃ´tÆ¡":6354,"ernand":6355,"ĠVariety":6356,"NÃ³":6357,"Ńng":6358,"Ġgiáº±ng":6359,"Ġtá»§y":6360,"ĠNm":6361,"ĠCáº¥p":6362,"cho":6363,"ĠStre":6364,"ĠGab":6365,"ĠCháº¿":6366,"ĠFort":6367,"pháº£i":6368,"ĠDOGE":6369,"Ġmarketing":6370,"uckerberg":6371,"RI":6372,"cÃ¡c":6373,"áº¹o":6374,"ĠKhÃ¡n":6375,"ĠIraq":6376,"assage":6377,"cons":6378,"ĠSky":6379,"lesterol":6380,"Ġcholesterol":6381,"ĠUr":6382,"ĠRay":6383,"hire":6384,"ĠBrook":6385,"ĠSnap":6386,"UD":6387,"ĠlÃ¬":6388,"Ġxao":6389,"ĠHaw":6390,"Ġhoi":6391,"ĠDra":6392,"ĠChÃºc":6393,"ĠIC":6394,"ĠFold":6395,"ĠZuckerberg":6396,"ival":6397,"Ġ256":6398,"bridge":6399,"ring":6400,"zech":6401,"nhÃ¢n":6402,"ĠÄĳáº±ng":6403,"Ġnhá»Ļn":6404,"ĠÄĳá»¥ng":6405,"ĠNep":6406,"ĠHiá»ĥn":6407,"ĠHil":6408,"cha":6409,"ĠLim":6410,"Ġngá»¥":6411,"ĠÄĲoáº¡n":6412,"ĠFrancisco":6413,"ĠVictoria":6414,"li":6415,"mos":6416,"Ġláº©u":6417,"Ġcháº£o":6418,"Ġchá»¯ng":6419,"ĠMach":6420,"inho":6421,"ĠKá»ĭch":6422,"ĠPháº£i":6423,"ĠYang":6424,"reen":6425,"cean":6426,"eymar":6427,"ĠVinhomes":6428,"ĠMelbourne":6429,"ĠRoger":6430,")...":6431,"EV":6432,"eu":6433,"mit":6434,"ĠCáº§m":6435,"ĠSmart":6436,"ĠAC":6437,"ĠLog":6438,"ĠnÃ³c":6439,"ĠSoft":6440,"ĠAsian":6441,"ĠColumbia":6442,"CÆ¡":6443,"HÃłng":6444,"OT":6445,"ĠcÃºp":6446,"Ġbung":6447,"Ġsáº¿p":6448,"Ġmáº¡":6449,"ĠphiÃªu":6450,"ĠgiÆ¡":6451,"ĠNic":6452,"ĠNá»ģn":6453,"ĠCre":6454,"ĠBet":6455,"ĠBah":6456,"Ġtua":6457,"ĠWat":6458,"ĠUSB":6459,"ĠYemen":6460,"thÃłnh":6461,"oster":6462,"Ġ1994":6463,"ĠEric":6464,"form":6465,"ĠRafael":6466,"ĠthÃªu":6467,"chuyá»ĥn":6468,"ĠBell":6469,"ĠÄĲÃ£":6470,"ĠKÃŃnh":6471,"ĠGates":6472,"Ġtoa":6473,"Ġcuá»ĵng":6474,"ĠWeibo":6475,"Tuy":6476,"Ġmassage":6477,"Ġgá»Ļi":6478,"Ã³p":6479,"ĠTan":6480,"ĠCÃ´n":6481,"ĠBez":6482,"ĠSÃ´ng":6483,"ĠSub":6484,"ĠLáº§u":6485,"ĠThÃ¢n":6486,"ĠFar":6487,"ĠJam":6488,"ThÃłnh":6489,"Ġghen":6490,"Ġ1975":6491,"ĠMatthew":6492,"Táº¥t":6493,"cáº§u":6494,"tá»±":6495,"xuáº¥t":6496,"ĠÃ³c":6497,"ĠtrÃ¡n":6498,"Ġtá»¥ng":6499,"ĠMang":6500,"ĠTre":6501,"Ġhoáº¡n":6502,"ĠDem":6503,"Ġbá»įn":6504,"Ġquyáº¿n":6505,"ĠJi":6506,"Thu":6507,"...,":6508,"ĠIDF":6509,"250":6510,"Ba":6511,"Go":6512,"ĠmáºŃn":6513,"Ġnuá»ĳt":6514,"Ġngá»±":6515,"ĠCáº£ng":6516,"ĠSec":6517,"ĠDig":6518,"ĠRáº¥t":6519,"ato":6520,"ĠQuáºŃn":6521,"ĠYu":6522,"Äĳiá»ĥm":6523,"ĠInv":6524,"Nghá»":6525,"ĠJoseph":6526,"69":6527,"ĠBas":6528,"ĠDie":6529,"aron":6530,"ÄĳÃ¡nh":6531,"ionel":6532,"ext":6533,"ĠColombia":6534,"cm":6535,"ĠnÃ©":6536,"Ġngáº«m":6537,"ĠphÃ´ng":6538,"ĠrÃ¡ch":6539,"chÆ°a":6540,"enko":6541,"ĠFil":6542,"ĠFound":6543,"Ġ190":6544,"ĠPhá»¥ng":6545,"etti":6546,"ĠValent":6547,"ĠNorth":6548,"ĠMercedes":6549,"77":6550,"break":6551,"phi":6552,"Ġthá»ģm":6553,"ĠBinh":6554,"ĠVá»«a":6555,"ĠAlph":6556,"ĠLuc":6557,"ĠScr":6558,"Ġhá»ķng":6559,"ĠNobel":6560,"bi":6561,"pace":6562,"Ãģ":6563,"ado":6564,"Ġ115":6565,"ickle":6566,"ĠTechn":6567,"ĠMedia":6568,"AG":6569,"jamin":6570,"ĠÆ°á»Ľp":6571,"nhÆ°":6572,"ĠhÃ¹m":6573,"ĠSus":6574,"ĠSÃ³c":6575,"ĠDim":6576,"Ġ360":6577,"ĠBrand":6578,"ĠSteven":6579,"Gáº§n":6580,"hai":6581,"Ġgáº¯m":6582,"Ġxay":6583,"ĠxÃ¡o":6584,"ĠIB":6585,"ĠJu":6586,"uri":6587,"tress":6588,"ific":6589,"allah":6590,"ĠCambridge":6591,"ĠWilliams":6592,"ĠSEA":6593,"iatek":6594,"Cáº§n":6595,"DC":6596,"jor":6597,"tÃ´ng":6598,"Ġá»ĳp":6599,"ĠvÃ¡c":6600,"ĠBob":6601,"ĠLÄ©nh":6602,"ĠKai":6603,"ĠId":6604,"ÄĲáº§u":6605,"âĢı":6606,"2009":6607,"ĠAquaman":6608,"cÆ¡":6609,"Ġpizza":6610,"ĠTal":6611,"ĠCV":6612,"ĠHas":6613,"ĠMitsubishi":6614,"Ġrá»Ĺng":6615,"Ġ1960":6616,"uno":6617,"abeth":6618,"ula":6619,"ĠCons":6620,"ations":6621,"arkov":6622,"ĠJones":6623,"ĠStanford":6624,"ĠBeauty":6625,"ickleball":6626,"fake":6627,"náº¿u":6628,"vo":6629,"ĠbÃªnh":6630,"ĠMáº¡ng":6631,"ĠMod":6632,"ĠSSI":6633,"itol":6634,"ĠYe":6635,"Ġgá»¥c":6636,"ĠLá»Ľn":6637,"2013":6638,"ĠGreg":6639,"ĠVolkswagen":6640,"ĠKorea":6641,"63":6642,"br":6643,"sa":6644,"tinh":6645,"vel":6646,"ĠsÃ³i":6647,"ĠCáºŃn":6648,"ĠVina":6649,"ĠLÃ¢n":6650,"ĠDiÃªn":6651,"ĠGro":6652,"ĠHouse":6653,"Ġoff":6654,"ĠÄĳÃ´la":6655,"ista":6656,"ĠBrad":6657,"ĠMcC":6658,"ĠRock":6659,"mÃ¡y":6660,"sá»ĳng":6661,"ts":6662,"Ġtráº·c":6663,"Ġsh":6664,"Ġsedan":6665,"Ġgiá»ģng":6666,"ĠTuyá»ģn":6667,"ĠHeg":6668,"ĠMir":6669,"ĠÄĲÃ¡ng":6670,"ĠTrÃ¢m":6671,"ĠKevin":6672,"Ġ2028":6673,"ĠRai":6674,"Ġmáº¹o":6675,"âĢĿ":6676,"ega":6677,"board":6678,"ĠCollege":6679,"ĠStreet":6680,"Káº¿t":6681,"MS":6682,"med":6683,"Ġváº¡n":6684,"ĠngÃ²i":6685,"ĠBÃłn":6686,"Ġdá»©a":6687,"ĠKir":6688,"ĠQR":6689,"Ġtuá»Ļc":6690,"ator":6691,"ĠQuáº§n":6692,"ĠWind":6693,"ĠScratch":6694,"'\",":6695,"Cá»¥c":6696,"Quá»ĳc":6697,"Singapore":6698,"biz":6699,"ule":6700,"vent":6701,"ĠáºŃp":6702,"ĠkhÃ´n":6703,"ĠTru":6704,"ĠTrÃ¬":6705,"ĠLove":6706,"ĠThÃŃch":6707,"ĠPop":6708,"ĠKháº¯c":6709,"Ġkhá»ĳng":6710,"ĠFre":6711,"ĠThá»ıa":6712,"Ġ108":6713,"trung":6714,"Ġfl":6715,"Ġ1993":6716,"ribank":6717,"ĠAsh":6718,"ĠâĢľ":6719,"amilk":6720,"ĠÆ¯á»Ľc":6721,"Láº§n":6722,"Máº¹":6723,"cent":6724,"mon":6725,"Ġtam":6726,"Ġlá»Ļt":6727,"ĠmÃŃt":6728,"ĠHáº¡t":6729,"ĠRad":6730,"ĠJustin":6731,"ila":6732,"sterdam":6733,"78":6734,"98":6735,"Net":6736,"TÆ°":6737,"tu":6738,"Ġvan":6739,"ĠkiÃªng":6740,"Ġnan":6741,"ĠVHM":6742,"ĠTrá»Ł":6743,"Ġtrá»ĩ":6744,"ats":6745,"ĠEVN":6746,"PhÃ³":6747,"ĠClub":6748,"ĠBerlin":6749,"CL":6750,"Man":6751,"hÃłnh":6752,"ĠtÆ¡":6753,"ĠbÃ´i":6754,"Ġpiano":6755,"ĠCel":6756,"ĠCzech":6757,"ĠPsy":6758,"ĠKamala":6759,"ĠnÃ³n":6760,"Ġ1992":6761,"Chá»©ng":6762,"ĠEuropa":6763,"Cuá»ĳi":6764,"Vá»£":6765,"por":6766,"Ġkeo":6767,"ĠphÃ´i":6768,"ĠNeymar":6769,"ĠxÆ°á»Ľc":6770,"ĠrÃ¡o":6771,"ĠHÃło":6772,"ĠMá»ĳi":6773,"ĠAh":6774,"ĠChen":6775,"ĠRh":6776,"ĠWis":6777,"ĠVietjet":6778,"mann":6779,"ĠPhá»¥c":6780,"ĠPowell":6781,"YT":6782,"zi":6783,"Ġchen":6784,"ĠchÃ³t":6785,"Ġpop":6786,"Ġpháº«n":6787,"ĠHÃ¢m":6788,"ĠHass":6789,"ĠBor":6790,"ĠSing":6791,"ĠKn":6792,"Ġdoping":6793,"ĠKharkov":6794,"ĠFal":6795,"ilon":6796,"ĠIntel":6797,"ĠSoo":6798,"ĠAston":6799,"etts":6800,"Cáº£m":6801,"Cap":6802,"Sá»ĳ":6803,"ká»¹":6804,"á»¡":6805,"Ġcollagen":6806,"Ġphá»ĵng":6807,"Ġyen":6808,"ĠIl":6809,"ĠFan":6810,"oshi":6811,"ĠStore":6812,"orsche":6813,"ĠgÄĥng":6814,"Ġgen":6815,"ĠNáº±m":6816,"ĠGram":6817,"ĠKhung":6818,"ision":6819,"ĠBrian":6820,"ĠPlay":6821,"ĠRubio":6822,"ĠToday":6823,"AF":6824,"RO":6825,"Tay":6826,"hÃłng":6827,"sá»Ńa":6828,"Ġnguyá»ĩt":6829,"ĠRy":6830,"room":6831,"osa":6832,"ĠsuÃ½t":6833,"ĠChristie":6834,"ĠWoods":6835,"ĠNasr":6836,"AP":6837,"VÄĥn":6838,"bÃ¡n":6839,"seth":6840,"ĠVeg":6841,"ĠTra":6842,"ĠSud":6843,"ĠKaz":6844,"ĠChic":6845,"ĠChina":6846,"ĠJosh":6847,"aint":6848,"ĠFred":6849,"Báº¯c":6850,"sáº½":6851,"ĠÄĳu":6852,"Ġsal":6853,"ĠTáº¡o":6854,"ĠgiÃ¡ng":6855,"ĠrÃ£":6856,"ĠMall":6857,"ĠVá»¹":6858,"oney":6859,"ĠLiu":6860,"FPT":6861,"LÃłm":6862,"cÃ´":6863,"mark":6864,"sÃ¡p":6865,"vÃ´":6866,"ĠÆ°ng":6867,"ĠbÃ¬a":6868,"ĠchÃ¡o":6869,"Ġquá»³":6870,"ĠÄĲÃłn":6871,"ĠÄĲá»ĵi":6872,"Ġlá»į":6873,"oss":6874,"ĠAndy":6875,"conom":6876,"ĠVirginia":6877,"Hy":6878,"ĠÄĳÃ¨":6879,"ĠkÃ¬m":6880,"Ġnáº¡t":6881,"Ġxáº£o":6882,"cháº¥t":6883,"ĠMáºŃt":6884,"Ġphá»Ľt":6885,"ĠChinh":6886,"ĠFu":6887,"ĠElo":6888,"eby":6889,"ĠJourn":6890,"ĠShin":6891,"ĠAmsterdam":6892,"achus":6893,"ĠMasan":6894,"ĠOnline":6895,"ĠVPBank":6896,"TáºŃp":6897,"eID":6898,"Ġtie":6899,"ĠlÃ©n":6900,"ĠBud":6901,"ĠAz":6902,"ĠLá»Ļ":6903,"ĠKid":6904,"ese":6905,"ĠQuÃ¡ch":6906,"ĠOcean":6907,"ĠDoÃ£n":6908,"chá»§":6909,"ĠJournal":6910,"\":":6911,"%;":6912,"ĠvÃ²m":6913,"Ġthung":6914,"ĠTA":6915,"ĠMÃ£i":6916,"ĠÄĲÃºng":6917,"ĠSáº¯c":6918,"ĠLÄĥng":6919,"Ġtá»ĳng":6920,"ĠChuyá»ĥn":6921,"oper":6922,"ĠVietinBank":6923,"izabeth":6924,"ĠEngineering":6925,"opher":6926,"ĠHegseth":6927,"TF":6928,"mes":6929,"Ġtáº¿t":6930,"Ġcard":6931,"Ġgáº·t":6932,"ĠHold":6933,"ĠBess":6934,"ĠSP":6935,"ĠApp":6936,"Ġná»ĩn":6937,"ĠThá»ĭt":6938,"ĠTelegram":6939,"Italy":6940,"ĠBezos":6941,"Cáº£nh":6942,"gor":6943,"hen":6944,"ım":6945,"Ġstress":6946,"ĠTá»ĳng":6947,"ĠxÃª":6948,"ĠSacombank":6949,"ĠChang":6950,"ĠICC":6951,"ima":6952,"ĠFury":6953,"uman":6954,"irst":6955,"aba":6956,"sea":6957,"ĠBenjamin":6958,"ĠSwiatek":6959,"ĠMassachus":6960,"fan":6961,"log":6962,"ĠsÃ¢m":6963,"Ġcá»«":6964,"ĠVAT":6965,"ĠBil":6966,"ĠST":6967,"Ġsáº¹":6968,"enka":6969,"2010":6970,"ĠEduc":6971,"Ġ94":6972,"tron":6973,"issan":6974,"ĠClau":6975,"ĠShopee":6976,"LÃł":6977,"huyá»ĩn":6978,"ĠÃł":6979,"Ġby":6980,"Ġngáº§n":6981,"ĠTum":6982,"ĠCub":6983,"ĠBon":6984,"ĠAqua":6985,"ĠFest":6986,"Ġngá»«":6987,"ĠOle":6988,"theby":6989,"Ġwifi":6990,"Ġje":6991,"ĠStarlink":6992,"ĠNasrallah":6993,"Ġcá»ĳi":6994,"Ġcháº£i":6995,"ĠTáº§n":6996,"ĠNass":6997,"ĠrÃ©t":6998,"ĠMÃ¬nh":6999,"ĠLas":7000,"ĠCháº£i":7001,"ĠFernand":7002,"ĠEV":7003,"ĠEle":7004,"ĠEconom":7005,"Trump":7006,"ello":7007,"ĠSotheby":7008,"ĠDubai":7009,"ĠBessent":7010,"ĠMassachusetts":7011,"Ġsáº¹o":7012,"56":7013,"Báº£o":7014,"ti":7015,"Ġtivi":7016,"Ġviá»ĩt":7017,"ĠTÃ¬m":7018,"ĠNBC":7019,"ĠTrÆ°ng":7020,"ĠTrÃłm":7021,"ĠLuna":7022,"Ġsá»«ng":7023,"alle":7024,"icro":7025,"ĠESG":7026,"ĠMary":7027,"Ġ1991":7028,"2006":7029,"ĠWhite":7030,"consin":7031,"SC":7032,"tá»·":7033,"ĠbÆ°u":7034,"ĠnÃ¡o":7035,"ĠHi":7036,"ĠVáº¥p":7037,"ĠBáº¯t":7038,"Æ°Æ¡u":7039,"Ġ220":7040,"ĠIFL":7041,"Ġbá»ıng":7042,"ĠÃģp":7043,"ĠAcad":7044,"ĠBeckham":7045,"Bá»ĩnh":7046,"CK":7047,"fa":7048,"ni":7049,"ĠxÃ¡t":7050,"Ġrang":7051,"ĠVÃłnh":7052,"aur":7053,"ĠDre":7054,"ĠChe":7055,"Ġtoken":7056,"ĠJac":7057,"Ãµng":7058,"Thay":7059,"Nguá»ĵn":7060,"eepfake":7061,"ĠbÆ°á»Ľu":7062,"LuáºŃt":7063,"ĠChicago":7064,"58":7065,"NA":7066,"NX":7067,"báº¯t":7068,"táºŃp":7069,"Ġcáº©m":7070,"ĠÄĳun":7071,"ĠsÃºc":7072,"ĠnhÃ£":7073,"ĠMuá»ĳn":7074,"ĠMun":7075,"ĠLNG":7076,"ening":7077,"ĠKhÃª":7078,"ĠKhÃŃ":7079,"ĠRá»ĵi":7080,"2012":7081,"ÄĲÆ°á»Ŀng":7082,"Ġwork":7083,"ĠAmy":7084,"ĠTime":7085,"ĠEximbank":7086,"ĠEducation":7087,"IV":7088,"MI":7089,"be":7090,"off":7091,"siÃªu":7092,"Ġac":7093,"Ġcat":7094,"Ġráº«y":7095,"ĠLÃłng":7096,"Ġsá»ıi":7097,"Ġ105":7098,"ĠHome":7099,"ashion":7100,"ĠAbd":7101,"Doanh":7102,"Ġrocket":7103,"ĠKelly":7104,"ĠSocial":7105,"Book":7106,"Mar":7107,"PBank":7108,"dragon":7109,"á»«a":7110,"ĠvÃ¡":7111,"ĠchÃ¬":7112,"Ġxá»ĳp":7113,"ĠCuá»ĳn":7114,"ĠTrans":7115,"index":7116,"ias":7117,"andal":7118,"phÃ²ng":7119,"ĠMusic":7120,"ĠElizabeth":7121,"ĠAdam":7122,"ĠStephen":7123,"42":7124,"BH":7125,"Star":7126,"TO":7127,"World":7128,"Ġhiá»ģn":7129,"Ġnha":7130,"ĠgÃ¢n":7131,"ĠgÃłng":7132,"ĠdÄ©":7133,"ĠMÅ©i":7134,"ĠBut":7135,"ĠLar":7136,"ĠGe":7137,"ĠGor":7138,"Chiáº¿n":7139,"Chat":7140,"azda":7141,"2008":7142,"ĠRome":7143,"ĠSnapdragon":7144,"GC":7145,"RS":7146,"ys":7147,"ĠvÄĥng":7148,"ĠnhÃ¡t":7149,"Ġnem":7150,"ĠTien":7151,"Ġquáº¥n":7152,"Ġreo":7153,"ĠCÃłng":7154,"ĠCÃºc":7155,"ĠDao":7156,"Ġlogo":7157,"ĠXÆ°Æ¡ng":7158,"ĠXem":7159,"ĠAli":7160,"aha":7161,"ĠxoÃłi":7162,"quá»¹":7163,"lympia":7164,"ĠMoham":7165,"bá»ı":7166,"ESCO":7167,"Samsung":7168,"43":7169,"CÃ¡ch":7170,"ngÃłnh":7171,"Ġli":7172,"Ġlá»¯":7173,"ĠtrÃªu":7174,"Ġgá»Ļp":7175,"Ġgiang":7176,"ĠxÃ©":7177,"ĠÄĲáº¯k":7178,"ĠABC":7179,"ĠPorsche":7180,"ĠGa":7181,"Ġbá»ĭt":7182,"ĠChiáº¿t":7183,"itter":7184,"ĠJess":7185,"ĠJason":7186,"ĠBá»Ŀ":7187,"phá»¥":7188,"nghá»ī":7189,"met":7190,"ras":7191,"ĠkÃ¨":7192,"ĠsÃºp":7193,"ĠhÆ°ng":7194,"ĠgÃ£":7195,"ĠchÃ¹m":7196,"ĠMik":7197,"ĠBir":7198,"ĠTrÃ¬nh":7199,"Ġgiá»ı":7200,"ĠQS":7201,"ĠChand":7202,"iat":7203,"ures":7204,"Äĳang":7205,"thá»Ŀi":7206,"ooth":7207,"ĠCapitol":7208,"Khoáº£ng":7209,"ĠSoftware":7210,"ĠWisconsin":7211,"ĠGrammy":7212,"SP":7213,"lish":7214,"ĠtÃ²i":7215,"Ġkn":7216,"Ġdiá»ĩu":7217,"Ġquáº¿":7218,"ĠquÃ¡i":7219,"anie":7220,"ĠCR":7221,"ĠCy":7222,"chip":7223,"ĠSav":7224,"ĠAUD":7225,"NghiÃªn":7226,"ĠÃģi":7227,"rant":7228,"ĠVinamilk":7229,"ĠColor":7230,"ĠUniversity":7231,"ĠPower":7232,"ĠShein":7233,"2000":7234,"Ġváº¡t":7235,"ĠdÃ¨":7236,"etico":7237,"ĠJane":7238,"Ġ128":7239,"ĠAtletico":7240,"Dance":7241,"iola":7242,"ĠsÆ°á»Ľng":7243,"Ġgieo":7244,"oke":7245,"ĠhÃ£m":7246,"Thá»±c":7247,"Ġ1989":7248,"ĠSeries":7249,"ĠChristopher":7250,"Ġblogger":7251,"Bá»ĳ":7252,"LS":7253,"cal":7254,"gia":7255,"mund":7256,"ois":7257,"tz":7258,"vÃłng":7259,"Ġ/":7260,"ĠthÆ°a":7261,"Ġman":7262,"Ġnm":7263,"Ġkhay":7264,"Ġkhiáº¿p":7265,"ĠLes":7266,"ĠCher":7267,"Ġgá»ıi":7268,"teDance":7269,"ava":7270,"ĠbÃªtÃ´ng":7271,"ToÃ¡n":7272,"ĠHenry":7273,"ĠBuffett":7274,"41":7275,"66":7276,"NASA":7277,"gá»ĵm":7278,"ĠTÃ¡m":7279,"Ġvá»Ľt":7280,"ĠCos":7281,"chuyÃªn":7282,"ĠBol":7283,"ĠData":7284,"ĠTá»Ŀ":7285,"ĠHá»Ĺ":7286,"AID":7287,"Ġmuá»Ĺi":7288,"ĠAtlas":7289,"59":7290,"73":7291,"ky":7292,"máº¥t":7293,"nick":7294,"shop":7295,"tin":7296,"ten":7297,"Ġz":7298,"Ġbá»±c":7299,"ĠnÃ²ng":7300,"Ġgáº§y":7301,"ĠCX":7302,"ĠCry":7303,"Ġ2035":7304,"Ġkhoáº»":7305,"Ġkhá»ī":7306,"ĠChá»įn":7307,"otter":7308,"ĠReb":7309,"ĠOsaka":7310,"ĠJean":7311,"Ġliveshow":7312,"Cáº§u":7313,"DR":7314,"Ex":7315,"lie":7316,"rl":7317,"sáº£n":7318,"ĠÄĳáº¯m":7319,"Ġkáº¹p":7320,"Ġcá»Ľ":7321,"Ġquyá»ĩn":7322,"chÄĥm":7323,"alenka":7324,"ĠKhai":7325,"elsea":7326,"ĠMoore":7327,"ĠUniverse":7328,"ĠUNESCO":7329,"ĠLewis":7330,"Ġmodule":7331,"TÃªn":7332,"WS":7333,"cle":7334,"no":7335,"ĠnhÃ©":7336,"ĠVo":7337,"ĠBá»ĭ":7338,"ĠSach":7339,"ĠThÃ¬n":7340,"ĠChin":7341,"ĠChess":7342,"Ġngoáº¡n":7343,"ĠThá»«a":7344,"ÄĲi":7345,"Äĳá»Ļi":7346,"lyn":7347,"ĠiOS":7348,"ĠLá»Ľp":7349,"red":7350,"vin":7351,"Ġor":7352,"ĠtrÃ³i":7353,"Ġtrek":7354,"Ġxáº¥p":7355,"ĠGiáº£m":7356,"ĠXÃ¡c":7357,"TrÃ¡i":7358,"Pháº¡m":7359,"ĠCarlo":7360,"ĠPrem":7361,"onder":7362,"ĠBoston":7363,"Real":7364,"tá»īnh":7365,"ĠtÄĥm":7366,"Ġlay":7367,"ĠTCB":7368,"ĠTiger":7369,"ĠSá»¹":7370,"ĠLiá»ĩu":7371,"ĠKey":7372,"ĠDÆ°":7373,"esel":7374,"aper":7375,"ika":7376,"THPT":7377,"ĠMobile":7378,"ĠWells":7379,"CH":7380,"HLV":7381,"Tá»ĳi":7382,"colate":7383,"rand":7384,"tain":7385,"ĠcÃºi":7386,"Ġlung":7387,"Ġtháº¯n":7388,"Ġpickleball":7389,"ĠTak":7390,"Ġxá»Ł":7391,"ĠVel":7392,"inner":7393,"ĠThai":7394,"ĠThiÃªm":7395,"ĠDáº§n":7396,"ĠGw":7397,"hio":7398,"ÄĲo":7399,"ÄĲáº¿n":7400,"nect":7401,"Tháº¿":7402,"ĠChá»ĳt":7403,"ÄĳÃ³ng":7404,"ĠBeach":7405,"ĠMcG":7406,"ĠAmerican":7407,"ĠBMW":7408,"Sh":7409,"ĠchÆ°á»Ľc":7410,"ĠNik":7411,"Ġchá»Ńi":7412,"ĠHÃ¨":7413,"eme":7414,"Ġvá»¥n":7415,"ict":7416,"ĠEc":7417,"ĠVNeID":7418,"ĠGuardiola":7419,"tail":7420,"Ġvon":7421,"ĠlÆ°á»Ŀi":7422,"ĠmÃ´ng":7423,"Ġdeepfake":7424,"ĠMah":7425,"ĠSá»ĳng":7426,"ĠDÃ¹ng":7427,"ĠRau":7428,"Ġ240":7429,"ĠAriz":7430,"ĠNghiÃªm":7431,"ĠPatrick":7432,"ĠAgribank":7433,"ĠSabalenka":7434,"flix":7435,"ĠInvest":7436,"Bar":7437,"gu":7438,"lan":7439,"ute":7440,"ville":7441,"ĠÄĳáº¯ng":7442,"ĠkÃŃp":7443,"ĠBow":7444,"Ġlá»¥y":7445,"ĠAk":7446,"ĠAud":7447,"ĠLink":7448,"ĠPC":7449,"ĠDong":7450,"ĠKhÃ³a":7451,"ĠRá»ĵng":7452,"ĠÃĬ":7453,"ĠHous":7454,"NhÃ³m":7455,"elli":7456,"2004":7457,"ipas":7458,"Ġ1986":7459,"ĠHaaland":7460,"Lá»ħ":7461,"ĠTemu":7462,"ĠArizona":7463,"EFA":7464,"LO":7465,"pop":7466,"tÆ°":7467,"há»£p":7468,"Ġnáº§n":7469,"Ġgiáº¥m":7470,"ĠHK":7471,"ĠMazda":7472,"ĠBiáº¿n":7473,"ĠGáº·p":7474,"ĠGall":7475,"ĠRach":7476,"ĠthiÃªng":7477,"ĠJay":7478,"ĠOhio":7479,"Tráº£":7480,"Giá»Ŀ":7481,"Sinh":7482,"Tu":7483,"kel":7484,"mas":7485,"yeh":7486,"Ġit":7487,"ĠtÆ°á»Ľi":7488,"Ġcáº¡o":7489,"ĠthÃ²i":7490,"ĠBai":7491,"ĠAGI":7492,"ĠThÆ°á»Łng":7493,"ĠChÄĥm":7494,"ĠRet":7495,"ĠÄĲá»ĩ":7496,"ĠWong":7497,"ĠHoan":7498,"tern":7499,"Ġdiesel":7500,"ĠLeg":7501,"ĠSher":7502,"ĠLoáº¡t":7503,"Ġshowbiz":7504,"ĠPolit":7505,"Ġjeans":7506,"BÄĲ":7507,"LÃ½":7508,"zh":7509,"§a":7510,"Ġtáº£o":7511,"ĠTai":7512,"ĠMiá»ģn":7513,"ami":7514,"ĠSanta":7515,"ĠChelsea":7516,"ĠPháº£n":7517,"ĠIM":7518,"Ġ93":7519,"ĠOlympia":7520,"ÄĳÆ°á»£c":7521,"Ngay":7522,"ĠLá»ĩnh":7523,"Ġ1988":7524,"Ġstud":7525,"itsipas":7526,"ĠJonathan":7527,"Ġrunner":7528,"ĠByteDance":7529,"ĠAuto":7530,"Carl":7531,"ER":7532,"ounce":7533,"ķi":7534,"ĠtrÃºt":7535,"ĠtrÃ¨o":7536,"Ġmy":7537,"Ġmicro":7538,"ĠCristiano":7539,"ĠHPG":7540,"chÆ°Æ¡ng":7541,"ĠBiá»ĥu":7542,"ĠPri":7543,"ĠnhÃłm":7544,"ĠPho":7545,"ĠPhÃºt":7546,"ema":7547,"thur":7548,"ThÃ¡ng":7549,"Ġ168":7550,"riend":7551,"ĠCá»¥m":7552,"ĠSports":7553,"ĠChanel":7554,"Báº¥t":7555,"bar":7556,"min":7557,"oT":7558,"well":7559,"Ġpoly":7560,"ĠNext":7561,"ĠCer":7562,"chÃŃnh":7563,"ĠMet":7564,"ĠLÃ²":7565,"ĠLÃ¡i":7566,"inson":7567,"ĠThÃºc":7568,"ĠDia":7569,"ĠOLED":7570,"ards":7571,"á»ĩt":7572,"2001":7573,"ecca":7574,"ĠCoun":7575,"pearl":7576,"ĠBrown":7577,"Ai":7578,"MIT":7579,"Quy":7580,"Ġat":7581,"Ġváº¯t":7582,"Ġsum":7583,"ĠMÆ°á»Ŀi":7584,"ĠBÃ¢y":7585,"onda":7586,"ĠSev":7587,"ĠSant":7588,"ĠAeon":7589,"ĠThÃ¢m":7590,"ets":7591,"ĠÄĲá»£t":7592,"ĠQual":7593,"ĠYale":7594,"ĠAlbert":7595,"PhÃº":7596,"Ġ145":7597,"ffe":7598,"quin":7599,"Ġtá»¥y":7600,"ault":7601,"ĠSuz":7602,"sÄĥn":7603,"Ġtest":7604,"Ġnilon":7605,"ĠNissan":7606,"ĠrÃ¢u":7607,"Ġrá»ĳt":7608,"ĠCÃ¡nh":7609,"ĠVill":7610,"oni":7611,"ĠÄĲá»ĳng":7612,"ĠPart":7613,"ĠOp":7614,"ĠGener":7615,"ĠGoldman":7616,"ĠTwitter":7617,"ĠTsitsipas":7618,"ĠVegas":7619,"Ġcá»«u":7620,"OL":7621,"lÆ°Æ¡ng":7622,"ms":7623,"xÃ£":7624,"Ġml":7625,"anyl":7626,"ĠMen":7627,"ĠAug":7628,"Ġtrá»Ĺi":7629,"elle":7630,"ĠRON":7631,"ito":7632,"ThÆ°Æ¡ng":7633,"obin":7634,"azer":7635,"ĠquÃ½t":7636,"ĠHuÃ¢n":7637,"GiÃ¡o":7638,"120":7639,"79":7640,"Ráº¥t":7641,"Sao":7642,"UBND":7643,"gg":7644,"lÃ©":7645,"wa":7646,"Ġcá»Ļi":7647,"ĠÄĳinh":7648,"ĠTia":7649,"ĠBest":7650,"ĠUP":7651,"ĠRice":7652,"imes":7653,"ĠFC":7654,"ĠFi":7655,"olo":7656,"ĠEQ":7657,"ĠJD":7658,"ÄĲBÄĲ":7659,"trÃŃ":7660,"ternet":7661,"Champions":7662,"ĠIsland":7663,"ulin":7664,"stan":7665,"orts":7666,"ĠMinzy":7667,"ĠMWG":7668,"ĠDelhi":7669,"ĠNapas":7670,"ĠBooker":7671,"350":7672,"cia":7673,"eed":7674,"iF":7675,"lao":7676,"ux":7677,"ĠnÃ¡m":7678,"Ġkhiáº¿t":7679,"Ġres":7680,"ĠMPV":7681,"ĠÄĲáºŃu":7682,"ĠKÃ½":7683,"Ġá»©":7684,"try":7685,"Ġ135":7686,"anna":7687,"uitar":7688,"ĠDiego":7689,"ĠFoundation":7690,",...":7691,"CÃ¢u":7692,"ET":7693,"OB":7694,"St":7695,"biáº¿n":7696,"Ļng":7697,"ĠMour":7698,"ĠBá»¯a":7699,"ĠLaw":7700,"ĠDC":7701,"ĠGR":7702,"ĠGel":7703,"igo":7704,"ĠGiá»įng":7705,"ĠManchester":7706,"Ġmajor":7707,"ĠVIC":7708,"ĠPrinc":7709,"ĠNassr":7710,"cÃ¡ch":7711,"rate":7712,"Ġ=":7713,"Ġtháº±ng":7714,"Ġshi":7715,"ĠnÆ¡":7716,"ĠgÃ²":7717,"Ġdáº§m":7718,"Ġphao":7719,"Ġquá»·":7720,"ĠCáº£i":7721,"ĠHÆ°á»Ŀng":7722,"ĠBÃ£i":7723,"ĠÄĲÃ¡p":7724,"ĠLÃªn":7725,"ĠPas":7726,"Ġthun":7727,"ĠJap":7728,"ĠHoáº·c":7729,"ĠInn":7730,"entanyl":7731,"afe":7732,"ĠGary":7733,"zoom":7734,"thony":7735,"alleng":7736,"Open":7737,"cus":7738,"more":7739,"ĠbÃºp":7740,"Ġnit":7741,"ĠgÃ¹":7742,"ĠTá»ĳc":7743,"Ġthá»ĳn":7744,"ĠNak":7745,"ĠNá»Ĺi":7746,"ĠHall":7747,"ĠHani":7748,"ĠchoÃłng":7749,"ĠBB":7750,"ĠLaz":7751,"ĠLut":7752,"ĠLady":7753,"ĠPok":7754,"ĠKate":7755,"ĠUá»ĳng":7756,"ĠThá»īnh":7757,"icius":7758,"ĠÄĲá»©ng":7759,"2011":7760,"rad":7761,"tráº»":7762,"Äĳá»Ļng":7763,"igin":7764,"owski":7765,"ortmund":7766,"ĠBruno":7767,"ĠScot":7768,"Quan":7769,"Ġgolfer":7770,"ĠLaura":7771,"ports":7772,"káº¿t":7773,"ká»³":7774,"ħu":7775,"Ġlike":7776,"Ġnhá»ĳt":7777,"ĠgáºŃt":7778,"ĠBes":7779,"ĠSir":7780,"ĠKl":7781,"ĠRose":7782,"ĠÃįt":7783,"rah":7784,"ĠXung":7785,"omp":7786,"ĠOk":7787,"Ġ116":7788,"oda":7789,"ĠHá»©a":7790,"iales":7791,"ĠChuá»Ĺi":7792,"ĠBillboard":7793,"ĠHouston":7794,"62":7795,"BT":7796,"TÃłi":7797,"cÃł":7798,"walk":7799,"á»Ŀ":7800,"Ġtáº¡c":7801,"ĠcÃ¡m":7802,"Ġshop":7803,"Ġphiáº¿n":7804,"Ġvá»Ŀ":7805,"Ġgiun":7806,"ĠHam":7807,"chez":7808,"ĠSri":7809,"ĠLor":7810,"ĠPre":7811,"ĠRáº¡ch":7812,"Ġ650":7813,"ater":7814,"thanh":7815,"pping":7816,"Ġout":7817,"ĠArn":7818,"Ġ1981":7819,"yeong":7820,"ĠDraper":7821,"CG":7822,"FT":7823,"NÆ°á»Ľc":7824,"PR":7825,"lÃ¡i":7826,"Ġá»ĵ":7827,"Ġáº¿ch":7828,"ĠÄĳáºŃy":7829,"Ġviáº¿ng":7830,"Ġkar":7831,"Ġthat":7832,"Ġkhang":7833,"Ġngáº¡t":7834,"ĠBenn":7835,"ĠLÆ°":7836,"eol":7837,"ĠPen":7838,"ĠloÃ£ng":7839,"ĠFel":7840,"unch":7841,"oucher":7842,"cktail":7843,"ĠFritz":7844,"ĠNetflix":7845,"ĠSumy":7846,"Nghá»ĭ":7847,"ventus":7848,"72":7849,"JI":7850,"Minh":7851,"Phi":7852,"mail":7853,"sch":7854,"tok":7855,"ĠtÃ¡t":7856,"ĠmÆ°á»Ŀi":7857,"Ġnáº¿m":7858,"ĠNiÃªn":7859,"ĠNá»Ńa":7860,"Ġchocolate":7861,"ĠLÃ´":7862,"ĠLÃłn":7863,"ĠKáº»":7864,"ĠKyr":7865,"Ġphá»Ļng":7866,"ĠCháº¡p":7867,"ela":7868,"Ġkhuáº¥y":7869,"Ġ750":7870,"ĠHot":7871,"aver":7872,"essa":7873,"ĠPhá»Ł":7874,"ĠBuÃ´n":7875,"lá»Ľp":7876,"ĠHDBank":7877,"ancial":7878,"ĠBahrain":7879,"HN":7880,"kins":7881,"Ġzoom":7882,"Ġtro":7883,"Ġnhai":7884,"Ġnhuyá»ħn":7885,"ĠBTC":7886,"ĠÄĲáº§m":7887,"ĠPV":7888,"ĠDortmund":7889,"ĠChoi":7890,"Ġbá»ĳt":7891,"ÄĲiá»ĩn":7892,"ĠDoug":7893,"PhÃ¡t":7894,"ĠHyun":7895,"ĠBrit":7896,"ĠSchol":7897,"ladesh":7898,"force":7899,"ĠMSB":7900,"BHXH":7901,"Big":7902,"Chi":7903,"bit":7904,"cam":7905,"hiá»ĩn":7906,"oth":7907,"ĠÃ²a":7908,"ĠvÃ¹i":7909,"Ġspa":7910,"ĠnháºŃu":7911,"Ġnáº¿n":7912,"Ġkhiáº¿m":7913,"ĠNáº¡n":7914,"ĠNá»ķi":7915,"ĠNest":7916,"inha":7917,"ĠSign":7918,"ĠAR":7919,"ĠNgÅ©":7920,"ĠDeb":7921,"ĠUV":7922,"ĠWTA":7923,"aking":7924,"1975":7925,"ardo":7926,"ersey":7927,"ĠLoÃłi":7928,"ĠCook":7929,"orning":7930,"ĠFerr":7931,"Ġknock":7932,"ĠSachs":7933,"96":7934,"CáºŃu":7935,"Ná»¯":7936,"PC":7937,"VÃło":7938,"hy":7939,"hyd":7940,"á»ı":7941,"ĠtÃł":7942,"nháºŃp":7943,"Ġvun":7944,"Ġtháº·ng":7945,"Ġguitar":7946,"ĠNS":7947,"ĠTri":7948,"ĠTrá»«":7949,"ĠThree":7950,"ĠFID":7951,"ĠTá»©c":7952,"ĠInf":7953,"Nhá»Ŀ":7954,"ĠMonica":7955,"celand":7956,"comm":7957,"appy":7958,"Vietnam":7959,"ĠMSN":7960,"ĠSimon":7961,"ĠDisney":7962,"ĠTruth":7963,"BÃ¡c":7964,"Há»ĩ":7965,"TX":7966,"bÃ¡nh":7967,"cap":7968,"won":7969,"Ġkali":7970,"ĠnhÃ©t":7971,"Ġngáº£":7972,"ĠTÃł":7973,"ĠphÃł":7974,"ĠgiÃ´ng":7975,"Ġren":7976,"ĠCore":7977,"ĠSy":7978,"ĠLÄĲBÄĲ":7979,"ĠDol":7980,"ĠPhone":7981,"ĠtoÃ¡t":7982,"ĠFull":7983,"atin":7984,"ĠWeek":7985,"ithi":7986,"omo":7987,"...)":7988,"ĠZo":7989,"ĠJoh":7990,"ĠArthur":7991,"Ġ270":7992,"ows":7993,"ylian":7994,"ĠAirb":7995,"ĠLyon":7996,"ĠEnglish":7997,"ĠRoyal":7998,"ĠPolitico":7999,"Lo":8000,"MP":8001,"day":8002,"ru":8003,"sá»ĳ":8004,"wan":8005,"áº¢nh":8006,"Ġhave":8007,"ĠhÆ°Æ¡u":8008,"ĠchÃ¨n":8009,"ĠNational":8010,"ĠÄĲÃ¨n":8011,"ĠnghÃªnh":8012,"arez":8013,"ĠNháº±m":8014,"ĠCháº¥n":8015,"umer":8016,"ĠEner":8017,"Ġ1950":8018,"andr":8019,"ĠMarie":8020,"ĠLux":8021,"manuel":8022,"pend":8023,"ĠKhuÃª":8024,"ĠPlan":8025,"ense":8026,"ĠIndian":8027,"ĠYamal":8028,"ĠAMD":8029,"ĠAntony":8030,"Ġmarathon":8031,"League":8032,"Google":8033,"ĠFalcon":8034,"BÃ¡o":8035,"EG":8036,"TÃłu":8037,"Ġbáº¥p":8038,"ĠnÃªm":8039,"Ġnick":8040,"ĠMáº¯t":8041,"ĠAth":8042,"ĠLionel":8043,"ĠGT":8044,"ĠGun":8045,"ĠWay":8046,"Ġngá»£p":8047,"Ġ911":8048,"ĠOut":8049,"Äĳáº¡o":8050,"Äĳá»ĵng":8051,"aker":8052,"ĠLear":8053,"uture":8054,"2007":8055,"ĠErik":8056,"ĠNovaland":8057,"lá»«a":8058,"ĠRubiales":8059,"Carlos":8060,"ĠHaniyeh":8061,"LÃło":8062,"MÃ¹a":8063,"RC":8064,"VÅ©":8065,"aan":8066,"bá»Ļ":8067,"bÃłi":8068,"lÃ£i":8069,"má»Ł":8070,"máº¹":8071,"Ġvo":8072,"Ġbá»ĵ":8073,"ĠnÃ£":8074,"ĠCÃ¡n":8075,"ĠHáº¡n":8076,"ĠMáº¥t":8077,"aoke":8078,"ĠSho":8079,"ĠAle":8080,"ĠDáº«u":8081,"ĠGhi":8082,"Ġyour":8083,"ĠKhiÃªm":8084,"ĠFarm":8085,"ĠAnthony":8086,"Ġfentanyl":8087,"stal":8088,"ĠMinnes":8089,"ĠJeju":8090,"Cáº£":8091,"DS":8092,"bass":8093,"Ġball":8094,"Ġcháº¡p":8095,"ĠMG":8096,"ĠMáº¡c":8097,"ĠMini":8098,"ĠDÃłn":8099,"ĠGW":8100,"aton":8101,"ĠCNTT":8102,"ĠYout":8103,"Ġfanpage":8104,"ĠOrigin":8105,"ĠFinancial":8106,"ĠIndia":8107,"ĠJoshua":8108,"Ġcatwalk":8109,"iFone":8110,"ĠMinnesota":8111,"52":8112,"bau":8113,"nÄĥng":8114,"ĠkÃ©n":8115,"Ġphom":8116,"ĠHáº¿t":8117,"ĠVui":8118,"onto":8119,"ĠSom":8120,"ĠPac":8121,"Ġgá»ī":8122,"ental":8123,"phÃ¢n":8124,"avy":8125,"2005":8126,"ĠVinicius":8127,"ĠvÃµng":8128,"asonic":8129,"ĠMiller":8130,"ĠHoldings":8131,"EA":8132,"HÃłnh":8133,"ique":8134,"of":8135,"Ġex":8136,"ĠvÃ£n":8137,"Ġvuá»ĳt":8138,"Ġváº«y":8139,"ĠTuyá»ĥn":8140,"ĠNY":8141,"ĠNá»Ĺ":8142,"chiáº¿m":8143,"ĠBÃ¡n":8144,"ĠSuk":8145,"Ġyear":8146,"Ġngá»Ńa":8147,"ÄĲá»«ng":8148,"ÄĲá»ģ":8149,"hoÃłn":8150,"ĠNghiá»ĩp":8151,"ombo":8152,"ĠPerry":8153,"ĠJackson":8154,"Ġclip":8155,"burg":8156,"ĠTechnology":8157,"Ġtrekking":8158,"GD":8159,"Long":8160,"Vá»ģ":8161,"jin":8162,"nham":8163,"ĠlÃ³c":8164,"ĠthiÃªu":8165,"ĠphÆ°á»£ng":8166,"Æ°á»Ŀm":8167,"ĠNÃł":8168,"ĠCá»ķng":8169,"ĠCBS":8170,"ĠVu":8171,"ĠBÃ¨":8172,"ĠAS":8173,"ĠÄĲá»īnh":8174,"ollo":8175,"ĠJung":8176,"ĠHotel":8177,"Ġkhá»ıa":8178,"Phong":8179,"2003":8180,"iamond":8181,"usta":8182,"ĠIvy":8183,"ĠSHB":8184,"ĠÃļc":8185,"ĠDigital":8186,"ĠAcademy":8187,"ĠLutnick":8188,"ithium":8189,"86":8190,"cÃ¢y":8191,"tiáº¿ng":8192,"Ġáº¯c":8193,"Ġup":8194,"ĠcÃły":8195,"ĠsÃ¡":8196,"Ġsil":8197,"ĠchÃł":8198,"ĠcháºŃp":8199,"ĠTÃ¡i":8200,"Ġthá»ĳi":8201,"Ġcá»§i":8202,"ĠHur":8203,"chu":8204,"chÃ¡y":8205,"ĠBOT":8206,"ĠÄĲáº·t":8207,"ĠSat":8208,"ĠSÃ³ng":8209,"Ġhoay":8210,"ĠDy":8211,"ĠRing":8212,"ÄĲiá»ĥm":8213,"ĠOd":8214,"andy":8215,"Ġ175":8216,"NhÃ¬n":8217,"ĠElle":8218,"ĠEmma":8219,"ĠBlu":8220,"ĠBangladesh":8221,"ĠKaren":8222,"ĠLatin":8223,"'t":8224,"84":8225,"HS":8226,"kiá»ĥm":8227,"tan":8228,"Ġom":8229,"Ġcáº·n":8230,"ĠNÃºi":8231,"ĠCÃº":8232,"ĠHang":8233,"ais":8234,"ĠLib":8235,"aru":8236,"ĠQuyáº¿n":8237,"ĠkhoÃ¡":8238,"ĠUÃ´ng":8239,"ĠIoT":8240,"umber":8241,"ĠJin":8242,"ĠJersey":8243,"thiÃªn":8244,"ĠAnn":8245,"ChÃ¢n":8246,"ĠJoy":8247,"ĠCour":8248,"ĠMarketing":8249,"ĠÃĬkÃŃp":8250,"ĠDiaz":8251,"OpenAI":8252,"ĠEnergy":8253,".,":8254,"76":8255,"Má»¥c":8256,"Tik":8257,"káº»":8258,"lÃł":8259,"tiáº¿t":8260,"uay":8261,"Ġáº¡t":8262,"Ġtáº¥p":8263,"Ġve":8264,"Ġlon":8265,"Ġnano":8266,"ĠNu":8267,"ĠxAI":8268,"Ġque":8269,"ĠCur":8270,"ĠCard":8271,"ait":8272,"ĠBÃ¡t":8273,"ĠPeg":8274,"ĠDal":8275,"Ġká»µ":8276,"ĠIceland":8277,"ĠFace":8278,"Ġ102":8279,"ÄĲÃ£":8280,"ÄĲá»ĳi":8281,"ĠLev":8282,"Ġ1987":8283,"ĠCloud":8284,"ĠSerie":8285,"ĠGraham":8286,"ĠCTG":8287,"ĠJuventus":8288,"Ġsalad":8289,"89":8290,"Cá»±u":8291,"bá»ĭ":8292,"kov":8293,"vay":8294,"viá»ĩc":8295,"ĠÆ°Æ¡m":8296,"ĠvÃ¡ng":8297,"ĠnhÃµm":8298,"Ġcháº§n":8299,"ĠMI":8300,"Ġthuá»Ł":8301,"Ġbá»«a":8302,"ĠChalleng":8303,"ĠKhmer":8304,"uma":8305,"ĠOff":8306,"ĠOld":8307,"estay":8308,"khu":8309,"Ġ1984":8310,"ĠRoad":8311,"á»§i":8312,"ĠHawai":8313,"cmai":8314,"!\".":8315,"Hu":8316,"cáº¯t":8317,"kesh":8318,"tour":8319,"win":8320,"ĠkÃ¬nh":8321,"Ġmiá»ĩt":8322,"Ġnhá»ĭ":8323,"Ġgo":8324,"Ġquáº¥t":8325,"ĠCAD":8326,"ĠAst":8327,"Ġhom":8328,"Ġchá»īn":8329,"ĠRyan":8330,"imi":8331,"emis":8332,"ĠQueen":8333,"ĠmÃ´tÃ´":8334,"agan":8335,"ĠIndex":8336,"obe":8337,"Ġins":8338,"Indonesia":8339,"ĠVinpearl":8340,"ĠMoon":8341,"ĠExpress":8342,"Ġblue":8343,"irect":8344,"rovsk":8345,"ĠTony":8346,"ĠCenter":8347,"ngoáº¡i":8348,"Bra":8349,"Vá»¥":8350,"name":8351,"oon":8352,"Ġtáº©m":8353,"Ġtem":8354,"Ġthon":8355,"ĠgiÃ£":8356,"ĠNiá»ģm":8357,"Ġquáº©n":8358,"ĠHannah":8359,"ĠBV":8360,"Ġmá»įng":8361,"ĠÄĲT":8362,"ĠSL":8363,"ĠDáº¥u":8364,"ĠDall":8365,"aro":8366,"arro":8367,"arth":8368,"Ġloay":8369,"ĠFirst":8370,"ĠGiáº£ng":8371,"trÃªn":8372,"ĠMail":8373,"ĠCool":8374,"away":8375,"issa":8376,"ĠAdv":8377,"ĠLigue":8378,"ĠRafah":8379,"VIB":8380,"LÃ¢m":8381,"fer":8382,"ĠhÄĥng":8383,"Ġnáº¥y":8384,"Ġdá»Ļt":8385,"ĠTÃ´ng":8386,"Ġrá»ĵ":8387,"ĠCat":8388,"ĠHR":8389,"ĠHin":8390,"ĠMek":8391,"ĠTrude":8392,"ĠSá»":8393,"ĠAaron":8394,"ĠKiá»ĩn":8395,"ĠKit":8396,"Ġbá»¥c":8397,"ĠThá»Ń":8398,"ĠWu":8399,"ĠJong":8400,"Ġngá»©a":8401,"lee":8402,"ĠHoward":8403,"ĠOCB":8404,"Äĳáº¥t":8405,"ĠLex":8406,"NhÃ¢n":8407,"ĠCoin":8408,"ĠCru":8409,"ĠEnter":8410,"ĠDaniil":8411,"ĠTravel":8412,"ĠNepal":8413,"Ġworkshop":8414,"ĠMourinho":8415,"53":8416,"74":8417,"FF":8418,"Ká»³":8419,"Mal":8420,"oz":8421,"Ġtennis":8422,"Ġmin":8423,"ĠnÃ¡u":8424,"ĠNev":8425,"ĠráºŃm":8426,"ĠrÆ¡m":8427,"ĠSaint":8428,"ĠPort":8429,"ĠNháºŃp":8430,"Ġbá»ĵng":8431,"Ġá»Ĳ":8432,"ĠRune":8433,"ading":8434,"ĠthÃ¬a":8435,"ĠMarco":8436,"NhÆ°":8437,"riot":8438,"ender":8439,"ĠMacBook":8440,"ĠPete":8441,"ĠCreta":8442,"ĠVenice":8443,"ĠbÆ°á»Ľm":8444,"ĠToronto":8445,"ĠJapan":8446,"ĠTrudeau":8447,"Há»":8448,"Xe":8449,"hinha":8450,"ret":8451,"week":8452,"Ġare":8453,"Ġtitan":8454,"Ġcháº±ng":8455,"ĠTÃ³m":8456,"ĠphÆ°á»£t":8457,"ĠxÃŃu":8458,"ĠquáºŃt":8459,"ĠCP":8460,"ĠManh":8461,"ĠSáº¯p":8462,"ĠLáº¥y":8463,"ĠDiamond":8464,"ĠPhÃ¹":8465,"á»įt":8466,"Ġnhá»īnh":8467,"ĠWit":8468,"ĠUSA":8469,"inger":8470,"Ġoan":8471,"uber":8472,"ĠBarron":8473,"QuÃ¢n":8474,"ĠBHYT":8475,"ĠDonbass":8476,"ĠAllen":8477,"syk":8478,"ovakia":8479,"view":8480,"ĠGrok":8481,"ĠFestival":8482,"ĠMunich":8483,"ĠJessica":8484,"Brazil":8485,"MÃ¡y":8486,"Pod":8487,"WA":8488,"bu":8489,"tÃ´i":8490,"Ġtáº¡t":8491,"Ġláº§u":8492,"ĠgiÃłn":8493,"Ġhá»§":8494,"ĠHá»Ļp":8495,"ĠBre":8496,"Ġnghiá»ģn":8497,"ĠPixel":8498,"ĠKer":8499,"ĠChÃº":8500,"eld":8501,"ĠRang":8502,"ĠRuss":8503,"Ġnhá»ĩn":8504,"ĠQue":8505,"ities":8506,"ÄĲÆ°á»£c":8507,"tha":8508,"Ġcaffe":8509,"ents":8510,"Phim":8511,"irut":8512,"ĠPhá»Ľc":8513,"ĠStefan":8514,"Ġcocktail":8515,"1997":8516,"heng":8517,"Ġmá»īm":8518,"ĠColorado":8519,"BO":8520,"Cao":8521,"Car":8522,"Hz":8523,"RT":8524,"ae":8525,"báº¡n":8526,"die":8527,"rin":8528,"ĠÄĳÃºp":8529,"Ġvest":8530,"Ġlithium":8531,"Ġbáº§m":8532,"ĠmÆ°Æ¡i":8533,"Ġdang":8534,"ĠTB":8535,"ĠTÃło":8536,"ĠxÃ´n":8537,"ĠrÃ¬a":8538,"ĠAustin":8539,"ĠLáº¯k":8540,"ĠUsyk":8541,"ĠKhÃ³":8542,"Ġ512":8543,"ĠGiÃ¢y":8544,"Ġngá»¥c":8545,"ĠYáº¿u":8546,"ĠAnna":8547,"ĠInde":8548,"Khu":8549,"KhÃ¡ch":8550,"ĠGarcia":8551,"ĠWalz":8552,"encia":8553,"ottenham":8554,"Ġshipper":8555,"CÃ¡":8556,"Gal":8557,"Sáº£n":8558,"Toy":8559,"Vua":8560,"Xu":8561,"enh":8562,"mad":8563,"rie":8564,"xÃ¢y":8565,"ĩch":8566,"Ġte":8567,"ĠcÃło":8568,"Ġváº·n":8569,"ĠlÃºn":8570,"ĠsÃ²ng":8571,"Ġnhung":8572,"ĠNáºŃm":8573,"ĠCH":8574,"ĠCI":8575,"ĠVÃ´":8576,"ĠVai":8577,"ĠSina":8578,"ĠhoÃ¡n":8579,"ĠPam":8580,"ĠChÃªnh":8581,"ĠKhan":8582,"ĠKhiáº¿t":8583,"ĠFe":8584,"ĠFab":8585,"ĠFashion":8586,"umi":8587,"led":8588,"terte":8589,"ĠThuá»Ļt":8590,"illi":8591,"gios":8592,"ĠDuterte":8593,"Ġ1985":8594,"ĠAndreeva":8595,"ĠRomania":8596,"Khoa":8597,"ĠStudio":8598,"ĠSarah":8599,"ĠNVL":8600,"ĠPokrovsk":8601,"VR":8602,"máº·t":8603,"sÃ¢n":8604,"vá»£":8605,"¨m":8606,"Ġgas":8607,"ĠchÃłi":8608,"Ġpar":8609,"ĠTáº¥m":8610,"ĠTÃ³c":8611,"ĠNay":8612,"ĠxÃ³t":8613,"Ġray":8614,"ĠCÃ¹":8615,"ĠBry":8616,"ĠSá»¯a":8617,"ĠThung":8618,"ĠPang":8619,"Ġgiá»Ĺ":8620,"ĠKas":8621,"ĠDun":8622,"ĠGard":8623,"ĠGolf":8624,"ĠYa":8625,"Ġcabin":8626,"Äĳá»ĥ":8627,"utt":8628,"Ġxuá»ĵng":8629,"Ġwas":8630,"ffee":8631,"quáº£n":8632,"ĠBeirut":8633,"endo":8634,"ĠPatriot":8635,"tario":8636,"ĠVivo":8637,"IELTS":8638,"Xin":8639,"ous":8640,"pink":8641,"Æ¯":8642,"ĠlÆ°Æ¡n":8643,"ĠsÃ²":8644,"Ġsáº£nh":8645,"Ġmg":8646,"Ġhe":8647,"Ġghá»":8648,"ĠchÆ°á»Ľng":8649,"Ġkhinh":8650,"Ġthá»«ng":8651,"Ġchá»ķi":8652,"ĠCang":8653,"ĠHNX":8654,"ĠVers":8655,"ĠÄĲáº±ng":8656,"Ġlá»©t":8657,"ĠLáº¡i":8658,"ĠPep":8659,"ĠPitt":8660,"Ġ320":8661,"ĠKham":8662,"isha":8663,"olas":8664,"roy":8665,"ilot":8666,"Ġ126":8667,"Triá»ĥn":8668,"Ġ163":8669,"Pháº§n":8670,"ĠLeon":8671,"Ġ178":8672,"oul":8673,"astic":8674,"1999":8675,"ĠClinton":8676,"ĠAlpha":8677,"ĠOleks":8678,"ĠRebecca":8679,"ĠRachel":8680,"750":8681,"Bl":8682,"Il":8683,"Iran":8684,"hÃ´n":8685,"san":8686,"ws":8687,"±a":8688,"Ġad":8689,"ĠlÃ¡n":8690,"Ġbus":8691,"ĠxÃ¨o":8692,"ĠCS":8693,"ĠCÄĥng":8694,"ĠHAG":8695,"ĠMIT":8696,"aire":8697,"ĠBad":8698,"ĠBoy":8699,"ĠPPP":8700,"ĠKáº¡n":8701,"ĠKera":8702,"ĠGPA":8703,"ĠGyeong":8704,"ĠkhoÃ¡i":8705,"ĠUs":8706,"ĠUEFA":8707,"Ġhá»ĩt":8708,"Ġsolo":8709,"Ġ104":8710,"ĠWom":8711,"ĠETF":8712,"ĠUSAID":8713,"ĠXáº¿p":8714,"Ġcá»ĳp":8715,"agement":8716,"TráºŃn":8717,"odo":8718,"ĠAlf":8719,"ĠZalo":8720,"estyle":8721,"Ġtá»ĩp":8722,"ylon":8723,"ĠCollin":8724,"ĠMont":8725,"ials":8726,"ĠApollo":8727,"ĠCyber":8728,"Ġkaraoke":8729,"Lago":8730,"Sá»ĳng":8731,"tá»©c":8732,"uyin":8733,"ĠCu":8734,"ĠBart":8735,"Ġlá»Ńng":8736,"ĠDáº«n":8737,"ĠDmit":8738,"ĠGau":8739,"ĠFul":8740,"eman":8741,"ĠÄĲá»Ŀi":8742,"umb":8743,"Ġchuá»ĵng":8744,"Äĳá»ķi":8745,"inez":8746,"ĠIshi":8747,"quan":8748,"KhÃ¡nh":8749,"ĠVIP":8750,"koff":8751,"ĠMBB":8752,"ĠGabri":8753,"CD":8754,"Mas":8755,"Mac":8756,"PNJ":8757,"Tá»ķ":8758,"ht":8759,"lic":8760,"nia":8761,"tÃŃn":8762,"wang":8763,"zen":8764,"ĠÄĳáº£":8765,"Ġnhá»įc":8766,"Ġcá»ĵng":8767,"Ġxua":8768,"anol":8769,"ĠCorn":8770,"ĠHÃ³c":8771,"ĠMua":8772,"ĠMÃłu":8773,"ĠBÃ´ng":8774,"ĠKath":8775,"ĠDiá»ĩn":8776,"Ġbá»¡":8777,"ĠKha":8778,"ĠFire":8779,"asa":8780,"ĠUSS":8781,"oma":8782,"akers":8783,"ĠShel":8784,"Ġ1982":8785,"attan":8786,"bohyd":8787,"ĠHanoi":8788,"Giá»Ľi":8789,"ĠJimmy":8790,"ĠMobiFone":8791,"ĠValentine":8792,"Ġhomestay":8793,"Ġghá»ģ":8794,"+,":8795,"Má»©c":8796,"aac":8797,"back":8798,"eff":8799,"ná»¯":8800,"sai":8801,"Ġ#":8802,"Ġláº«y":8803,"Ġbáº§y":8804,"ĠbÃ¡u":8805,"ĠsÃŃt":8806,"ĠnhÃŃch":8807,"Ġnháº¥p":8808,"ĠnÃ´":8809,"Ġder":8810,"chÃ¢u":8811,"ĠVang":8812,"ĠBox":8813,"ĠTran":8814,"ĠTrÃ¹ng":8815,"ĠSor":8816,"ĠLet":8817,"ĠQuáº¥t":8818,"ĠNhÃ¬":8819,"ĠloÃ©t":8820,"ĠRO":8821,"etz":8822,"Ġ101":8823,"ĠWings":8824,"ĠJP":8825,"ĠStone":8826,"esting":8827,"ower":8828,"CCI":8829,"ĠOntario":8830,"ĠMagic":8831,"ĠWarren":8832,"ĠWhit":8833,"inness":8834,"riting":8835,"ĠSecur":8836,"ĠGRDP":8837,"ĠKyrgios":8838,"Ġnickname":8839,"ĠHawaii":8840,"Cl":8841,"HEV":8842,"Kim":8843,"báº£n":8844,"gie":8845,"ior":8846,"tá»ķng":8847,"ways":8848,"á»ħ":8849,"Ġlive":8850,"Ġthis":8851,"ĠchÃ³i":8852,"ĠngÃłi":8853,"ĠngÃ¢y":8854,"ĠngÃ¡ch":8855,"eno":8856,"arus":8857,"ĠIan":8858,"ĠImp":8859,"ĠRio":8860,"ĠThá»©c":8861,"ĠOxy":8862,"andra":8863,"phia":8864,"khÃ¡ch":8865,"Ġ260":8866,"ĠVincent":8867,"ĠGuinness":8868,"ĠNewsweek":8869,"ĠTSMC":8870,"ĠDior":8871,"ĠSae":8872,"ghan":8873,"rena":8874,"ĠFinance":8875,"onso":8876,"ĠJacob":8877,"ĠQualcomm":8878,"pendent":8879,"93":8880,"Arab":8881,"Ass":8882,"NT":8883,"cÃ²n":8884,"card":8885,"get":8886,"iy":8887,"vÅ©":8888,"Ġar":8889,"nháº¡c":8890,"ĠÄĳiá»ģm":8891,"Ġthá»Ńa":8892,"ĠHack":8893,"ĠBack":8894,"ĠLiv":8895,"ĠKor":8896,"ĠKhÃ¡m":8897,"ĠFE":8898,"Ġ127":8899,"phim":8900,"ĠMars":8901,"ĠLuis":8902,"ify":8903,"ichi":8904,"ĠCannes":8905,"ĠMartinez":8906,"ĠLauren":8907,"ĠNoel":8908,"ĠVPB":8909,"ĠIvan":8910,"ChatGPT":8911,"bohydrate":8912,"báº§u":8913,"bek":8914,"mÃ³n":8915,"wen":8916,"xin":8917,"ĠÄĳáº«m":8918,"ĠmÃ¡c":8919,"ĠmiÃªn":8920,"Ġmiá»ĩn":8921,"ĠTÆ°á»Łng":8922,"ĠCá»ĳng":8923,"ĠHav":8924,"ĠMÃł":8925,"ĠAB":8926,"ĠLil":8927,"ĠGon":8928,"imer":8929,"andro":8930,"ĠLanka":8931,"ĠmÃ£nh":8932,"Ġinternet":8933,"care":8934,"ĠSlovakia":8935,"anium":8936,"ĠWales":8937,"COM":8938,"ĠÃĶn":8939,"ĠRaphinha":8940,"CoV":8941,"ME":8942,"ject":8943,"nay":8944,"sao":8945,"ĠÄĳÃ¡i":8946,"Ġle":8947,"Ġcháº¯t":8948,"Ġdes":8949,"ĠxÃ³c":8950,"ĠCB":8951,"ĠHáº£o":8952,"ĠHelen":8953,"ĠÄĲÃ¡m":8954,"ĠPGA":8955,"Ġgiá»ħu":8956,"ĠRN":8957,"ative":8958,"hing":8959,"ĠWes":8960,"ĠXforce":8961,"ĠAnne":8962,"ChÃ¢u":8963,"ĠDouyin":8964,"phy":8965,"Ġ1983":8966,"conn":8967,"ĠsuÃ´ng":8968,"ĠStarb":8969,"ĠPeru":8970,"ĠSTB":8971,"Ġstudio":8972,"EVN":8973,"Há»ĵ":8974,"IP":8975,"nÃ´ng":8976,"Ġtrue":8977,"Ġtháº£n":8978,"Ġsc":8979,"ĠsÃ¡o":8980,"Ġnhang":8981,"Ġdáº³ng":8982,"Ġngáº¥t":8983,"ĠTen":8984,"Ġquai":8985,"Ġchá»ĳn":8986,"ĠCáº©n":8987,"aine":8988,"ĠKlo":8989,"ĠChar":8990,"ĠRoll":8991,"ĠGil":8992,"road":8993,"ĠHow":8994,"ĠYaris":8995,"thay":8996,"trá»«":8997,"ovo":8998,"Ġ144":8999,"ould":9000,"erse":9001,"ĠSpe":9002,"ĠSoobin":9003,"ĠStarmer":9004,"ĠHonor":9005,"ĠMinaur":9006,"ĠFlip":9007,"TikTok":9008,"71":9009,"Pl":9010,"cá»ĳ":9011,"dáº¡y":9012,"ij":9013,"rol":9014,"sp":9015,"Ġtele":9016,"Ġváº¯n":9017,"áº¿ng":9018,"Ġná»į":9019,"ĠnCoV":9020,"Ġchuá»Ļc":9021,"Ġlá»£p":9022,"ĠSak":9023,"ĠSix":9024,"ĠLight":9025,"á»ķn":9026,"ĠChim":9027,"elson":9028,"uad":9029,"ĠWHO":9030,"ĠJar":9031,"ĠJas":9032,"ĠJake":9033,"Ġngá»¥y":9034,"thÃ´ng":9035,"tháº§n":9036,"oks":9037,"Äĳo":9038,"Ġ117":9039,"phÃºt":9040,"ĠoÃ¡n":9041,"eller":9042,"ĠJoel":9043,"axi":9044,"estern":9045,"EFL":9046,"ĠKenya":9047,"ĠCentral":9048,"ĠMotor":9049,"ĠHelper":9050,"ĠWitkoff":9051,"KV":9052,"Tiáº¿n":9053,"vá»¥":9054,"há»Ļ":9055,"ĠmÃ©p":9056,"Ġniá»ĩu":9057,"ĠgÃ¡y":9058,"ĠTottenham":9059,"ĠNCB":9060,"Ġchá»ĩch":9061,"chung":9062,"ĠBlockchain":9063,"ono":9064,"ĠTháºŃp":9065,"ĠTháº»":9066,"áº«ng":9067,"ĠChÃ¹a":9068,"orim":9069,"Ġnhá»¥c":9070,"CMP":9071,"Äĳá»ģ":9072,"Ġview":9073,"Ġ118":9074,"ineken":9075,"hou":9076,"ĠIsk":9077,"2002":9078,"quÃ¡":9079,"ĠMorgan":9080,"ĠPanasonic":9081,"ĠSilicon":9082,"ĠÃļt":9083,"ĠScotland":9084,"ĠNestlÃ©":9085,"ĠMekong":9086,"Pods":9087,"HD":9088,"Joe":9089,"PB":9090,"SJC":9091,"ces":9092,"uter":9093,"vÃ¹ng":9094,"áºµn":9095,"ĠÄĳÃ´n":9096,"Ġtráº§y":9097,"ĠhÃ³c":9098,"ĠnhÃ´":9099,"Ġgiáº¿ng":9100,"ĠNar":9101,"Ġxá»ķ":9102,"Ãºm":9103,"chÃºng":9104,"ĠMÃ¢y":9105,"ĠVTV":9106,"ĠBÆ°u":9107,"ĠBat":9108,"ĠSora":9109,"ĠGav":9110,"ĠNhiáº¿p":9111,"ĠChiá»ĥu":9112,"elif":9113,"ustr":9114,"thuá»Ļc":9115,"ĠAna":9116,"oka":9117,"ÄĳÃło":9118,"Ġ119":9119,"hoáº·c":9120,"PhÃ¢n":9121,"aze":9122,"ĠCooper":9123,"ĠBeat":9124,"ĠMcIl":9125,"ĠChristian":9126,"ĠMichelle":9127,"ĠGeorgina":9128,"ĠIndependent":9129,"Ná»Ļi":9130,"bie":9131,"cy":9132,"poke":9133,"sik":9134,"tá»ĳi":9135,"tic":9136,"Ġcup":9137,"Ġhack":9138,"Ġnew":9139,"Ġthá»ĩ":9140,"ĠNá»¥":9141,"ĠrÆ°á»Ľc":9142,"ĠCUV":9143,"ĠHor":9144,"ĠVision":9145,"Ã²e":9146,"Ġ230":9147,"ĠSeal":9148,"ĠLá»ĳi":9149,"ĠKÃªnh":9150,"ĠKylian":9151,"ĠDor":9152,"ĠGiÃªng":9153,"ĠYour":9154,"Ġrá»¥i":9155,"Ġphá»¥ng":9156,"ĠOpt":9157,"tháº¿":9158,"ĠNhá»ĭ":9159,"Äĳá»ĳi":9160,"Ġgá»Ŀ":9161,"ivan":9162,"ĠStand":9163,"ĠManagement":9164,"ĠBarack":9165,"ĠGukesh":9166,"Ġ1976":9167,"ĠVIII":9168,"ĠCrime":9169,"ĠTeam":9170,"ĠPaula":9171,"ĠYoutube":9172,"ĠQueens":9173,"Toyota":9174,"Cola":9175,"DN":9176,"OLED":9177,"ST":9178,"TÃ¢n":9179,"VCB":9180,"cer":9181,"hot":9182,"ios":9183,"pson":9184,"Ġáº£m":9185,"Ġvoucher":9186,"Ġnung":9187,"ĠCle":9188,"ĠHÃ´n":9189,"ĠBÃºn":9190,"ĠPT":9191,"ĠGÃ³i":9192,"ĠGame":9193,"ĠUOB":9194,"eless":9195,"ĠRun":9196,"ĠJuan":9197,"abi":9198,"ĠMusetti":9199,"Ġbuá»ĵm":9200,"ĠAmorim":9201,"peed":9202,"ĠPlaza":9203,"ĠBush":9204,"ĠSony":9205,"ĠCuba":9206,"ĠElec":9207,"ĠSuzuki":9208,"Ġinsulin":9209,"ĠIskander":9210,"ĠMcIlroy":9211,"82":9212,"Dragon":9213,"Hamas":9214,"Jannik":9215,"Quyáº¿t":9216,"Tá»·":9217,"tiÃªu":9218,"zha":9219,"Ġall":9220,"ĠTÃŃch":9221,"Ġthá»ģ":9222,"cháº¡y":9223,"ĠVie":9224,"ĠBul":9225,"ĠSuy":9226,"ĠSÃ¡n":9227,"ĠLop":9228,"ĠKay":9229,"ĠGog":9230,"elf":9231,"....":9232,"ador":9233,"Äĳáº·c":9234,"ako":9235,"ĠZone":9236,"abe":9237,"Ġoanh":9238,"Ġ280":9239,"Ġ1972":9240,"1995":9241,"rayaan":9242,"ĠSolut":9243,"Techcombank":9244,"ĠClaude":9245,"61":9246,"Deep":9247,"SB":9248,"má»©c":9249,"mond":9250,"vá»ĩ":9251,"wer":9252,"ĠtrÃ¹":9253,"ĠthÃł":9254,"ĠsÃłnh":9255,"Ġdáº¡t":9256,"ĠTáº§ng":9257,"Ġphin":9258,"ĠCiv":9259,"ĠHub":9260,"ĠTrÃłng":9261,"ĠPon":9262,"ĠKÃŃch":9263,"Ġsá»į":9264,"Ġkhoanh":9265,"ĠKhelif":9266,"ĠIR":9267,"emb":9268,"Ġná»ĩ":9269,"ĠWoo":9270,"Ġ1930":9271,"Cho":9272,"hoo":9273,"Ġnhá»Ŀn":9274,"khÃ³":9275,"ĠElite":9276,"ĠInteresting":9277,"ĠAnderson":9278,"ĠYoo":9279,"Ġ1979":9280,"ĠArtemis":9281,"ĠImag":9282,"ĠVNDirect":9283,"ĠAfghan":9284,"ĠWindows":9285,"ĠTAND":9286,"ÄĲoÃłn":9287,"130":9288,"La":9289,"SÆ¡n":9290,"WHO":9291,"nus":9292,"rent":9293,"vá»Ľi":9294,"Ġteen":9295,"Ġvali":9296,"Ġlá»ĳc":9297,"ĠmÃło":9298,"ĠmÃ©o":9299,"ĠxÃłi":9300,"ĠrÃ¢m":9301,"ĠCast":9302,"ĠCSG":9303,"ĠMÆ°a":9304,"ĠVes":9305,"onia":9306,"amy":9307,"amine":9308,"ĠThiá»ģu":9309,"ĠKan":9310,"ĠPhÃŃ":9311,"ĠPhÃ³ng":9312,"ĠUd":9313,"ĠWir":9314,"thiáº¿u":9315,"ĠKhoáº£nh":9316,"olla":9317,"annel":9318,"Ġcarbohydrate":9319,"ĠSlim":9320,"1996":9321,"lá»ħ":9322,"ĠRublev":9323,"III":9324,"Ġháº»o":9325,"ĠTravis":9326,"ĠRobotics":9327,"ĠAfghanistan":9328,"05":9329,"HáºŃu":9330,"IR":9331,"bÃŃ":9332,"box":9333,"iu":9334,"Ġcuá»ĳc":9335,"ĠtrÃ³c":9336,"Ġbiáº¿u":9337,"ĠmÃŃa":9338,"Ġdáº·m":9339,"ĠNag":9340,"ĠriÃªu":9341,"ĠCá»ĳc":9342,"ĠHum":9343,"ĠVÆ°á»£t":9344,"Ġmá»§":9345,"ĠLÃ¡":9346,"ĠLÃ£i":9347,"ĠPear":9348,"ĠKiá»ĥu":9349,"ĠDh":9350,"ĠnhÃło":9351,"Ġyáº¿m":9352,"ĠFund":9353,"etooth":9354,"Ġ103":9355,"Ġrá»Ľt":9356,"Ġ121":9357,"Ġ112":9358,"ubu":9359,"Ġfrom":9360,"ĠHarper":9361,"rien":9362,"ĠmuÃ´n":9363,"Ġtá»īa":9364,"Ġ1968":9365,"ĠVolvo":9366,"osterone":9367,"ĠDream":9368,"Ġbluechip":9369,"ĠManhattan":9370,"CP":9371,"Mo":9372,"Space":9373,"Tá»«ng":9374,"VÆ°Æ¡ng":9375,"bÃ¬nh":9376,"rig":9377,"ress":9378,"ĠcÆ°á»¡i":9379,"ĠvÃ´i":9380,"Ġváº§y":9381,"ĠbÃ¨o":9382,"Ġmáº«n":9383,"Ġchá»£t":9384,"ĠCall":9385,"ĠMáº¥y":9386,"ĠMis":9387,"ĠMick":9388,"ĠMorning":9389,"ĠVisa":9390,"ĠSCMP":9391,"ĠLiá»ħu":9392,"ĠTháº¯m":9393,"ĠPaper":9394,"Ġtrá»įt":9395,"Ġtuá»³":9396,"Ġ550":9397,"ĠThá»Ľi":9398,"adh":9399,"edd":9400,"abeu":9401,"ulf":9402,"loáº¡i":9403,"ĠChile":9404,"thá»©":9405,"ĠWaltz":9406,"ĠEdward":9407,"ĠEnd":9408,"ĠCOP":9409,"ĠStanley":9410,"ĠCasper":9411,"ĠHasaki":9412,"Ġomega":9413,"ĠCSGT":9414,"87":9415,"AA":9416,"En":9417,"LÆ°u":9418,"Raf":9419,"cáº£m":9420,"cos":9421,"cou":9422,"ef":9423,"kai":9424,"pto":9425,"rett":9426,"uo":9427,"ĠtrÅ©ng":9428,"Ġsim":9429,"Ġnháº£":9430,"Ġden":9431,"ĠTÆ°á»Ľng":9432,"ĠHard":9433,"chan":9434,"ĠTrÃ²":9435,"ĠLeo":9436,"ĠKi":9437,"ĠDáº¡":9438,"ĠGaga":9439,"ĠUFC":9440,"orm":9441,"ĠRS":9442,"ĠFT":9443,"ĠFuk":9444,"Ġsoda":9445,"ÄĲÃ´i":9446,"tháº¥t":9447,"tráº¡m":9448,"ĠTHE":9449,"ĠArena":9450,"ĠConnect":9451,"ĠEmmanuel":9452,"lá»£i":9453,"ADA":9454,"akhstan":9455,"ĠBernabeu":9456,"ĠBradley":9457,"ĠHKD":9458,"AB":9459,"Box":9460,"HOCMAI":9461,"Lá»±c":9462,"Ninh":9463,"TÃ²a":9464,"Wonder":9465,"bul":9466,"cc":9467,"je":9468,"nuÃ´i":9469,"vÆ°á»£t":9470,"ww":9471,"Ġcuá»ĳng":9472,"Ġbiáº¿m":9473,"Ġmáº©n":9474,"Ġná»įc":9475,"ĠTá»ĳ":9476,"ĠTang":9477,"ĠNight":9478,"ĠxÃ³i":9479,"ĠrÃªu":9480,"ĠrÃ£nh":9481,"ĠSaf":9482,"ĠLH":9483,"ĠDer":9484,"Ġá»ıi":9485,"ĠGiáº£":9486,"ĠGiáº¥c":9487,"ĠJak":9488,"ĠOdy":9489,"ChÆ°a":9490,"azz":9491,"azut":9492,"antic":9493,"antis":9494,"ĠTiki":9495,"ĠTiktok":9496,"ĠExpo":9497,"Ġkáº½m":9498,"ĠStudy":9499,"ĠThoáº¡i":9500,"ĠLearning":9501,"Malaysia":9502,"09":9503,"DO":9504,"Háº§u":9505,"Khá»":9506,"Sc":9507,"jan":9508,"mm":9509,"tÃŃnh":9510,"tent":9511,"tá»ĳt":9512,"Ġel":9513,"Ġab":9514,"Ġtáº©u":9515,"ĠÄĳiáº¿u":9516,"Ġbai":9517,"Ġsáº¯n":9518,"Ġsand":9519,"Ġmazut":9520,"Ġgáº¯p":9521,"ĠTáº¡ng":9522,"ĠNot":9523,"ĠHáº¡o":9524,"ĠPhÃ¡i":9525,"esa":9526,"Ġná»©c":9527,"ĠXT":9528,"adel":9529,"ĠNhá»Ľ":9530,"erty":9531,"ĠCoca":9532,"Ġshowroom":9533,"ĠBusan":9534,"ĠPanama":9535,"ĠMillenn":9536,"amboo":9537,"ĠSudzha":9538,"ĠCrystal":9539,"ĠÄĲTQG":9540,"Galaxy":9541,"ĠOleksandr":9542,"ĠGogh":9543,"Ġdenim":9544,".\"":9545,"Covid":9546,"DT":9547,"GB":9548,"SÃ¡ch":9549,"Viá»ĩn":9550,"Vol":9551,"bas":9552,"cáº¥p":9553,"má»ĳi":9554,"oit":9555,"sáº¯p":9556,"Ġtal":9557,"Ġcá»Ļ":9558,"Ġtrend":9559,"Ġmáº£i":9560,"ĠmÃ¨":9561,"ĠTiá»ĩm":9562,"uya":9563,"ĠxÃŃ":9564,"ĠMÃª":9565,"ĠMens":9566,"Ġmá»©t":9567,"aud":9568,"ĠKa":9569,"ĠKem":9570,"ĠGM":9571,"ĠRF":9572,"Ġngá»Ńi":9573,"tham":9574,"tráº£":9575,"Ġvá»ĩt":9576,"ÄĳÆ¡n":9577,"hoa":9578,"ĠLuÃ´n":9579,"ecom":9580,"daq":9581,"ĠAirPods":9582,"ĠDef":9583,"ĠPalis":9584,"ĠEdition":9585,"ĠBetis":9586,"ĠZoom":9587,"ĠCornell":9588,"ĠOptim":9589,"83":9590,"Báº£n":9591,"RX":9592,"TN":9593,"Video":9594,"cá»©":9595,"lÃŃt":9596,"nÃ³ng":9597,"pin":9598,"há»Ĺ":9599,"ĠsÃ¹ng":9600,"Ġmatch":9601,"Ġháº«ng":9602,"ĠngÃłng":9603,"Ġxiáº¿c":9604,"ĠCÆ°":9605,"ĠHamp":9606,"ĠMÃ¹":9607,"ĠSÆ°Æ¡ng":9608,"ĠSara":9609,"Ġngháº¹n":9610,"ĠLÅ©":9611,"ĠLá»±a":9612,"ĠÄĳÃ£ng":9613,"ĠKal":9614,"ĠKings":9615,"ĠPham":9616,"Ġtoan":9617,"ĠIQ":9618,"ĠWW":9619,"ĠEC":9620,"ural":9621,"Ġ155":9622,"Ġgá»ĵng":9623,"ĠTuÃ¢n":9624,"ough":9625,"yland":9626,"ĠMonet":9627,"ĠGala":9628,"inds":9629,"ĠPalm":9630,"ĠWilson":9631,"phá»ĳ":9632,"ĠnhoÃ¡ng":9633,"tuáº§n":9634,"ĠChandrayaan":9635,"ĠAudi":9636,"ĠBespoke":9637,"ĠDynam":9638,"ĠOxygen":9639,"180":9640,"97":9641,"Group":9642,"HÃ¬nh":9643,"HÃ²a":9644,"Máº«u":9645,"Mind":9646,"SiÃªu":9647,"Un":9648,"feng":9649,"lett":9650,"mÃ´n":9651,"tÃ¡c":9652,"tÃ¡i":9653,"ual":9654,"xanh":9655,"ĠÃ¡t":9656,"Ġuáº¥t":9657,"Ġday":9658,"ĠMap":9659,"ĠMTV":9660,"Ġlá»«ng":9661,"ĠThÃ¡m":9662,"ĠPav":9663,"ĠPass":9664,"ĠDI":9665,"ĠGang":9666,"Ġbá»ĭa":9667,"ĠFTS":9668,"ĠEco":9669,"usion":9670,"ĠOtt":9671,"Ġ111":9672,"190":9673,"ĠMario":9674,"khÃŃ":9675,"Thá»¥y":9676,"chá»ĭ":9677,"chá»ĵng":9678,"endy":9679,"ansas":9680,"1998":9681,"attle":9682,"ĠHeavy":9683,"ĠNova":9684,"ĠMelania":9685,"ĠRoberts":9686,"ĠSean":9687,"ĠVancou":9688,"cheon":9689,"Giá»¯a":9690,"ĠÃĶtÃ´":9691,"khá»Łi":9692,"ĠReno":9693,"ĠBellingham":9694,"ĠCruise":9695,"ĠYahoo":9696,"ĠVancouver":9697,"'m":9698,"SD":9699,"cÃ¡n":9700,"kus":9701,"light":9702,"má»¹":9703,"vÃ²ng":9704,"Ġur":9705,"Ġcombo":9706,"Ġbot":9707,"Ġsne":9708,"ĠnhÃºng":9709,"ĠngáºŃy":9710,"Ġhá»ĳt":9711,"ĠSay":9712,"ĠAgent":9713,"ĠDÄ©nh":9714,"Ġ2045":9715,"ĠIng":9716,"ices":9717,"ushi":9718,"ĠChá»ĳng":9719,"Pháº£i":9720,"ĠLeav":9721,"ĠRec":9722,"anka":9723,"iller":9724,"iane":9725,"ĠShang":9726,"Ġtime":9727,"ffet":9728,"ĠDurov":9729,"ĠClark":9730,"ĠServ":9731,"ĠHermos":9732,"ĠNature":9733,"ĠStarliner":9734,"ĠDomin":9735,"ĠTOEFL":9736,"ĠTalent":9737,"ĠLexus":9738,"ĠCivic":9739,"Ġná»ĩm":9740,"As":9741,"BÃªn":9742,"drone":9743,"pot":9744,"tuá»ķi":9745,"xÃ©t":9746,"ĠcÃ²":9747,"Ġtrá»ķ":9748,"Ġbox":9749,"Ġháº£":9750,"Ġgara":9751,"ĠTiá»ĩp":9752,"Ġthá»ĳt":9753,"ĠNations":9754,"ĠNumber":9755,"ĠCit":9756,"Ġ210":9757,"ĠTrue":9758,"ĠSung":9759,"ĠLem":9760,"ĠhoÃł":9761,"ĠPAC":9762,"ĠDamas":9763,"ĠGPS":9764,"ario":9765,"ĠWriting":9766,"ĠcÃ¡u":9767,"oker":9768,"eda":9769,"Cha":9770,"ĠHye":9771,"ĠNghÄ©":9772,"ĠCanxi":9773,"ĠGuide":9774,"Ġruá»ĵi":9775,"ĠMonte":9776,"ĠMedic":9777,"ĠWalker":9778,"Ġblazer":9779,"amilton":9780,"castle":9781,"ĠYamaha":9782,"ĠJulia":9783,"ĠMega":9784,"ĠTask":9785,"ĠJensen":9786,"ĠAshley":9787,"ĠGavin":9788,"DeepSeek":9789,"+.":9790,"51":9791,"Huawei":9792,"Jo":9793,"MB":9794,"Sun":9795,"Tiá»ĥu":9796,"Top":9797,"bÆ¡i":9798,"mun":9799,"rence":9800,"Ġmuá»ĳng":9801,"Ġhan":9802,"ĠHU":9803,"ĠHá»ķ":9804,"ĠMem":9805,"ĠVáº«n":9806,"ĠBard":9807,"ĠBali":9808,"Ġlá»ıi":9809,"ĠSur":9810,"ĠLl":9811,"ĠLit":9812,"ĠLLM":9813,"ĠThiá»ĩu":9814,"ĠPS":9815,"ĠPor":9816,"ĠDec":9817,"Ġbá»Ľi":9818,"ĠChiÃªu":9819,"atia":9820,"ĠGirl":9821,"olan":9822,"ĠXinh":9823,"otton":9824,"Phan":9825,"ĠThuáºŃt":9826,"NháºŃn":9827,"ĠCarter":9828,"ĠChiang":9829,"enna":9830,"ĠCoffee":9831,"ĠDean":9832,"ĠChuáº©n":9833,"uguay":9834,"COP":9835,"ĠSalv":9836,"rossover":9837,"ĠRamos":9838,"ĠHSBC":9839,"ĠRuud":9840,"ĠLogistics":9841,"ĠModi":9842,"Phil":9843,"ĠHermoso":9844,"AX":9845,"fe":9846,"rio":9847,"sÃ¡ng":9848,"sson":9849,"Ġbáº»":9850,"ĠnhÄ©":9851,"Ġchao":9852,"ĠHÃ²n":9853,"ĠHamilton":9854,"ĠVRE":9855,"ĠBour":9856,"ĠTrÃ¡nh":9857,"ĠSut":9858,"ĠLÃ¢u":9859,"ĠKrist":9860,"Ġná»ī":9861,"ĠJod":9862,"adline":9863,"triá»ĩu":9864,"...).":9865,"Äĳá»Ļc":9866,"Chuyáº¿n":9867,"regor":9868,"phÆ°Æ¡ng":9869,"ĠCarne":9870,"chá»ĳng":9871,"ĠGlenn":9872,"ĠDeepMind":9873,"Ġhá»ĳc":9874,"ĠBelarus":9875,"ĠFoxconn":9876,"ĠNasdaq":9877,"Ġplay":9878,"ĠClinic":9879,"âĢıâĢı":9880,"kaido":9881,"ĠLeavitt":9882,"Bitcoin":9883,"CÃł":9884,"báº±ng":9885,"dia":9886,"gÃ¢y":9887,"ká»·":9888,"mÃ£":9889,"tá»ķ":9890,"tim":9891,"uen":9892,"Ġas":9893,"ĠÄĳiá»ĥu":9894,"Ġváº§n":9895,"ĠvÃ²":9896,"ĠbÃ¡i":9897,"ĠTá»ĭnh":9898,"ĠTitan":9899,"Ġxá»Ļn":9900,"ĠCell":9901,"ĠHag":9902,"ĠMÃ¹i":9903,"ĠBÃ¹":9904,"ĠSÃłn":9905,"ĠAN":9906,"ĠDiá»ĩc":9907,"Ġbá»į":9908,"ĠPhu":9909,"Ġsofa":9910,"Ġbaht":9911,"ĠHok":9912,"Äĳá»ĵ":9913,"akin":9914,"ivia":9915,"evi":9916,"ĠSpec":9917,"ĠvÃŃa":9918,"ips":9919,"Ġ1974":9920,"1993":9921,"ĠBlackpink":9922,"Ġká»ģnh":9923,"ĠCrooks":9924,"ĠFortune":9925,"ĠConsumer":9926,"Ġtestosterone":9927,"ĠPacific":9928,"Ġsilicon":9929,"ĠKlopp":9930,"ĠLopez":9931,"ĠCarnegie":9932,"CÃ¡i":9933,"GPA":9934,"Honda":9935,"KS":9936,"Mag":9937,"Mexico":9938,"So":9939,"bÃ£o":9940,"dá»ĭch":9941,"lanh":9942,"ness":9943,"ĠÃºy":9944,"á»ıi":9945,"Ġbiáº¿ng":9946,"Ġsáº§m":9947,"ĠhÃłu":9948,"ĠnhÃºn":9949,"Ġgel":9950,"ĠHim":9951,"á»ĭu":9952,"ĠSD":9953,"ĠSund":9954,"ĠLily":9955,"ĠPur":9956,"ĠGan":9957,"ĠGÆ°Æ¡m":9958,"aria":9959,"alia":9960,"ĠJud":9961,"ĠYear":9962,"trol":9963,"uper":9964,"ĠCá»Ŀ":9965,"ĠSpot":9966,"ĠCare":9967,"ĠxoÄĥn":9968,"ĠEll":9969,"ĠVincom":9970,"ĠAlvarez":9971,"ĠIDP":9972,"amily":9973,"ĠPrag":9974,"Ġmargin":9975,"ĠTaste":9976,"ĠdÃ¬u":9977,"Capital":9978,"ĠGeely":9979,"ĠGabriel":9980,"ĠCrimea":9981,"ĠQueensland":9982,"Rafael":9983,"280":9984,"BÃ©":9985,"CEO":9986,"Hong":9987,"Há»ĵi":9988,"HÃ£ng":9989,"LLM":9990,"diá»ħn":9991,"ione":9992,"las":9993,"miá»ħn":9994,"metro":9995,"nÃ¢ng":9996,"suy":9997,"sse":9998,"yu":9999,"Ġmáº©u":10000,"ĠnhÃ¡i":10001,"Ġnylon":10002,"Ġgang":10003,"Ġcháº±m":10004,"Ġngá»ĳc":10005,"ĠNiger":10006,"ĠCost":10007,"ĠMr":10008,"ĠTro":10009,"ĠTrá»©ng":10010,"inda":10011,"ĠKent":10012,"ĠKitt":10013,"ĠDustin":10014,"Ġsá»ī":10015,"ĠRick":10016,"ĠRud":10017,"\"...":10018,"ature":10019,"Ġ106":10020,"truck":10021,"agh":10022,"ĠÄĳá»ĳm":10023,"ĠAlice":10024,"âĢĭ":10025,"Ġbuffet":10026,"ĠEmily":10027,"Ġcarom":10028,"ĠAdr":10029,"tois":10030,"ĠCred":10031,"uela":10032,"ĠNoah":10033,"Ngoáº¡i":10034,"ĠMegan":10035,"innati":10036,"ĠUruguay":10037,"ĠDimit":10038,"ĠFreder":10039,"ĠDamascus":10040,"EE":10041,"EI":10042,"Euro":10043,"Kamala":10044,"Muá»ĳn":10045,"Paris":10046,"ble":10047,"oung":10048,"Ġion":10049,"Ġtáº»":10050,"nhÃ³m":10051,"ĠlÃºng":10052,"ĠbÃº":10053,"ĠmÃŃ":10054,"ĠhÃ¡n":10055,"ĠchÃ©m":10056,"Ġngáº¥m":10057,"Ġthá»ı":10058,"Ġthá»Ľt":10059,"ĠCA":10060,"ĠCath":10061,"ĠHI":10062,"ĠBá»ķ":10063,"ĠBia":10064,"ĠBot":10065,"ĠBamboo":10066,"Ġmá»īa":10067,"ĠÄĲang":10068,"ĠTrip":10069,"ĠSáº½":10070,"ĠPSS":10071,"ĠPotter":10072,"ĠDur":10073,"Ġbá»«ng":10074,"Ġtuá»ĵng":10075,"ĠUz":10076,"ĠRah":10077,"ĠRouth":10078,"ĠRover":10079,"Ġnhá»Ń":10080,"olin":10081,"ington":10082,"tranh":10083,"Ġ122":10084,"ĠDown":10085,"ĠIstan":10086,"opia":10087,"rique":10088,"ecta":10089,"ĠBritt":10090,"izh":10091,"ibaba":10092,"ittle":10093,"ĠHerald":10094,"Ġmenu":10095,"ĠAntonio":10096,"ĠLabubu":10097,"ĠSchools":10098,"ĠSusan":10099,"ĠPsych":10100,"ĠHotline":10101,"ĠCourtois":10102,"ĠBryan":10103,"ĠStandard":10104,"ĠUdemy":10105,"Philipp":10106,"ĠIstanbul":10107,"CR":10108,"Cá»©":10109,"brah":10110,"dong":10111,"dáº§u":10112,"mouth":10113,"pol":10114,"sau":10115,"nghá»ĩ":10116,"nhap":10117,"Ġlanh":10118,"Ġsáº£ng":10119,"Ġmag":10120,"ĠnÃŃu":10121,"Ġchan":10122,"ĠchÃły":10123,"ĠTáº§m":10124,"ĠMÃ©":10125,"ĠVÃ©":10126,"ĠSÃ¢m":10127,"ĠSent":10128,"ĠScar":10129,"aut":10130,"ĠNgá»ĵi":10131,"ĠKoo":10132,"ĠDÄ©":10133,"ĠNhÆ°á»£c":10134,"Ġ330":10135,"Ġ380":10136,"ĠRat":10137,"ĠGian":10138,"ĠHoÃł":10139,"triá»ĥn":10140,"ĠAnnie":10141,"ovation":10142,"apor":10143,"ĠTown":10144,"obile":10145,"ĠNewton":10146,"Ġwe":10147,"ĠHugh":10148,"ĠLá»©c":10149,"Quang":10150,"Ġ1963":10151,"incinnati":10152,"Phá»¥":10153,"baum":10154,"ĠBluetooth":10155,"Ġsneakers":10156,"92":10157,"BÃ¢y":10158,"Cá»ķ":10159,"CÃ¹ng":10160,"foe":10161,"hay":10162,"ners":10163,"par":10164,"shire":10165,"vÃ¬":10166,"vÄĥn":10167,"vá»ģ":10168,"wich":10169,"ĠtÃ£":10170,"Ġcrop":10171,"Ġváº¿":10172,"Ġvung":10173,"ĠvÅ©ng":10174,"Ġmeth":10175,"ĠhÅ©":10176,"ĠkhÃ©t":10177,"Ġre":10178,"ĠCÆ¡n":10179,"ĠBlin":10180,"ĠLiz":10181,"ĠPle":10182,"ĠKenn":10183,"ĠDick":10184,"ĠDevel":10185,"ĠGrant":10186,"Ġtiáº¿u":10187,"oro":10188,"atri":10189,"robot":10190,"áº³m":10191,"...\",":10192,"Ġcá»Ńu":10193,"Ġ113":10194,"avi":10195,"Ġoáº£i":10196,"ills":10197,"ĠBarb":10198,"ĠEras":10199,"ĠVenez":10200,"class":10201,"ĠBrooklyn":10202,"ĠKazakhstan":10203,"ĠGeneral":10204,"Assad":10205,"azeera":10206,"ĠHokkaido":10207,"!\",":10208,"//":10209,"270":10210,"Dani":10211,"MG":10212,"NO":10213,"NÃ³i":10214,"Or":10215,"Pro":10216,"bÃ¡c":10217,"cÃ¢u":10218,"cci":10219,"rat":10220,"shi":10221,"ngÃ´i":10222,"Ġteo":10223,"Ġtru":10224,"ĠbÃ¹i":10225,"Ġstream":10226,"Ġháº¥u":10227,"Ġnáº¡c":10228,"ĠTar":10229,"ĠNathan":10230,"ĠVit":10231,"ĠBá»ĳi":10232,"ĠBey":10233,"ĠTrá»£":10234,"ĠSaw":10235,"auty":10236,"ĠPic":10237,"ĠGVR":10238,"eron":10239,"enzo":10240,"Ġsá»Ŀ":10241,"ĠPhill":10242,"ĠRiver":10243,"ĠFac":10244,"olu":10245,"ĠWork":10246,"ĠJol":10247,"raft":10248,"ÄĲÃłi":10249,"thlon":10250,"...\".":10251,"Äĳá»ĭnh":10252,"aku":10253,"1988":10254,"ĠLever":10255,"ĠNewcastle":10256,"etty":10257,"ĠGenAI":10258,"ĠYonhap":10259,"ĠAFC":10260,"Ġtá»§i":10261,"ĠPenh":10262,"formation":10263,"ĠJamie":10264,"iation":10265,"ĠPremium":10266,"bekistan":10267,"kusen":10268,"Am":10269,"Arena":10270,"Dav":10271,"TÄĥng":10272,"hÆ°á»Ľng":10273,"mentor":10274,"nb":10275,"nom":10276,"ná»£":10277,"tÃ¬m":10278,"vai":10279,"Ã¼":10280,"ĠtÃ©":10281,"Ġcort":10282,"ĠÄĳáº½":10283,"Ġváº±n":10284,"Ġmel":10285,"ĠkhÄĥng":10286,"ĠngÃ³ng":10287,"ĠHiÃªn":10288,"ĠHath":10289,"ĠMá»Ļng":10290,"ĠMom":10291,"ĠVitamin":10292,"ĠBh":10293,"ĠÄĳá»Ļn":10294,"ĠSÆ¡":10295,"ĠThÃ³i":10296,"ĠIg":10297,"ĠRem":10298,"ĠRMIT":10299,"ĠThá»¥":10300,"isao":10301,"ĠGiÃ¡c":10302,"idi":10303,"ĠHop":10304,"ility":10305,"acey":10306,"ÄĳÃ¡ng":10307,"Äĳá»ĭa":10308,"Ġ114":10309,"ogo":10310,"ĠMarca":10311,"Ġfile":10312,"ĠvÃ©n":10313,"ĠAmanda":10314,"eca":10315,"Inter":10316,"ĠSamuel":10317,"Ġ1971":10318,"Ġ1977":10319,"ĠPhiladel":10320,"ĠExp":10321,"agiÃª":10322,"ucks":10323,"ĠPoly":10324,"ĠDOJI":10325,"ĠWebsite":10326,"nghá»ĭ":10327,"play":10328,"ĠNavarro":10329,"Ġshorts":10330,"ĠMcGregor":10331,"ĠRetail":10332,"450":10333,"CV":10334,"IU":10335,"Sáº½":10336,"bÃ³ng":10337,"hol":10338,"qui":10339,"Ġself":10340,"ĠTM":10341,"ĠMA":10342,"ĠVÄĲ":10343,"ĠTruyá»ĩn":10344,"ĠTrá»¥":10345,"Ġtuáº¥t":10346,"ĠChiÃªm":10347,"ĠUá»·":10348,"ĠKháº©u":10349,"orth":10350,"ascar":10351,"asaki":10352,"atra":10353,"ÄĲH":10354,"ÄĲáº¡o":10355,"ÄĲá»įc":10356,"ĠOP":10357,"ĠOra":10358,"thuá»ĳc":10359,"Trang":10360,"ĠBá»īnh":10361,"Ġfe":10362,"ize":10363,"ĠBeng":10364,"ĠDeakin":10365,"ights":10366,"ĠVIX":10367,"ĠMarket":10368,"ĠChristmas":10369,"ĠHeineken":10370,"ĠMelanie":10371,"ĠValer":10372,"ĠFlick":10373,"ĠCharlie":10374,"ĠAMOLED":10375,"ĠJerome":10376,"ĠLinda":10377,"ĠKitco":10378,"ĠVÄĲQG":10379,"Bá»ĳi":10380,"Bá»©c":10381,"Djokovic":10382,"ESA":10383,"cÆ¡n":10384,"cop":10385,"lott":10386,"mÃ´":10387,"tem":10388,"Ã©c":10389,"Ġamin":10390,"Ġcomp":10391,"Ġlá»Ļng":10392,"Ġláº©n":10393,"Ġgá»ĵ":10394,"ĠTáº¿":10395,"Ġtá»ħ":10396,"ĠxiÃªn":10397,"ĠCPU":10398,"ĠVAR":10399,"ĠBent":10400,"ĠBian":10401,"ĠÄĲÃ´n":10402,"ĠSah":10403,"ĠLen":10404,"ĠLotte":10405,"ĠPel":10406,"ĠKun":10407,"ĠKane":10408,"ĠGai":10409,"ĠGÆ°Æ¡ng":10410,"enix":10411,"Ġtopping":10412,"ĠRá»Ŀi":10413,"ĠRIA":10414,"ĠFlow":10415,"ism":10416,"umin":10417,"ĠJava":10418,"ads":10419,"ĠToáº£n":10420,"igi":10421,"ivert":10422,"giÃ¢y":10423,"ĠShuk":10424,"ĠSpa":10425,"ĠCÆ¡m":10426,"ĠSof":10427,"ĠSohu":10428,"Ġtrá»«u":10429,"yme":10430,"1600":10431,"ancy":10432,"thá»ĭt":10433,"uitive":10434,"ĠAutom":10435,"ĠATM":10436,"ĠFanpage":10437,"ĠSheinbaum":10438,"DOGE":10439,"160":10440,"://":10441,"Báº±ng":10442,"FI":10443,"bÃł":10444,"bach":10445,"khi":10446,"mÃ¹a":10447,"so":10448,"yeol":10449,"ĠÆ¡":10450,"ĠÃ³i":10451,"Ġtáº±m":10452,"ĠcÃµng":10453,"Ġki":10454,"ĠtrÄ©":10455,"ĠmÃ¬n":10456,"Ġcháº¯p":10457,"Ġdáº¥n":10458,"Ġxá»ĩ":10459,"ĠCincinnati":10460,"cháº¿":10461,"ĠMO":10462,"ĠVR":10463,"ĠTrÃ£i":10464,"ĠAu":10465,"ining":10466,"ĠKos":10467,"ĠGas":10468,"Ġtrá»įc":10469,"arma":10470,"Ġkhoáº¯n":10471,"ĠNhÃłn":10472,"ĠPháº«u":10473,"ĠQuÃª":10474,"Ġtype":10475,"ĠEth":10476,"ĠEala":10477,"ĠJazeera":10478,"usk":10479,"ili":10480,"adi":10481,"ĠChá»¯":10482,"osite":10483,"Truyá»ģn":10484,"ĠAless":10485,"ĠLock":10486,"annon":10487,"awn":10488,"ĠBrid":10489,"Ġ1973":10490,"TECH":10491,"ĠRoth":10492,"khoa":10493,"ĠForest":10494,"luivert":10495,"ĠAtlantic":10496,"ĠZhao":10497,"ussels":10498,"ĠIPO":10499,"ĠDemi":10500,"ĠPhoenix":10501,"ĠTiafoe":10502,"ĠGarden":10503,"SpaceX":10504,"ĠXinhua":10505,"ĠSalvador":10506,"ĠLeverkusen":10507,"ĠHathaway":10508,"\";":10509,"360":10510,"Com":10511,"Cristiano":10512,"EX":10513,"MÃ³n":10514,"cÃ¡i":10515,"jo":10516,"quá»ĳc":10517,"tiá»ĥu":10518,"vy":10519,"Ġcrossover":10520,"ĠÄĳÃª":10521,"ĠnhÃ¢m":10522,"Ġri":10523,"ĠCC":10524,"ĠCL":10525,"ĠColl":10526,"ĠCode":10527,"ĠMáº§m":10528,"ĠÄĲáº¯c":10529,"ĠÄĲá»ĵn":10530,"erry":10531,"enberg":10532,"ĠkhoÃ¡t":10533,"ĠChamp":10534,"elia":10535,"ĠFair":10536,"ĠEast":10537,"ĠJae":10538,"the":10539,"thÆ°á»Ŀng":10540,"Ġthoi":10541,"2027":10542,"acy":10543,"terest":10544,"Ġ123":10545,"ÄĳÃłn":10546,"Chu":10547,"Chiáº¿c":10548,"China":10549,"ĠAlibaba":10550,"iga":10551,"phis":10552,"ĠLead":10553,"Ġwh":10554,"ĠâĢĺ":10555,"QuÃ¡":10556,"HoSE":10557,"Ġ1967":10558,"Ġ1969":10559,"ĠADAS":10560,"akhar":10561,"ĠSME":10562,"ĠMasterD":10563,"ĠBinz":10564,"ĠKeith":10565,"ĠCopilot":10566,"ĠMotors":10567,"ĠMangione":10568,"ĠOffice":10569,"ĠDallas":10570,"ĠBeatles":10571,"ĠUzbekistan":10572,"izhzh":10573,"aporizhzh":10574,"'\".":10575,"BÃŃ":10576,"Buá»ķi":10577,"BÃ¹i":10578,"EN":10579,"EP":10580,"FP":10581,"Há»ĵng":10582,"Mich":10583,"Meta":10584,"Qua":10585,"VÃł":10586,"Xuáº¥t":10587,"tag":10588,"vis":10589,"zer":10590,"Ġáº©u":10591,"Ġváº£y":10592,"ĠbÃ³i":10593,"Ġhtt":10594,"Ġnáº¥p":10595,"ĠdÆ°ng":10596,"ĠNich":10597,"ĠNote":10598,"Ġxuyáº¿n":10599,"ĠrÃŃt":10600,"ĠVuit":10601,"ĠBÃłng":10602,"ĠBib":10603,"ĠNho":10604,"alem":10605,"ĠKhuyáº¿n":10606,"ĠRÄĥng":10607,"ĠFiro":10608,"ĠFriend":10609,"eton":10610,"umar":10611,"trÆ°á»Ľc":10612,"Tranh":10613,"ChÃºc":10614,"NgÃłnh":10615,"phÆ°á»Ŀng":10616,"Ġghe":10617,"ĠMarcel":10618,"ĠMargar":10619,"ĠMaryland":10620,"ĠReagan":10621,"ĠStory":10622,"ebras":10623,"ried":10624,"ĠEmil":10625,"ĠGuill":10626,"ridien":10627,"ĠRobin":10628,"ĠScheff":10629,"ĠBenz":10630,"ĠChristine":10631,"ĠValencia":10632,"ĠHDB":10633,"ĠAtlanta":10634,"ĠVerge":10635,"ĠKids":10636,"ĠFernandes":10637,"ĠVoice":10638,"ĠGelex":10639,"ĠBritish":10640,"ĠRussell":10641,"brahim":10642,"ĠMÃ©ridien":10643,"ĠVuitton":10644,"Col":10645,"ISS":10646,"MV":10647,"SO":10648,"Speed":10649,"TÃŃnh":10650,"Váº¥n":10651,"tap":10652,"uce":10653,"xit":10654,"há»Ļi":10655,"Ġláº±n":10656,"Ġbuá»ĳt":10657,"Ġbalo":10658,"Ġsáº£":10659,"Ġhecta":10660,"ĠnhÃºt":10661,"ĠchÃ³c":10662,"ĠTÃ½":10663,"ĠCin":10664,"ĠCand":10665,"champ":10666,"ĠMix":10667,"ĠVis":10668,"ĠBá»Ļi":10669,"ĠBuk":10670,"ĠAra":10671,"ĠABS":10672,"ĠLÃ£":10673,"ĠThuá»ĳc":10674,"ĠPed":10675,"ĠDat":10676,"ĠGur":10677,"ĠRico":10678,"ĠRá»«ng":10679,"ĠÄĲá»©a":10680,"leen":10681,"thiáº¿t":10682,"throp":10683,"Tháº§y":10684,"andowski":10685,"Ngá»įc":10686,"ĠZaporizhzh":10687,"Ġ165":10688,"utiao":10689,"Ġ132":10690,"abel":10691,"ĠLuáºŃn":10692,"ĠLugan":10693,"Ġnháº¹n":10694,"khai":10695,"ĠMain":10696,"alys":10697,"ĠBrussels":10698,"ĠMount":10699,"ĠFrances":10700,"yder":10701,"ĠEnrique":10702,"ĠRapper":10703,"ĠCroatia":10704,"ĠStephanie":10705,"ĠViktor":10706,"leveland":10707,"ĠPaulo":10708,"ĠMachines":10709,"ĠVinaCapital":10710,"ĠLarry":10711,"ĠArnault":10712,"ĠNevada":10713,"illiards":10714,"ĠHAGL":10715,"ĠWomen":10716,"ĠMensik":10717,"ĠVenezuela":10718,"ĠLugansk":10719,"94":10720,"Ad":10721,"GDP":10722,"My":10723,"Nvidia":10724,"had":10725,"stein":10726,"«m":10727,"ÃĶ":10728,"ĠvÆ¡i":10729,"ĠkiÃªu":10730,"ĠmÃµm":10731,"ĠhiÃªn":10732,"Ġhel":10733,"ĠnáºŃp":10734,"ĠdÃª":10735,"Ġdáº»":10736,"ĠTÆ°á»£ng":10737,"Ġvá»ĵng":10738,"Ġthá»ım":10739,"ĠCG":10740,"ĠCent":10741,"char":10742,"chool":10743,"ĠBull":10744,"ĠLÃ²ng":10745,"ĠLáº¡m":10746,"ĠThS":10747,"aus":10748,"ĠPL":10749,"ĠKOL":10750,"Ġsáº«m":10751,"ĠDam":10752,"ĠGlor":10753,"eros":10754,"Ġlove":10755,"Ġná»ĥ":10756,"ĠWr":10757,"ĠEPS":10758,"ĠHope":10759,"ĠXi":10760,"trang":10761,"real":10762,"ĠZhi":10763,"ĠIsaac":10764,"ahce":10765,"ĠBá»ı":10766,"Ġ225":10767,"cook":10768,"fford":10769,"linois":10770,"ylist":10771,"osti":10772,"phoneS":10773,"ĠMcDonald":10774,"Ġ1978":10775,"1990":10776,"ĠNovosti":10777,"ĠAbu":10778,"ĠArteta":10779,"uzja":10780,"ĠIntuitive":10781,"ĠEvans":10782,"ĠNapoli":10783,"ĠSilva":10784,"CoM":10785,"ToÃłn":10786,"ĠTelegraph":10787,"ĠLewandowski":10788,"ĠBST":10789,"porter":10790,"ĠScholz":10791,"ĠPhoneArena":10792,"Ġcaffeine":10793,"ĠCollins":10794,"ĠCybertruck":10795,"ĠSealion":10796,"ĠPhiladelphia":10797,"06":10798,"Be":10799,"HA":10800,"Pan":10801,"Robot":10802,"bl":10803,"bá»ĳ":10804,"cin":10805,"din":10806,"láº¡m":10807,"mang":10808,"Ġcac":10809,"Ġcover":10810,"ĠÄĥ":10811,"ĠthÃ¢u":10812,"ĠmÃºi":10813,"Ġmake":10814,"ĠhÃŃch":10815,"ĠngÆ¡":10816,"ĠCD":10817,"ĠCáº¡nh":10818,"ĠMing":10819,"ĠBie":10820,"ĠBeth":10821,"ĠÄĲÃ¡n":10822,"ĠÄĲÆ°a":10823,"ĠSem":10824,"Ġngháº¹t":10825,"ĠKluivert":10826,"ĠDiana":10827,"ars":10828,"alaya":10829,"ĠPhnom":10830,"Ġá»ī":10831,"á»įa":10832,"Ġ480":10833,"olt":10834,"tho":10835,"Tháº¥y":10836,"urs":10837,"trá»¥c":10838,"unk":10839,"oko":10840,"Äĳá»Ļt":10841,"Nghe":10842,"Ġngá»§i":10843,"ular":10844,"ĠShannon":10845,"rama":10846,"anye":10847,"Hoáº¡t":10848,"ĠVios":10849,"ĠRuby":10850,"ĠNorris":10851,"ĠRoss":10852,"Ġ1954":10853,"Ġkhuynh":10854,"ĠGeran":10855,"News":10856,"VinFast":10857,"ĠIdol":10858,"tinental":10859,"ĠBennu":10860,"ĠFerrari":10861,"ĠSLIM":10862,"ĠDmitry":10863,"ĠSpeaking":10864,"KVÄĲ":10865,"sseus":10866,"Philippines":10867,"Ġselfie":10868,"03":10869,"Hezbollah":10870,"TR":10871,"VÃ²ng":10872,"cáº§n":10873,"máº¹o":10874,"nÆ¡i":10875,"sá»¯a":10876,"vir":10877,"Ġcent":10878,"Ġtriá»ģn":10879,"Ġtháº³m":10880,"Ġnáº·c":10881,"ĠngáºŃm":10882,"Ġphai":10883,"ĠNuÃ´i":10884,"ĠNike":10885,"ĠHans":10886,"ĠMÃ£o":10887,"ĠBá»ĵi":10888,"amo":10889,"ĠSas":10890,"ĠSmartphone":10891,"ĠAy":10892,"ĠAction":10893,"Ġbá»£":10894,"ĠKhÃ¡ng":10895,"esl":10896,"Ġ2029":10897,"ĠRanh":10898,"ister":10899,"rogen":10900,"ĠYun":10901,"ĠXa":10902,"Ġ1945":10903,"ovac":10904,"uts":10905,"ĠStew":10906,"ĠBarry":10907,"ĠAirways":10908,"Ġ1962":10909,"ĠLiang":10910,"Ġxá»īn":10911,"ĠPatel":10912,"ĠAcc":10913,"Ġbá»īm":10914,"ĠBernard":10915,"ĠDenise":10916,"Ãģnh":10917,"ĠYeah":10918,"ĠButler":10919,"tainment":10920,"ĠSantos":10921,"ĠUPCoM":10922,"ĠInnovation":10923,"ĠChallenge":10924,"ĠSecurities":10925,"ĠWesley":10926,"ĠZaporizhzhia":10927,"81":10928,"Tiáº¿ng":10929,"Vingroup":10930,"gate":10931,"pander":10932,"sang":10933,"tay":10934,"zone":10935,"zhe":10936,"Ġtiá»ĩt":10937,"Ġcotton":10938,"ĠÄĳÃłng":10939,"ĠkÃ¨o":10940,"ĠbÄĥm":10941,"Ġsá»Ļ":10942,"ĠmÆ°Æ¡ng":10943,"Ġhip":10944,"ĠTiÃªm":10945,"ĠNao":10946,"ĠCass":10947,"ĠCleveland":10948,"ĠBiá»ĩt":10949,"ĠBros":10950,"onic":10951,"ĠKCN":10952,"ĠKpop":10953,"ĠPhot":10954,"Ġtoáº£":10955,"ĠWestern":10956,"oven":10957,"Chuyá»ĩn":10958,"ĠAlas":10959,"ĠAlonso":10960,"ivo":10961,"ivate":10962,"uez":10963,"cker":10964,"uble":10965,"Ġfin":10966,"ĠJoo":10967,"ĠGiá»¯":10968,"stem":10969,"rier":10970,"asting":10971,"mpt":10972,"ĠVNM":10973,"ĠGucci":10974,"ĠSanchez":10975,"ĠRoma":10976,"ĠSalim":10977,"thiopia":10978,"MCP":10979,"USD":10980,"ĠCorolla":10981,"ĠKatie":10982,"Phá»ķ":10983,"khá»ĳi":10984,"ĠSandra":10985,"ĠHills":10986,"Ġacid":10987,"ĠLegend":10988,"ĠSolutions":10989,"ĠOdysseus":10990,"ĠLÅ©y":10991,"ĠPsychology":10992,"260":10993,"650":10994,"Hiá»ĩp":10995,"Mai":10996,"Sai":10997,"TM":10998,"Thi":10999,"ful":11000,"vá»ĳn":11001,"wamy":11002,"Ġart":11003,"nguy":11004,"Ġváº¯c":11005,"Ġlat":11006,"Ġsp":11007,"Ġsmart":11008,"Ġnhá»ķ":11009,"Ġnáº¡o":11010,"Ġhá»Ŀi":11011,"Ġchá»Ļi":11012,"anne":11013,"ĠSK":11014,"ĠKard":11015,"ĠGam":11016,"ĠGet":11017,"ĠPhÆ°á»Ŀng":11018,"ĠGiÃ³":11019,"ravel":11020,"ĠYar":11021,"Thiáº¿t":11022,"tric":11023,"Cham":11024,"house":11025,"abu":11026,"gio":11027,"owa":11028,"ĠManila":11029,"ĠGuo":11030,"ĠHarrison":11031,"eekr":11032,"1994":11033,"ĠAngela":11034,"ĠTommy":11035,"ĠMira":11036,"ĠResort":11037,"ĠIndiana":11038,"ICE":11039,"ĠRedmi":11040,"ĠHigher":11041,"ĠMidu":11042,"ĠFreestyle":11043,"Ġresort":11044,"ĠBBQ":11045,"Ġballad":11046,"ĠLlama":11047,"ĠCellphoneS":11048,"ĠCredit":11049,"ĠShukr":11050,"ĠFirouzja":11051,"Bá»ĭ":11052,"CLB":11053,"Linh":11054,"Lá»ĭch":11055,"Lionel":11056,"Mor":11057,"Mart":11058,"VÃµ":11059,"ira":11060,"linh":11061,"lam":11062,"nÃ³i":11063,"vá»«a":11064,"Ġáº§m":11065,"Ġtwe":11066,"nhan":11067,"ĠthÃª":11068,"Ġsáº¡m":11069,"Ġmo":11070,"Ġmáº¥u":11071,"ĠmÆ°á»Ľt":11072,"Ġher":11073,"Ġnáº·n":11074,"ĠTMCP":11075,"ĠNZ":11076,"ĠrÃ´":11077,"ĠrÃ¨m":11078,"ĠCÃ¡p":11079,"ĠCab":11080,"chen":11081,"ĠMitch":11082,"ĠByr":11083,"ĠBond":11084,"ĠTrá»±c":11085,"ĠnghÃªu":11086,"ĠAj":11087,"ĠLori":11088,"ĠTháº§u":11089,"ĠPict":11090,"ĠNgÆ°":11091,"enerb":11092,"ĠNhÆ°á»¡ng":11093,"Ġ109":11094,"thÆ°á»Łng":11095,"aph":11096,"ĠAlger":11097,"NguyÃªn":11098,"ĠZakhar":11099,"iving":11100,"ĠLec":11101,"utch":11102,"ikh":11103,"ogl":11104,"irl":11105,"ĠReg":11106,"ĠReporter":11107,"Ġop":11108,"ĠSpr":11109,"ĠProject":11110,"quáº£ng":11111,"chá»¯a":11112,"ĠMonaco":11113,"ĠThÆ¡m":11114,"ĠSeattle":11115,"ilever":11116,"orset":11117,"Ġserum":11118,"ĠThompson":11119,"Alcaraz":11120,"ĠRaj":11121,"ĠLynch":11122,"ĠIllinois":11123,"ĠMohammed":11124,"ĠStarbucks":11125,"DNSE":11126,"ĠRFEF":11127,"Ġhttps":11128,"ĠScheffler":11129,"ĠBieber":11130,"enerbahce":11131,"App":11132,"DÆ°Æ¡ng":11133,"DÃ²ng":11134,"Har":11135,"Mark":11136,"Wimbledon":11137,"ná»Ļi":11138,"rina":11139,"Ã¶":11140,"Ġen":11141,"nguá»ĵn":11142,"ĠcÆ°a":11143,"Ġcut":11144,"Ġcáº±n":11145,"Ġcorset":11146,"nháº£y":11147,"ĠtrÃ¡":11148,"Ġtruáº¥t":11149,"ĠgÆ°á»£ng":11150,"ĠTáºŃn":11151,"ĠTara":11152,"ĠgiÄĥng":11153,"ĠHappy":11154,"cht":11155,"ĠMam":11156,"ĠBund":11157,"ĠÄĲKVÄĲ":11158,"ĠSU":11159,"ĠNgá»§":11160,"ĠGod":11161,"Ġsá»įc":11162,"ĠCháº¯c":11163,"ĠPha":11164,"Ġdá»¥m":11165,"ĠRut":11166,"ido":11167,"raw":11168,"ÄĲáº·c":11169,"apo":11170,"Äĳáº·t":11171,"ĠToutiao":11172,"PhÃ²ng":11173,"cept":11174,"ĠReport":11175,"arta":11176,"Ġ01":11177,"ĠEmmy":11178,"ĠGrande":11179,"ĠClaire":11180,"ottingham":11181,"IDF":11182,"Ġ365":11183,"ĠCape":11184,"ĠErin":11185,"ĠMaxim":11186,"ĠParker":11187,"ĠRoman":11188,"giá»ĳng":11189,"ullivan":11190,"ĠAsset":11191,"ĠLatest":11192,"ĠJanet":11193,"ĠNeil":11194,"atherine":11195,"ĠNicole":11196,"ĠCrew":11197,"ĠPsyche":11198,"ĠHassan":11199,"ĠSudan":11200,"ĠBird":11201,"ĠInvestment":11202,"ĠLinked":11203,"keley":11204,"ĠMillennials":11205,"ĠJodi":11206,"ĠHopkins":11207,"ĠOracle":11208,"ĠStewart":11209,"02":11210,"240":11211,"550":11212,"91":11213,"?).":11214,"Bá»ĳn":11215,"Dá»ĭp":11216,"IB":11217,"MÃ´":11218,"May":11219,"Re":11220,"Tesla":11221,"Xiao":11222,"ient":11223,"jun":11224,"láºŃp":11225,"mÃ´i":11226,"oot":11227,"yadh":11228,"Ġenz":11229,"á»ĥn":11230,"Ġcáº¡p":11231,"ĠvÃ©t":11232,"ĠlÃ³a":11233,"Ġkiáº¿p":11234,"Ġsáº¡p":11235,"ĠmagiÃª":11236,"Ġná»ĵm":11237,"ĠngÃł":11238,"ĠTCL":11239,"Ġphot":11240,"uyuen":11241,"Ġroi":11242,"anon":11243,"ĠCanh":11244,"ĠBaza":11245,"amex":11246,"ĠLing":11247,"ĠLak":11248,"ĠLinds":11249,"ĠPes":11250,"ĠDP":11251,"ĠDev":11252,"ĠGb":11253,"ench":11254,"ĠChÆ°":11255,"ĠFO":11256,"ĠFuture":11257,"oline":11258,"ĠJab":11259,"ĠChá»©c":11260,"trá»£":11261,"apa":11262,"ĠHá»ıi":11263,"iva":11264,"phen":11265,"iku":11266,"ĠNghá»ģ":11267,"Ġwinner":11268,"owang":11269,"ĠUnit":11270,"ĠGreat":11271,"Ġsuit":11272,"ĠAFF":11273,"ĠMcL":11274,"ĠAdel":11275,"tory":11276,"ĠMoss":11277,"ĠOrange":11278,"ĠBuen":11279,"ĠWalmart":11280,"Ġ1965":11281,"ĠMicro":11282,"ĠCruz":11283,"ĠRedd":11284,"ĠIVF":11285,"ĠFoods":11286,"ĠPoint":11287,"ĠAhmed":11288,"ĠLawrence":11289,"ĠEntertainment":11290,"ĠOptimus":11291,"tappen":11292,"ĠAlaska":11293,"AL":11294,"ABank":11295,"POS":11296,"cÄĥn":11297,"key":11298,"life":11299,"mand":11300,"nar":11301,"sÃ¡t":11302,"tos":11303,"Ġcáº±m":11304,"Ġbody":11305,"Ġmac":11306,"Ġmeme":11307,"Ġnatri":11308,"ĠchÃ¹i":11309,"Ġngáº¡o":11310,"ĠTab":11311,"ĠphÆ°á»Ľc":11312,"ĠpháºŃt":11313,"ĠNy":11314,"ĠCÃ¡m":11315,"ĠCald":11316,"ĠHPV":11317,"ĠMul":11318,"ĠBall":11319,"ĠThao":11320,"ĠPier":11321,"ĠNhÃ©":11322,"ĠCháº¡y":11323,"ĠFly":11324,"Ġbá»Ļn":11325,"etter":11326,"Ġ107":11327,"idas":11328,"ĠWon":11329,"Ġ946":11330,"ĠYan":11331,"ĠXpander":11332,"Ġ1900":11333,"ĠIncheon":11334,"ĠDoha":11335,"ĠZheng":11336,"PhiÃªn":11337,"ĠVNG":11338,"anny":11339,"eiro":11340,"ĠTelecom":11341,"ĠOrion":11342,"999":11343,"ĠYouTuber":11344,"ĠEdgar":11345,"ĠSea":11346,"ĠAndrey":11347,"luáºŃt":11348,"ĠGolden":11349,"ĠKaty":11350,"ĠJulian":11351,"garia":11352,"Ġsequin":11353,"ĠJenner":11354,"ĠIBF":11355,"bright":11356,"ĠBilly":11357,"ĠPartners":11358,"ĠNakam":11359,"ĠVerstappen":11360,"ĠShelton":11361,"ĠSÃ¡nchez":11362,"320":11363,"CÃ²n":11364,"Camp":11365,"LÆ°Æ¡ng":11366,"RIS":11367,"Sinner":11368,"cáº£i":11369,"dÃ©":11370,"tiáº¿p":11371,"váº«n":11372,"val":11373,"via":11374,"Ġover":11375,"á»Ĺng":11376,"ngh":11377,"ĠcÃ²ng":11378,"Ġlear":11379,"Ġlink":11380,"ĠlÃµng":11381,"ĠhÃ¡ng":11382,"Ġhen":11383,"Ġnháº©m":11384,"Ġnháº¥c":11385,"ĠnÃ´i":11386,"Ġdiá»ģu":11387,"Ġdel":11388,"Ġdáº«u":11389,"Ġpast":11390,"ĠNow":11391,"ĠNara":11392,"ĠxÃŃt":11393,"Ġquáº·ng":11394,"ĠMU":11395,"ĠMiáº¿u":11396,"ĠVCI":11397,"ĠTruman":11398,"ĠSGD":11399,"ĠLCD":11400,"ĠDak":11401,"ĠGC":11402,"ĠkhoÃ©t":11403,"ĠChÄĥn":11404,"ĠChannel":11405,"Ġ340":11406,"Ġkhá»ĳn":11407,"ĠQuay":11408,"ĠQuá»³":11409,"ĠWen":11410,"ĠWolf":11411,"ĠJang":11412,"usalem":11413,"ĠYas":11414,"ils":11415,"ĠTPBank":11416,"Ġ1920":11417,"ades":11418,"adona":11419,"Äĳáº¿n":11420,"Cháº¯c":11421,"ution":11422,"iki":11423,"Ġ136":11424,"giai":11425,"thá»ĥ":11426,"amaswamy":11427,"ĠTikToker":11428,"ansson":11429,"ashar":11430,"ĠMaj":11431,"Ġradio":11432,"ĠDubois":11433,"ĠPinterest":11434,"ĠTorres":11435,"ĠKuo":11436,"ĠICE":11437,"ĠLucas":11438,"ĠGregory":11439,"ĠFernandez":11440,"Ġvoan":11441,"ĠMargaret":11442,"ĠÄĥng":11443,"zheimer":11444,"140":11445,"BÃ³ng":11446,"El":11447,"He":11448,"MW":11449,"SL":11450,"Tek":11451,"láº¥y":11452,"sá»ĳt":11453,"yen":11454,"ÄĤn":11455,"Ġdong":11456,"Ġngáº§u":11457,"ĠngÃ¡n":11458,"Ġgiáº»":11459,"Ġgiáº«m":11460,"Ġgirl":11461,"Ġthá»ıi":11462,"ĠNÃ¢ng":11463,"ĠráºŃp":11464,"ĠCÃłi":11465,"ĠHinh":11466,"ĠHak":11467,"ĠHab":11468,"ĠMÆ¡":11469,"ĠMBA":11470,"ĠMandal":11471,"ĠBog":11472,"ĠBald":11473,"ĠBÃ£o":11474,"ĠÄĲÃ¡":11475,"ĠTráº¡i":11476,"ĠAce":11477,"ĠAWS":11478,"ĠKansas":11479,"Ġtá»ĳp":11480,"ĠChev":11481,"ĠUp":11482,"atform":11483,"ids":11484,"ĠWBC":11485,"itanium":11486,"ĠEthiopia":11487,"ÄĲá»Ŀi":11488,"tháº»":11489,"ĠChá»©":11490,"raig":11491,"edia":11492,"ĠStell":11493,"ebast":11494,"ĠShah":11495,"istening":11496,"ĠAires":11497,"merce":11498,"ĠHolger":11499,"ĠSeung":11500,"ĠEss":11501,"ĠToni":11502,"ĠJerusalem":11503,"ĠThoa":11504,"ĠNVCC":11505,"Ġorgan":11506,"ĠDouglas":11507,"ĠFIDT":11508,"ĠJohansson":11509,"ĠAirbus":11510,"ĠAirbnb":11511,"cosmos":11512,"ĠBlinken":11513,"oluowang":11514,"ĠMAGA":11515,"ĠBazaar":11516,"ĠReddit":11517,")\",":11518,"Cal":11519,"For":11520,"FDI":11521,"Green":11522,"Grand":11523,"Má»Ľi":11524,"Ser":11525,"Tiáº¿p":11526,"UAE":11527,"VÃłi":11528,"ahi":11529,"mat":11530,"tÃ¢m":11531,"á»¨ng":11532,"ĠtÃ©t":11533,"ĠÄĳÃ²":11534,"Ġlá»±u":11535,"ĠlÃ¹n":11536,"Ġtráº§u":11537,"ĠNiel":11538,"ĠBom":11539,"ĠÄĲáº¿":11540,"ĠÄĲá»Ļt":11541,"ĠTrá»ĳng":11542,"ĠSullivan":11543,"ĠLittle":11544,"ĠThan":11545,"ĠKell":11546,"ĠKRX":11547,"ĠGÃł":11548,"ĠGum":11549,"ĠGot":11550,"ĠNhÃ¢m":11551,"ĠChis":11552,"ĠRáº¯n":11553,"ĠRamaswamy":11554,"Ġ850":11555,"leans":11556,"ÄĲÃ´ng":11557,"ilis":11558,"ĠODA":11559,"ThÆ°á»£ng":11560,"Chuyá»ĥn":11561,"ogg":11562,"ope":11563,"ĠHuynh":11564,"Ġláº»n":11565,"Thá»©":11566,"Chá»ĳt":11567,"ible":11568,"ĠSchm":11569,"ĠExcel":11570,"ĠBoard":11571,"ĠOrgan":11572,"ĠBerkeley":11573,"Ġ1966":11574,"ĠWilmore":11575,"ĠEvo":11576,"ĠFranklin":11577,"actic":11578,"ĠRodrig":11579,"ĠMastercard":11580,"ĠISO":11581,"ĠEverest":11582,"ĠTASS":11583,"ĠDIG":11584,"050":11585,"Ang":11586,"Bao":11587,"BÃ¡nh":11588,"Geo":11589,"LG":11590,"One":11591,"Tom":11592,"mai":11593,"mel":11594,"ues":11595,"yama":11596,"ÃĤ":11597,"Ġáº¿":11598,"Ġau":11599,"Ġag":11600,"Ġtanh":11601,"Ġváº¡":11602,"ĠlÃ©p":11603,"Ġlá»ĳt":11604,"Ġthiáº¿p":11605,"Ġsáº£i":11606,"Ġmau":11607,"Ġmiáº¿n":11608,"Ġhas":11609,"ĠnhÃ¡y":11610,"Ġnháº±n":11611,"ĠTD":11612,"ĠNord":11613,"ĠNottingham":11614,"Ġráº±m":11615,"Ġchá»«":11616,"anza":11617,"ĠHuyáº¿t":11618,"chuyá»ĩn":11619,"ĠMak":11620,"aide":11621,"ĠVKS":11622,"ĠÄĲÃ³ng":11623,"ĠSá»£":11624,"ĠSendo":11625,"ĠLake":11626,"ĠPD":11627,"ĠGáº¡o":11628,"ĠnhÃłu":11629,"Ã©e":11630,"Ġsá»¥n":11631,"alist":11632,"ĠRáº¡ng":11633,"ĠRow":11634,"ĠFish":11635,"ĠFamily":11636,"isol":11637,"ĠWith":11638,"ĠWADA":11639,"ĠJor":11640,"ĠTPB":11641,"ĠHá»·":11642,"NgÃ´i":11643,"ĠZand":11644,"hocmai":11645,"ouk":11646,"ĠControl":11647,"asso":11648,"mpic":11649,"ĠBruce":11650,"Quáº£":11651,"ĠCameron":11652,"ensity":11653,"ĠHermes":11654,"ĠHarvey":11655,"ĠSummit":11656,"ĠCá»©u":11657,"Phá»ıng":11658,"ĠMarcus":11659,"ĠHasina":11660,"Tuáº§n":11661,"ĠPlanet":11662,"uador":11663,"Ġhacker":11664,"VCBS":11665,"Ġmagie":11666,"Xiaomi":11667,"ĠNakamura":11668,"Báº¿n":11669,"IX":11670,"Mong":11671,"NS":11672,"RÃµ":11673,"Song":11674,"VÄ©nh":11675,"bor":11676,"cáº¥m":11677,"cell":11678,"cola":11679,"hle":11680,"rich":11681,"ser":11682,"á»¦y":11683,"ĠthuyÃªn":11684,"Ġmui":11685,"ĠnhÅ©":11686,"Ġnáº¯n":11687,"ĠngÃ³i":11688,"ĠrÃ¡t":11689,"ĠCá»Ļt":11690,"ĠCPI":11691,"ĠHad":11692,"chim":11693,"ĠMath":11694,"ĠBT":11695,"onc":11696,"ony":11697,"ĠThang":11698,"ĠPao":11699,"ĠKanye":11700,"Ġtur":11701,"ĠRin":11702,"atas":11703,"olic":11704,"olis":11705,"ĠYeon":11706,"ÄĲÃºng":11707,"omet":11708,"ader":11709,"ots":11710,"TrÆ°Æ¡ng":11711,"ĠZhou":11712,"ente":11713,"pháº£n":11714,"pháº«u":11715,"utis":11716,"ĠLuke":11717,"ĠStartup":11718,"Ġwill":11719,"Ġ06":11720,"ĠMaison":11721,"erto":11722,"ĠVNPT":11723,"yrin":11724,"ĠJohns":11725,"uchi":11726,"ĠFront":11727,"ĠFranco":11728,"ĠPhilippe":11729,"ĠPerez":11730,"occo":11731,"Vietcombank":11732,"Ġboong":11733,"REx":11734,"Arsenal":11735,"ĠDomic":11736,"ĠCopa":11737,"ĠLogan":11738,"ĠSecret":11739,"âĢĿ,":11740,"ĠSPF":11741,"gorod":11742,"ĠBaidu":11743,"ĠFiin":11744,"ĠLorenzo":11745,"Ġteam":11746,"ĠCIO":11747,"ĠGyeonggi":11748,"ĠBulgaria":11749,"ĠDimitrov":11750,"thropic":11751,"ĠKellogg":11752,"%\",":11753,"Facebook":11754,"HU":11755,"Káº¿":11756,"Lee":11757,"Na":11758,"PL":11759,"bus":11760,"sÃłn":11761,"vua":11762,"zes":11763,"£m":11764,"Ġáº¡":11765,"ķng":11766,"Ġcas":11767,"nhiá»ģu":11768,"Ġláº«m":11769,"ĠbÃŃt":11770,"Ġmet":11771,"Ġgao":11772,"ĠgÃ¡n":11773,"ĠchÆ°á»Łng":11774,"ĠTÃ´m":11775,"ĠTenn":11776,"ĠNem":11777,"ĠNoo":11778,"ĠNano":11779,"ĠrÆ°ng":11780,"Ġráº©y":11781,"ĠCir":11782,"ĠVick":11783,"ĠLáº¡nh":11784,"aun":11785,"ĠNgá»Ļ":11786,"ĠKyo":11787,"ĠDX":11788,"ĠDj":11789,"ĠGáº¥u":11790,"ĠGate":11791,"ĠGÃ³p":11792,"alis":11793,"ĠIowa":11794,"ĠRou":11795,"ĠFall":11796,"asi":11797,"hie":11798,"Ġbaking":11799,"ĠESP":11800,"ĠYoga":11801,"ĠYoshi":11802,"ĠOre":11803,"news":11804,"ThiÃªn":11805,"tri":11806,"otive":11807,"ÄĳÃ¡m":11808,"Tráº¥n":11809,"ĠAlzheimer":11810,"ential":11811,"azine":11812,"Ġáº¨m":11813,"Ġ147":11814,"abet":11815,"ĠShap":11816,"stone":11817,"ĠSoya":11818,"ĠChip":11819,"thá»«a":11820,"etta":11821,"ĠUnion":11822,"ĠClass":11823,"ĠMcK":11824,"epard":11825,"ashtag":11826,"ĠOrleans":11827,"ĠBrody":11828,"giá»¯a":11829,"ĠIndustr":11830,"ĠJackie":11831,"ĠIvanka":11832,"ĠCompany":11833,"ĠComputer":11834,"encer":11835,"1989":11836,"ĠJeffrey":11837,"ĠBinance":11838,"ĠPouyuen":11839,"ĠVivian":11840,"ĠVikram":11841,"ĠKirk":11842,"ĠMohamed":11843,"Ġliu":11844,"ĠPremier":11845,"ĠSeven":11846,"ĠSignature":11847,"Ġá»Ĳc":11848,"ĠStefanos":11849,"ĠPonzi":11850,"ĠWireless":11851,"AXA":11852,"ĠHimalaya":11853,"ĠSpotify":11854,"ĠPleiku":11855,"ĠLinkedIn":11856,"ĠBuenos":11857,"Háº¡t":11858,"biá»ĥn":11859,"cáº£nh":11860,"dÃ¢n":11861,"fly":11862,"grid":11863,"háº¡":11864,"lia":11865,"mus":11866,"rau":11867,"ror":11868,"Ġes":11869,"nghiÃªn":11870,"ĠtÃ¡p":11871,"Ġváº¹t":11872,"ĠliÃªm":11873,"Ġnot":11874,"ĠdÃ´i":11875,"ĠNX":11876,"Ġruá»ķi":11877,"ĠHero":11878,"ĠMÃ¡i":11879,"ĠVáº¿t":11880,"ĠVlog":11881,"ĠBaker":11882,"ĠLá»±u":11883,"auk":11884,"ĠKam":11885,"ĠKry":11886,"ĠDÃłnh":11887,"ĠDion":11888,"Ġsá»¥c":11889,"Ġ2040":11890,"Ġ520":11891,"ĠIbrahim":11892,"Ġvá»¥t":11893,"ĠQuant":11894,"ĠJur":11895,"ĠJob":11896,"ĠHoÃ¡":11897,"ĠHoÃłnh":11898,"Ġ193":11899,"addy":11900,"ĠVá»ı":11901,"ovich":11902,"ĠAlbum":11903,"1945":11904,"phong":11905,"ĠLeyen":11906,"ĠMaradona":11907,"Ġnhá»Ľt":11908,"ulp":11909,"uling":11910,"Ġfre":11911,"ĠJoana":11912,"ska":11913,"riott":11914,"QuÃ¡n":11915,"Ġbá»ģnh":11916,"Ġcoc":11917,"ĠPalace":11918,"1992":11919,"Ġhá»ķi":11920,"ĠChristina":11921,"ileen":11922,"SIRIS":11923,"ĠAndrea":11924,"Ġxá»īu":11925,"ynth":11926,"ĠMurphy":11927,"PPP":11928,"ĠSummer":11929,"khá»§ng":11930,"burgh":11931,"ĠLGBT":11932,"Manchester":11933,"ĠBVBank":11934,"XuÃ¢n":11935,"ĠAlfred":11936,"ĠSakura":11937,"ĠTitanic":11938,"eview":11939,"Ġcacao":11940,"ĠMandalay":11941,"Dáº£i":11942,"Don":11943,"Máº·c":11944,"NE":11945,"Ste":11946,"Sá»©c":11947,"TÆ°Æ¡ng":11948,"YC":11949,"craft":11950,"kei":11951,"nos":11952,"pro":11953,"quyá»ģn":11954,"runch":11955,"smartphone":11956,"Ġlip":11957,"Ġháº¯t":11958,"ĠTá»Ļi":11959,"ĠNÃłng":11960,"ĠNáº¯m":11961,"ĠNBA":11962,"Ġráº§m":11963,"ĠCáº¥u":11964,"ĠMand":11965,"ĠVent":11966,"ĠBN":11967,"ĠBÃ¢n":11968,"ĠBac":11969,"ĠLáºŃt":11970,"ĠLÃ£o":11971,"ĠLPBank":11972,"ĠPia":11973,"ĠPot":11974,"ĠPatt":11975,"ĠPDR":11976,"ĠChÃło":11977,"ĠCháº·ng":11978,"iso":11979,"hir":11980,"itor":11981,"ĠEur":11982,"Ġkhuáº¿ch":11983,"Ġtráº»o":11984,"ĠHoang":11985,"ĠXL":11986,"ÄĲá»Ĺ":11987,"otus":11988,"ÄĳÃ¢y":11989,"ĠAlab":11990,"uiz":11991,"Ġfull":11992,"Ġinox":11993,"quÃ¡n":11994,"ĠSound":11995,"ĠCoco":11996,"ĠCohen":11997,"aware":11998,"acher":11999,"ĠBrent":12000,"oody":12001,"berger":12002,"ĠRobinson":12003,"ĠDave":12004,"ĠCaptain":12005,"ĠAPI":12006,"ĠSuns":12007,"AMA":12008,"ĠEdge":12009,"ĠOnana":12010,"ĠMagnus":12011,"ĠMagazine":12012,"Giá»ĳng":12013,"enger":12014,"ĠJenny":12015,"ĠSnake":12016,"elsey":12017,"ĠWhat":12018,"ĠDesign":12019,"ĠMachine":12020,"ĠBoris":12021,"ĠTrafford":12022,"Ġcardio":12023,"ĠEcuador":12024,"ĠGallant":12025,"ĠLuxury":12026,"ĠFulbright":12027,"ĠGonz":12028,"Ġabout":12029,"ĠNigeria":12030,"ĠTenness":12031,"08":12032,"Ag":12033,"Bay":12034,"Cam":12035,"DÆ°á»Ľi":12036,"HK":12037,"Ká»ĥ":12038,"Máº¥y":12039,"Pay":12040,"Rap":12041,"Tá»±":12042,"TÃ¢m":12043,"UB":12044,"VF":12045,"cÆ¡m":12046,"mÆ°a":12047,"má»Ĺi":12048,"mec":12049,"non":12050,"nic":12051,"nell":12052,"pÃ´":12053,"rÆ¡":12054,"sÃ¡ch":12055,"sá»£":12056,"vers":12057,"yang":12058,"ĠuyÃªn":12059,"Ġun":12060,"Ġaf":12061,"Ġton":12062,"há»į":12063,"ĠkÃ¨n":12064,"Ġnom":12065,"ĠgÃło":12066,"Ġdon":12067,"Ġngá»ķn":12068,"ĠNolan":12069,"ĠrÆ°á»£t":12070,"ĠCF":12071,"ĠCÃ¢n":12072,"ĠHee":12073,"Æ°á»Ľn":12074,"ĠVCCI":12075,"ĠBand":12076,"ĠÄĲáº¥u":12077,"ĠSz":12078,"ĠSet":12079,"ĠThiá»ĥm":12080,"ĠNgá»į":12081,"ĠKiá»ĩm":12082,"ĠKle":12083,"ĠKyle":12084,"ĠDab":12085,"ĠDennis":12086,"alph":12087,"ĠChong":12088,"iago":12089,"ĠKhal":12090,"ĠKhÃºc":12091,"Ġ420":12092,"Ġ430":12093,"ĠRiv":12094,"ĠRash":12095,"ĠFenerbahce":12096,"Ġnhá»¡":12097,"ĠJet":12098,"ĠYong":12099,"ÄĲá»Ļc":12100,"omer":12101,"ĠOIS":12102,"Ġ1940":12103,"ĠAnt":12104,"ĠAnthropic":12105,"Äĳau":12106,"reads":12107,"ĠAlan":12108,"ĠZeekr":12109,"igg":12110,"ĠÃģng":12111,"iram":12112,"ĠMarriott":12113,"ĠKhoai":12114,"ĠElena":12115,"Kháº£":12116,"ipe":12117,"ipro":12118,"achi":12119,"ĠBeer":12120,"etroit":12121,"ĠUnilever":12122,"ĠErn":12123,"ĠRoan":12124,"ĠMelissa":12125,"kshire":12126,"ĠComposite":12127,"ĠOliver":12128,"ĠTOD":12129,"ĠRiyadh":12130,"Ġflash":12131,"ĠCheryl":12132,"Tuáº¥n":12133,"ĠPrinceton":12134,"ĠLazada":12135,"schulp":12136,"ĠFIDE":12137,"Há»£p":12138,"ĠSahara":12139,"ebraska":12140,"esliga":12141,"ĠPictures":12142,"Ġenzyme":12143,"ĠZandschulp":12144,"%/":12145,"220":12146,"Des":12147,"Food":12148,"HT":12149,"Tá»īnh":12150,"VA":12151,"Vinh":12152,"bÆ°á»Ľc":12153,"báº¡o":12154,"bá»¯a":12155,"burn":12156,"cá»±c":12157,"cor":12158,"dinh":12159,"fol":12160,"lÃªn":12161,"long":12162,"lá»Ŀi":12163,"watch":12164,"ĠÃºng":12165,"Ġ...":12166,"nghi":12167,"Ġtao":12168,"ĠcÄĥm":12169,"Ġsáº¥m":12170,"Ġgl":12171,"Ġchuá»ĳt":12172,"Ġdata":12173,"ĠTR":12174,"ĠTest":12175,"áº¥ng":12176,"Ġchá»ĳc":12177,"ĠHIV":12178,"ĠMov":12179,"ĠSA":12180,"ĠSid":12181,"ĠSearch":12182,"ĠSebast":12183,"ango":12184,"ĠAe":12185,"ĠLÅ©ng":12186,"inity":12187,"ĠThy":12188,"ĠKF":12189,"ĠDart":12190,"ĠDetroit":12191,"arat":12192,"ĠQin":12193,"ĠKhe":12194,"imex":12195,"Ġcá»©a":12196,"asma":12197,"iser":12198,"ĠEto":12199,"ĠEther":12200,"rak":12201,"Ġ960":12202,"Ġduá»Ĺi":12203,"ĠOSIRIS":12204,"ingo":12205,"adow":12206,"thÃ³i":12207,"trÃł":12208,"ĠhÃ£nh":12209,"uto":12210,"ĠLanc":12211,"ĠRey":12212,"ĠReading":12213,"carbon":12214,"ĠDuáº©n":12215,"duct":12216,"Ġtá»¥i":12217,"Quá»·":12218,"ĠColton":12219,"ĠAdrien":12220,"Ġ1964":12221,"phá»Ł":12222,"ĠLouise":12223,"ĠCorpor":12224,"ĠBanking":12225,"ĠBloom":12226,"ĠSeltos":12227,"ĠRaisi":12228,"ĠBilbao":12229,"ĠSiri":12230,"ĠBackgrid":12231,"ĠOttawa":12232,"ĠServices":12233,"ĠKenneth":12234,"Ġstreamer":12235,"ĠBianca":12236,"ĠBundesliga":12237,"Campuchia":12238,"oncÃ©":12239,"ĠNXB":12240,"DL":12241,"Lab":12242,"VC":12243,"YÃªu":12244,"bay":12245,"bal":12246,"bard":12247,"book":12248,"fi":12249,"rell":12250,"rice":12251,"time":12252,"ves":12253,"visa":12254,"yna":12255,"Ġvaly":12256,"ĠkV":12257,"ĠsÃ¡n":12258,"Ġsá»¹":12259,"Ġsáº·c":12260,"Ġgala":12261,"ĠchÃŃch":12262,"ĠÄĳá»Ŀ":12263,"ĠdÆ°á»£ng":12264,"ĠTata":12265,"ĠphÃŃch":12266,"ĠphÃło":12267,"Ġtá»Ľ":12268,"Ã¬u":12269,"ĠNan":12270,"ĠNebraska":12271,"Ġráº¡c":12272,"ĠrÃ¨":12273,"Ġrup":12274,"Ġchá»ĵn":12275,"ĠCrist":12276,"ĠCIA":12277,"ĠCraig":12278,"ĠHiro":12279,"ĠMao":12280,"ĠMÃ³ng":12281,"ĠBO":12282,"ĠBio":12283,"onna":12284,"ĠTrust":12285,"ĠSight":12286,"ĠASI":12287,"ĠLast":12288,"ĠPG":12289,"ĠPou":12290,"ĠPab":12291,"Ġdá»ım":12292,"ĠKus":12293,"ĠKaf":12294,"ĠDÆ°a":12295,"Ġsá»§a":12296,"aren":12297,"alam":12298,"ĠCheng":12299,"Ġ370":12300,"oria":12301,"ĠngoÃ£n":12302,"ĠFAT":12303,"ĠWBA":12304,"ĠJust":12305,"omy":12306,"truyá»ģn":12307,"trend":12308,"ĠAnaly":12309,"Ġgá»įng":12310,"Ġviolin":12311,"ĠZach":12312,"ento":12313,"pháº§n":12314,"Ġ149":12315,"ouch":12316,"Nhu":12317,"Nháº¡c":12318,"Ġfood":12319,"quang":12320,"ipan":12321,"berry":12322,"ĠeBox":12323,"ĠColin":12324,"ibe":12325,"peng":12326,"ĠClair":12327,"ĠMontr":12328,"ansipan":12329,"VNX":12330,"ĠGeoff":12331,"ĠAlexandra":12332,"ĠUtah":12333,"ĠRoberto":12334,"ĠVanessa":12335,"PAY":12336,"ĠLaurent":12337,"ĠRosÃ©":12338,"anced":12339,"akira":12340,"ĠDelaware":12341,"ĠCaroline":12342,"ĠTae":12343,"raphic":12344,"ĠBaltic":12345,"ĠJiang":12346,"ĠAlphabet":12347,"ĠCVT":12348,"Barca":12349,"ĠOlympiad":12350,"ĠPrix":12351,"ĠGauff":12352,"cá»©u":12353,"ĠAlgeria":12354,"ĠTennessee":12355,"BTC":12356,"Gl":12357,"Han":12358,"HÄĲ":12359,"Os":12360,"WP":12361,"Wh":12362,"dick":12363,"fast":12364,"ml":12365,"muá»ĳn":12366,"pris":12367,"váºŃn":12368,"±t":12369,"Ġone":12370,"á»¥ng":12371,"Ġcr":12372,"ĠlÃµm":12373,"ĠthÆ¡i":12374,"Ġsho":12375,"ĠsÃ¹i":12376,"Ġna":12377,"ĠgÄĥm":12378,"Ġdáº£":12379,"ĠngÃ³c":12380,"Ġper":12381,"Ġpixel":12382,"ĠTed":12383,"Ġpho":12384,"ĠNes":12385,"Ġchá»Ńng":12386,"ĠCCC":12387,"ĠHTS":12388,"chia":12389,"ĠVá»Ł":12390,"amen":12391,"ĠÄĲá»ĳc":12392,"Ġlá»ĵi":12393,"ĠSÃ¹ng":12394,"ĠSue":12395,"unge":12396,"ĠLáº¡ch":12397,"ĠLav":12398,"ĠLaver":12399,"ĠTher":12400,"ause":12401,"ĠPA":12402,"ĠKelsey":12403,"ĠDM":12404,"ĠDá»ĩt":12405,"ĠGá»ıi":12406,"enei":12407,"Ġsá»¡":12408,"Ġtul":12409,"Ġluá»ĵn":12410,"ĠFDA":12411,"emic":12412,"asy":12413,"Ġsome":12414,"ĠYEG":12415,"ÄĲÄĥk":12416,"ÄĳÃłm":12417,"rez":12418,"eway":12419,"ĠZe":12420,"1980":12421,"hoc":12422,"ĠMarsh":12423,"ellow":12424,"ĠHuáº¥n":12425,"ĠArms":12426,"ĠSpring":12427,"assi":12428,"SAT":12429,"ĠeS":12430,"Ġhuá»³nh":12431,"ĠJohnny":12432,"Giao":12433,"verter":12434,"ĠMonter":12435,"Ġuá»·":12436,"Ġstylist":12437,"giá»¯":12438,"MARS":12439,"ĠRoscosmos":12440,"ĠMichele":12441,"ĠMeghan":12442,"ĠBasel":12443,"ĠFuj":12444,"ĠGaetz":12445,"ĠMikel":12446,"ĠKhamenei":12447,"há»Ļp":12448,"Ġgá»Ŀm":12449,"ĠHUTECH":12450,"Ġcortisol":12451,"ĠOregon":12452,"ĠDartmouth":12453,"!\"":12454,"IN":12455,"LC":12456,"Mua":12457,"Tinh":12458,"__":12459,"cÃły":12460,"cÃ¹ng":12461,"hiá»ĩu":12462,"oa":12463,"tiáº¿n":12464,"á»£i":12465,"ĠvÃŃt":12466,"Ġlab":12467,"ĠtrÃ¡m":12468,"ĠbÃºi":12469,"Ġbir":12470,"Ġniá»ģng":12471,"ĠdÃŃ":12472,"ĠTáº£":12473,"ĠTank":12474,"Ġrá»ĳn":12475,"ĠCad":12476,"ĠHuyÃªn":12477,"ĠHuman":12478,"ĠMia":12479,"ĠMMA":12480,"ĠMoody":12481,"ĠBav":12482,"ĠBody":12483,"ĠÄĲÆ°Æ¡ng":12484,"ĠSqu":12485,"ĠLump":12486,"ĠGom":12487,"Ġtrá»ĩt":12488,"ĠChro":12489,"Ġtoil":12490,"ĠRange":12491,"ĠFree":12492,"ĠGiÃłng":12493,"ĠJav":12494,"ĠJude":12495,"Ġngá»Ĺng":12496,"leep":12497,"ĠXÃ´i":12498,"á»Ńu":12499,"ÄĲÃªm":12500,"tháº£m":12501,"tráº£i":12502,"ĠTá»§":12503,"ĠIsmail":12504,"irates":12505,"Ġ148":12506,"ĠMarine":12507,"ĠCá»ı":12508,"Ġ137":12509,"ĠStat":12510,"Ġtheir":12511,"ĠSlot":12512,"ĠClar":12513,"ears":12514,"ĠSerg":12515,"thuÃª":12516,"itsu":12517,"CAS":12518,"ĠSkoda":12519,"ĠAllian":12520,"ĠWild":12521,"Viettel":12522,"ĠWarner":12523,"encent":12524,"ĠDisc":12525,"bourg":12526,"ĠLouisiana":12527,"Ġmodem":12528,"ĠNicolas":12529,"ĠValentina":12530,"ĠDimensity":12531,"Ġflav":12532,"ĠCeline":12533,"Taylor":12534,"Hyundai":12535,"ĠEconomist":12536,"ĠVeloz":12537,"ĠNikkei":12538,"ĠAugust":12539,"ĠPicasso":12540,"Ġlatte":12541,"Morgan":12542,"ĠMitchell":12543,"Ġlearning":12544,"04":12545,"170":12546,"?)":12547,"Ben":12548,"HR":12549,"LÃ£nh":12550,"bang":12551,"bÃ¡o":12552,"cson":12553,"down":12554,"hong":12555,"kim":12556,"máº¡ng":12557,"má»įi":12558,"pad":12559,"rÃ¡c":12560,"rÃºt":12561,"seo":12562,"tá»Ļi":12563,"uar":12564,"ngá»§":12565,"ĠcÃ¹":12566,"Ġbeta":12567,"Ġtháº£nh":12568,"ĠchÄ©a":12569,"ĠkhÃ¢m":12570,"ĠdÄĥm":12571,"ĠngÃ¹ng":12572,"ĠNancy":12573,"Ġrou":12574,"chenko":12575,"ĠMQ":12576,"ĠVáº»":12577,"ĠBÃłnh":12578,"ayuki":12579,"ĠTrao":12580,"ĠAre":12581,"ĠAct":12582,"ĠLenn":12583,"ĠThÃº":12584,"ĠPul":12585,"ĠPhÃłm":12586,"ĠRáº«y":12587,"ĠFun":12588,"ĠFansipan":12589,"ĠGill":12590,"Ġback":12591,"ĠWag":12592,"ĠEdu":12593,"ĠJes":12594,"Ġrá»¥t":12595,"omi":12596,"ĠOt":12597,"ĠOla":12598,"ĠNhá»±t":12599,"edad":12600,"reat":12601,"ĠZen":12602,"ieu":12603,"ĠTucson":12604,"Ġ134":12605,"Ġwhen":12606,"ants":12607,"ĠCNA":12608,"uke":12609,"verde":12610,"lands":12611,"ĠTaycan":12612,"elena":12613,"ĠSchw":12614,"Ġuá»ĥ":12615,"ymastic":12616,"ĠMadam":12617,"ĠHolmes":12618,"ĠBroad":12619,"ĠSalah":12620,"hanouk":12621,"ECD":12622,"ĠVFF":12623,"ency":12624,"loween":12625,"Ġgaming":12626,"ĠGhost":12627,"ĠTerry":12628,"ĠRih":12629,"ĠWater":12630,"ĠSuboi":12631,"ĠFilip":12632,"biot":12633,"ĠBrians":12634,"AFTA":12635,"ofi":12636,"ĠLiberty":12637,"ĠDynamic":12638,"ĠAdrian":12639,"ovacs":12640,"ĠStellantis":12641,"ynthia":12642,"Ġlipid":12643,"ĠRashford":12644,"ĠPablo":12645,"ĠArmstrong":12646,"850":12647,"Danh":12648,"Fly":12649,"GM":12650,"Leb":12651,"Lá»Ŀi":12652,"PE":12653,"VID":12654,"aquin":12655,"lá»ĭch":12656,"lid":12657,"nan":12658,"nÃłng":12659,"wauk":12660,"yi":12661,"yÃªu":12662,"¥m":12663,"Ġ%":12664,"ĠÃ¡ng":12665,"Ġest":12666,"áº¨m":12667,"ĠvÃªnh":12668,"Ġkil":12669,"Ġsáº£y":12670,"Ġmon":12671,"Ġmá»ĭt":12672,"Ġnham":12673,"Ġnhá»Ļng":12674,"Ã´tÃ´":12675,"Ġgout":12676,"ĠchÃ²m":12677,"Ġngáº¥y":12678,"ĠNÃ©":12679,"ĠCav":12680,"ĠHáº¡ng":12681,"chÆ¡i":12682,"ĠMÃ¬":12683,"ĠMáºŃu":12684,"ĠMine":12685,"ĠMBS":12686,"ĠMeh":12687,"ĠVil":12688,"ĠBiá»ĩn":12689,"ĠÄĲam":12690,"ĠATC":12691,"ĠLac":12692,"ĠLine":12693,"ĠLTP":12694,"ĠÄĳÃ³m":12695,"ĠKris":12696,"ĠDanny":12697,"ĠGad":12698,"aray":12699,"Ġdown":12700,"ĠtuÃ½":12701,"ĠChild":12702,"ĠPhe":12703,"elin":12704,"ĠFig":12705,"Ġvá»¥ng":12706,"icut":12707,"ĠGiÃły":12708,"idt":12709,"ĠWel":12710,"ĠJos":12711,"ĠJoker":12712,"ÄĲÃło":12713,"ÄĲá»Ļng":12714,"ÄĲá»ĭa":12715,"osi":12716,"...),":12717,"Ġ124":12718,"Äĳáº¹p":12719,"akes":12720,"NgÃ´":12721,"obi":12722,"phÃ¡":12723,"ĠThuá»·":12724,"aldo":12725,"ĠLuk":12726,"giáº¥c":12727,"ĠArm":12728,"ops":12729,"ĠConan":12730,"ĠSoy":12731,"ĠAsc":12732,"ĠSind":12733,"Ġcoin":12734,"Ġprompt":12735,"ĠPres":12736,"ĠMedical":12737,"ĠAbram":12738,"ĠCommun":12739,"ĠMelinda":12740,"CON":12741,"ĠBerkshire":12742,"meir":12743,"appell":12744,"ĠRuben":12745,"ĠADB":12746,"ĠDNA":12747,"ĠAcutis":12748,"ĠAssange":12749,"ĠGrace":12750,"Ġplasma":12751,"ĠGháº¿":12752,"ĠImage":12753,"Ġguá»ĵng":12754,"ĠPuerto":12755,"ĠDemb":12756,"ĠRadio":12757,"ĠVillage":12758,"ĠHallie":12759,"ference":12760,"ĠLeonardo":12761,"ĠHelene":12762,"ĠLHQ":12763,"ĠSpecial":12764,"ĠCinema":12765,"ĠUnitree":12766,"Ġpastel":12767,"ĠDakota":12768,"Lebanon":12769,"waukee":12770,"ĠLTPO":12771,"ASEAN":12772,"CÃ¢y":12773,"Oppo":12774,"Super":12775,"Tiáº¿t":12776,"Tá»ĳt":12777,"aff":12778,"dÆ°á»Ľi":12779,"hem":12780,"kan":12781,"liÃªn":12782,"post":12783,"sw":12784,"táº¡m":12785,"tÃ¹y":12786,"Ġá»ĳ":12787,"á»©a":12788,"Ġtáº·c":12789,"Ġcol":12790,"Ġcap":12791,"Ġcasting":12792,"ĠvÃ¡nh":12793,"há»ĵi":12794,"ĠliÃªng":12795,"Ġbut":12796,"Ġsáº£o":12797,"ĠnhÃ£ng":12798,"Ġni":12799,"ĠgÃłi":12800,"Ġget":12801,"ĠpH":12802,"ĠTester":12803,"ĠTiff":12804,"ĠTencent":12805,"Ġpháº¥t":12806,"ĠphÃ¬nh":12807,"ĠNub":12808,"Ġxiáº¿t":12809,"ĠrÃ´ng":12810,"ĠrÃ¬nh":12811,"ĠCynthia":12812,"ĠHid":12813,"chin":12814,"ĠMoy":12815,"ĠVA":12816,"ĠLÃ¡ng":12817,"eok":12818,"ĠPers":12819,"ĠKil":12820,"arov":12821,"ĠChua":12822,"ĠChap":12823,"ĠChÃ¡u":12824,"ĠPhÃ¡o":12825,"ĠPhel":12826,"Ġ460":12827,"ĠRÃµ":12828,"ĠRest":12829,"ĠFol":12830,"icano":12831,"isoo":12832,"ĠGiÃłu":12833,"ĠJeep":12834,"rag":12835,"rade":12836,"Ġ910":12837,"ĠYi":12838,"ĠXÃŃ":12839,"ÄĲáº¥t":12840,"ilm":12841,"urg":12842,"Ġgá»įt":12843,"Ġ154":12844,"TrÃŃ":12845,"Trá»ĭnh":12846,"ewe":12847,"teur":12848,"Ġáº¢":12849,"iri":12850,"ĠHyper":12851,"ĠiCon":12852,"ĠVietbank":12853,"ĠVietravel":12854,"ĠMaine":12855,"ĠShakira":12856,"ĠSpark":12857,"ĠGray":12858,"ĠBlan":12859,"ĠUnder":12860,"ĠMonde":12861,"oxide":12862,"ĠCamry":12863,"ĠHeart":12864,"ĠWalsh":12865,"heed":12866,"ĠDonna":12867,"onders":12868,"ĠMilton":12869,"ĠEnzo":12870,"ĠKaroline":12871,"ĠMorocco":12872,"ĠWars":12873,"ĠBybit":12874,"ĠRams":12875,"ĠVCBS":12876,"Argentina":12877,"ĠACV":12878,"ĠSubaru":12879,"ĠHiros":12880,"ĠLeslie":12881,"Ġpolyp":12882,"othy":12883,"ĠCorey":12884,"ĠDuncan":12885,"ĠKathleen":12886,"edding":12887,"rettini":12888,"ĠJakarta":12889,"ĠJolie":12890,"ĠCCTV":12891,"erospace":12892,"ĠWright":12893,"ĠKardashi":12894,"ĠRutte":12895,"ĠESPN":12896,"ĠSightings":12897,"ĠGeoffrey":12898,"Air":12899,"Aura":12900,"Cup":12901,"Cá»¥":12902,"HTS":12903,"Ká»¹":12904,"Mad":12905,"RP":12906,"Suá»ĳt":12907,"aj":12908,"bol":12909,"bak":12910,"báº«y":12911,"cá»Ŀ":12912,"ea":12913,"fica":12914,"fils":12915,"kiáº¿n":12916,"lav":12917,"pire":12918,"tune":12919,"viet":12920,"xáº¿p":12921,"ynet":12922,"Ġ@":12923,"Ġeth":12924,"ĠtÃŃa":12925,"nháºŃn":12926,"nhÃ¬n":12927,"ĠtrÃ²ng":12928,"Ġthiá»ģu":12929,"Ġsi":12930,"ĠmÃºt":12931,"ĠhÃº":12932,"Ġhashtag":12933,"Ġná»Ļm":12934,"Ġngáº©n":12935,"ĠTÃły":12936,"ĠTuyá»ĩt":12937,"Ġhá»Ŀ":12938,"ĠNFC":12939,"ĠquÃłng":12940,"Ġquá»ĩ":12941,"Ġruá»ĳc":12942,"anu":12943,"ĠCong":12944,"ĠVn":12945,"ĠBong":12946,"ĠBáº¿p":12947,"ĠBurn":12948,"ĠBashar":12949,"ĠTrev":12950,"ĠSáº§m":12951,"ĠAerospace":12952,"ĠLives":12953,"ĠThÃ¡ch":12954,"ĠPad":12955,"ĠPHEV":12956,"ĠGuy":12957,"arin":12958,"ĠKhuáº¥t":12959,"orah":12960,"orca":12961,"ĠRas":12962,"ĠWEF":12963,"ĠWemb":12964,"ĠEX":12965,"roe":12966,"ĠYann":12967,"ĠXV":12968,"ĠXÃ¡":12969,"ĠOz":12970,"Ġ1946":12971,"ages":12972,"apest":12973,"ieg":12974,"iko":12975,"ĠghÃ¬":12976,"Ġ179":12977,"aldi":12978,"amping":12979,"ĠVietlott":12980,"rygo":12981,"lind":12982,"ombat":12983,"ĠAms":12984,"ĠAmie":12985,"Ġláº»o":12986,"ĠVinmec":12987,"GiÃ¡m":12988,"ĠBling":12989,"ĠITIA":12990,"ĠRoos":12991,"kshow":12992,"shu":12993,"ghÃ©p":12994,"ĠVienna":12995,"ĠMiy":12996,"ullah":12997,"ĠMorris":12998,"ologies":12999,"ĠIDC":13000,"IMF":13001,"ĠHalf":13002,"ĠSolar":13003,"ĠSiem":13004,"presso":13005,"ĠBobby":13006,"ĠJacqu":13007,"ĠChinat":13008,"Loáº¡t":13009,"tourist":13010,"Black":13011,"ĠElectric":13012,"ĠHampshire":13013,"ĠFTSE":13014,"ĠHughes":13015,"Commerce":13016,"ĠPeskov":13017,"ĠJabbar":13018,"ĠCorporation":13019,"Ġtoilet":13020,"ĠTiffany":13021,"ĠWembley":13022,"435":13023,"Cá»Ļng":13024,"Health":13025,"KiÃªn":13026,"Level":13027,"Mic":13028,"WEF":13029,"cáº§m":13030,"cá»Ńa":13031,"eco":13032,"fin":13033,"pers":13034,"Ġlá»ĳ":13035,"ĠsÃłi":13036,"ĠsÆ°a":13037,"Ġsatin":13038,"Ġsushi":13039,"ĠhÃºng":13040,"Ġnhen":13041,"Ġpre":13042,"ĠNE":13043,"Æ°á»£m":13044,"ĠCi":13045,"ĠcÃ³p":13046,"ĠHit":13047,"chÃ¢n":13048,"aits":13049,"ĠBÃ²":13050,"iá»ĥng":13051,"ĠÄĲÃ¨o":13052,"ĠLag":13053,"ĠLPB":13054,"ĠThis":13055,"ĠDark":13056,"ĠGua":13057,"Ġtui":13058,"ĠKherson":13059,"eline":13060,"ĠRT":13061,"ĠRÆ°á»£u":13062,"ĠFlo":13063,"ĠFusion":13064,"Ġsá»Ńng":13065,"atsu":13066,"ĠJill":13067,"ĠChá»Ŀ":13068,"otion":13069,"agra":13070,"ÄĳÄĥng":13071,"ĠHá»Ľi":13072,"ĠTower":13073,"ikov":13074,"Ġ138":13075,"abis":13076,"ĠState":13077,"Ġfiller":13078,"ĠHybrid":13079,"ĠiS":13080,"Ġ09":13081,"khÃ¡":13082,"star":13083,"owell":13084,"ĠEmirates":13085,"istic":13086,"ĠCox":13087,"achan":13088,"thá»ıa":13089,"ĠDep":13090,"1991":13091,"ĠMadison":13092,"ĠHoly":13093,"ĠJeong":13094,"ĠBerg":13095,"ĠMilwaukee":13096,"ĠValverde":13097,"ĠEngland":13098,"ĠGSM":13099,"ĠWiles":13100,"onseca":13101,"ssID":13102,"ĠRogers":13103,"Phá»Ł":13104,"ĠColleen":13105,"ĠLabs":13106,"ĠMidd":13107,"ĠKuala":13108,"ĠJunior":13109,"ĠMatteo":13110,"ĠHilal":13111,"Thuáº¿":13112,"ĠHassabis":13113,"ĠKeymer":13114,"ĠCounter":13115,"ĠAlberto":13116,"ĠSystem":13117,"ĠCatal":13118,"enhagen":13119,"ĠJPMorgan":13120,"ĠCAHN":13121,"ĠHIMARS":13122,"ĠBeyoncÃ©":13123,"ĠBentley":13124,"ĠAutomotive":13125,"ĠLockheed":13126,"Ġtweed":13127,"07":13128,"BÆ°á»Ľc":13129,"GR":13130,"Háº¡":13131,"IF":13132,"Liá»ĩu":13133,"Miss":13134,"Náº±m":13135,"Pal":13136,"Sacombank":13137,"bro":13138,"dáº¥u":13139,"hÃ¬nh":13140,"mons":13141,"náº±m":13142,"ná»ģn":13143,"suit":13144,"xa":13145,"Â°":13146,"á»©t":13147,"nguyÃªn":13148,"ĠÄĳao":13149,"Ġnháº¡o":13150,"Ġgáº¥m":13151,"ĠTet":13152,"ĠTat":13153,"ĠTalk":13154,"Ġhá»£t":13155,"ĠNT":13156,"ĠNá»£":13157,"ĠNFT":13158,"ĠrÆ°á»Ŀm":13159,"ĠCÃłnh":13160,"ĠHP":13161,"ĠMiáº¿n":13162,"ĠMoll":13163,"ĠMRI":13164,"ĠVas":13165,"Ġmá»Ńa":13166,"ĠLuyá»ĩn":13167,"ince":13168,"ĠThund":13169,"ĠPage":13170,"ĠNguyá»ĩn":13171,"Ġ(+":13172,"ĠDáº¡y":13173,"ĠGÃ¡i":13174,"Ã©dÃ©":13175,"ĠNham":13176,"ales":13177,"ĠCham":13178,"ĠChÃŃn":13179,"ĠChappell":13180,"ĠtoÃł":13181,"ĠÄĳom":13182,"umma":13183,"ĠWo":13184,"ĠEye":13185,"ÄĲan":13186,"oman":13187,"Tráº»":13188,"ige":13189,"igor":13190,"ĠThuáº§n":13191,"ebank":13192,"ĠKimber":13193,"ĠSpir":13194,"ĠCarr":13195,"atham":13196,"ĠScient":13197,"ization":13198,"ĠCNY":13199,"ouri":13200,"Chá»£":13201,"oldova":13202,"ĠUni":13203,"ugh":13204,"ĠMoMo":13205,"Ġdeadline":13206,"ĠBerrettini":13207,"Ġmá»ım":13208,"SIP":13209,"ancer":13210,"VietinBank":13211,"Ġ1959":13212,"ĠDelta":13213,"ĠGerard":13214,"ĠSabrina":13215,"ĠHalloween":13216,"ĠMetropol":13217,"ucci":13218,"ĠSiph":13219,"ĠTea":13220,"ĠRodrygo":13221,"ĠStraits":13222,"ĠVikki":13223,"Ãģp":13224,"Ġoffline":13225,"ĠCeleb":13226,"ĠRhymastic":13227,"ĠSingh":13228,"ĠBuds":13229,"ĠBowl":13230,"ĠSevilla":13231,"ĠUPCOM":13232,"Huá»³nh":13233,"ĠCoolray":13234,"ĠPitts":13235,"Ġscandal":13236,"Äĳoáº¡n":13237,"ĠImagine":13238,"ĠConnecticut":13239,"John":13240,"ĠScarlett":13241,"ĠQuantum":13242,"ĠCCCD":13243,"ĠLumpur":13244,"ĠGomez":13245,"ĠJesus":13246,"ĠDembele":13247,"ĠKardashian":13248,"110":13249,"230":13250,"?'.":13251,"BL":13252,"Biáº¿n":13253,"IL":13254,"Má»Ł":13255,"NÃ¢ng":13256,"Ná»ģn":13257,"cÃ¡nh":13258,"káº¿":13259,"kiáº¿m":13260,"lÃ´":13261,"lat":13262,"rik":13263,"sáº§u":13264,"táº¡i":13265,"xÃ³a":13266,"yon":13267,"ĠÃºp":13268,"Ġtáº¯n":13269,"Ġthey":13270,"ĠniÃªu":13271,"Ġcherry":13272,"ĠdÃ´ng":13273,"Ġnga":13274,"ĠvÃłn":13275,"ĠgiÃªng":13276,"ĠNPR":13277,"ĠMomo":13278,"ĠBee":13279,"ĠÄĲáº£m":13280,"ĠTráºŃt":13281,"ĠTrÆ°a":13282,"ĠSul":13283,"ĠSens":13284,"ĠSá»§i":13285,"ĠLiá»ĩt":13286,"ĠLad":13287,"ĠLif":13288,"ĠLotus":13289,"ĠKok":13290,"ĠNami":13291,"iathlon":13292,"ĠIce":13293,"iman":13294,"uage":13295,"eter":13296,"aster":13297,"ĠÄĲá»£i":13298,"itar":13299,"ĠEst":13300,"Ġ720":13301,"omnia":13302,"tháº§y":13303,"ÄĳÃ¨n":13304,"ĠLeh":13305,"ĠMarin":13306,"aven":13307,"lya":13308,"ĠStock":13309,"risban":13310,"ĠBá»ģn":13311,"giáº¥y":13312,"ĠHuÃª":13313,"lop":13314,"ĠShepard":13315,"ĠConn":13316,"ĠLow":13317,"ĠElli":13318,"ĠManuel":13319,"Ġmuá»Ĺng":13320,"Chá»ĵng":13321,"ĠAdidas":13322,"ĠGlass":13323,"ĠPrivate":13324,"seille":13325,"ĠMadonna":13326,"ĠSwe":13327,"ĠSyrsky":13328,"Há»įa":13329,"ĠMaybach":13330,"ĠMissouri":13331,"ĠMagrit":13332,"ĠAgassi":13333,"EST":13334,"ĠHalal":13335,"ĠWhats":13336,"evelt":13337,"Ġhydrogen":13338,"ĠBrandon":13339,"ĠMiranda":13340,"ĠPopyrin":13341,"ĠBudapest":13342,"Ġcardigan":13343,"ĠBolivia":13344,"ÄĲoáº¡n":13345,"ĠAthlet":13346,"Ġballet":13347,"ĠKasper":13348,"ĠCastro":13349,"jeong":13350,"ĠPalisades":13351,"ĠMaps":13352,"ĠGangnam":13353,"ĠPrague":13354,"David":13355,"ĠAdelaide":13356,"Ġrupee":13357,"ĠAbrams":13358,"ĠiContent":13359,"ĠRoosevelt":13360,"Ã©dÃ©ric":13361,"risbane":13362,"ĠMagritte":13363,"%);":13364,"Biáº¿t":13365,"Dai":13366,"Jack":13367,"Link":13368,"LNG":13369,"PD":13370,"VM":13371,"VCCI":13372,"fu":13373,"fÃ©":13374,"hÃ³a":13375,"háºŃu":13376,"ii":13377,"qi":13378,"viáº¿t":13379,"wha":13380,"ĠÆ°":13381,"Ġ00":13382,"Ġev":13383,"ĠtÆ¡i":13384,"ĠvÆ¡":13385,"Ġlim":13386,"ĠhÃ¢n":13387,"Ġhon":13388,"Ġhis":13389,"Ġnai":13390,"Ġcháº§u":13391,"ĠÄĳá»į":13392,"Ġdr":13393,"ĠdÄ©a":13394,"ĠngÃ³":13395,"Ġngan":13396,"ĠTÃ²ng":13397,"ĠTig":13398,"ĠNG":13399,"ĠNÃ´m":13400,"ĠrÃ¡ng":13401,"Ġrua":13402,"Ġreview":13403,"ĠHello":13404,"chat":13405,"ĠBis":13406,"ĠBing":13407,"ĠSac":13408,"ĠLov":13409,"ĠNgáº¡n":13410,"ĠKÃª":13411,"ĠKend":13412,"ĠDiá»ģu":13413,"ĠDid":13414,"ĠDiÃªm":13415,"ĠGran":13416,"ĠGust":13417,"Ġ310":13418,"Ġ390":13419,"Ġloanh":13420,"ĠFV":13421,"ĠFrid":13422,"ĠFour":13423,"ĠFried":13424,"ĠFonseca":13425,"ated":13426,"ĠGiÃºp":13427,"ĠWard":13428,"illy":13429,"ĠOCOP":13430,"inga":13431,"thor":13432,"oste":13433,"agle":13434,"Ġnhuáº§n":13435,"Ġ153":13436,"ief":13437,"enta":13438,"Ġ166":13439,"phiÃªn":13440,"lycer":13441,"ĠNghá»ī":13442,"âĢĵ":13443,"giÃºp":13444,"Ġchá»Ŀn":13445,"opment":13446,"ĠLá»Ĺ":13447,"ĠSharon":13448,"quÃ¢n":13449,"SEC":13450,"ĠSoci":13451,"rypto":13452,"ĠDuke":13453,"ĠVNPAY":13454,"endi":13455,"ĠMonfils":13456,"ĠFresh":13457,"ĠAdobe":13458,"ĠPrime":13459,"ĠGeog":13460,"ĠBenfica":13461,"ĠAngelina":13462,"shine":13463,"ĠHerit":13464,"ĠMiu":13465,"MAs":13466,"ĠAssist":13467,"thing":13468,"Vietjet":13469,"ĠSimone":13470,"ĠBelgorod":13471,"ĠBeaut":13472,"ĠTerrit":13473,"ĠCopenhagen":13474,"ĠMuham":13475,"ĠLimo":13476,"Ãģo":13477,"ĠIBM":13478,"ĠRaize":13479,"ĠDeborah":13480,"ĠEriksson":13481,"ĠPegula":13482,"ĠSá»£i":13483,"HDBank":13484,"ĠShanghai":13485,"ĠValerie":13486,"narumma":13487,"ĠSchmidt":13488,"ĠRodriguez":13489,"ĠSergey":13490,"ĠAscend":13491,"bakina":13492,"yneth":13493,"BID":13494,"CÅ©ng":13495,"NÆ¡i":13496,"VÃłng":13497,"Vui":13498,"VND":13499,"Vá»«a":13500,"Wang":13501,"bá»©c":13502,"cáº£":13503,"cÃº":13504,"láº§n":13505,"lah":13506,"less":13507,"rine":13508,"táº¥t":13509,"vas":13510,"xu":13511,"zania":13512,"§i":13513,"Éª":13514,"ĠÃ¡ch":13515,"ngá»Ļ":13516,"Ġmil":13517,"Ġhun":13518,"Ġnude":13519,"Ġdep":13520,"ĠTao":13521,"ĠToshi":13522,"Ġvá»«ng":13523,"Ġthá»ī":13524,"ĠNDT":13525,"Ġxui":13526,"Ġret":13527,"ĠrÆ°á»Ľi":13528,"ĠCau":13529,"ĠHVN":13530,"ĠMes":13531,"ĠMig":13532,"ĠMatch":13533,"ĠMoldova":13534,"aijan":13535,"ĠVssID":13536,"ĠBá»Ļt":13537,"ĠBÃ¹ng":13538,"ĠBrain":13539,"ĠBá»Ńu":13540,"ĠÄĲá»ķng":13541,"ĠTracey":13542,"ĠAx":13543,"ĠATA":13544,"ĠThink":13545,"Ġhoáº¡":13546,"ĠPrab":13547,"ĠKash":13548,"ĠKush":13549,"ĠDoll":13550,"ĠDance":13551,"erano":13552,"Ġsá»ĩt":13553,"Ġtuá»Ļt":13554,"ĠPhen":13555,"iac":13556,"ĠRab":13557,"ĠFrom":13558,"ĠQuÃ£ng":13559,"iton":13560,"ĠEt":13561,"ĠEarth":13562,"ĠXo":13563,"ĠXÃºc":13564,"ĠOf":13565,"ĠOng":13566,"ĠNgoisao":13567,"Thiáº¿u":13568,"andt":13569,"ĠInformation":13570,"ĠDow":13571,"1954":13572,"Ġ162":13573,"Ġ141":13574,"ĠReview":13575,"AIC":13576,"estan":13577,"giáº£":13578,"skever":13579,"ophie":13580,"ĠConvers":13581,"Thá»ķ":13582,"yler":13583,"ĠNewsom":13584,"ĠDead":13585,"ĠDeAura":13586,"ĠMonash":13587,"ĠFrÃ©dÃ©ric":13588,"ĠSuni":13589,"ĠBerry":13590,"ĠTVB":13591,"ĠCOVID":13592,"ĠAccent":13593,"quez":13594,"ĠSimmons":13595,"ĠType":13596,"ĠDragons":13597,"1986":13598,"ĠSilver":13599,"ĠSHS":13600,"erbaijan":13601,"ĠMediaTek":13602,"ĠEconomics":13603,"ĠIMF":13604,"ĠPasteur":13605,"ĠIshiba":13606,"Masan":13607,"ĠJared":13608,"ĠImages":13609,"ĠSutskever":13610,"ĠCathy":13611,"ĠSentosa":13612,"ĠPhillips":13613,"ĠExplor":13614,"temala":13615,"Ġfintech":13616,"phenol":13617,"California":13618,"ĠJorge":13619,"Ġcocaine":13620,"Desk":13621,"ĠChinatown":13622,"Microsoft":13623,"ACB":13624,"BV":13625,"Bang":13626,"CPI":13627,"Káº»":13628,"SÃ¢n":13629,"TI":13630,"bs":13631,"biá»ĥu":13632,"gas":13633,"gun":13634,"ká»ĥ":13635,"pack":13636,"sÃ´ng":13637,"váºŃt":13638,"vÃ©":13639,"yong":13640,"ÉĻ":13641,"ËĪ":13642,"nghiá»ĩn":13643,"ĠkÃ©t":13644,"ĠbÃ¡ng":13645,"Ġbest":13646,"Ġsex":13647,"ĠhÃ¡":13648,"Ġnao":13649,"Ġglu":13650,"ĠdÆ¡i":13651,"ĠngÃ¡y":13652,"ĠTÃłn":13653,"ĠNon":13654,"ĠNUS":13655,"ĠxÃ²e":13656,"Ġquáº¹t":13657,"Ġchá»£p":13658,"ĠCiao":13659,"cháº¯c":13660,"aia":13661,"ĠBak":13662,"ĠBetty":13663,"ĠThat":13664,"augh":13665,"ĠPM":13666,"ĠPetro":13667,"ĠDÆ°á»¡ng":13668,"ĠGaz":13669,"ĠGá»Ńi":13670,"ĠNháº¯c":13671,"Ġbá»ĩt":13672,"Ġbá»§a":13673,"alie":13674,"Ġká»ģn":13675,"ĠIga":13676,"ĠRank":13677,"emon":13678,"ĠGib":13679,"Ã¨s":13680,"idol":13681,"ĠWTO":13682,"iter":13683,"round":13684,"CMS":13685,"ÄĲinh":13686,"ĠOh":13687,"Ġ151":13688,"Tráº£i":13689,"rew":13690,"aks":13691,"entiane":13692,"ublic":13693,"ĠHarmon":13694,"mane":13695,"rylic":13696,"lini":13697,"asta":13698,"uda":13699,"antz":13700,"ĠCourt":13701,"ĠBrett":13702,"thá»©c":13703,"ĠVinSpeed":13704,"ylan":13705,"uka":13706,"ĠÄĲoan":13707,"indy":13708,"ĠGareth":13709,"BSF":13710,"ĠFrance":13711,"ĠSanz":13712,"ĠGreenwood":13713,"ĠBuck":13714,"ĠPeters":13715,"ĠUll":13716,"ĠVientiane":13717,"giá»Ľi":13718,"ĠMerino":13719,"ĠMats":13720,"ĠHunt":13721,"ĠSihanouk":13722,"1982":13723,"ĠtÃºm":13724,"ĠCasey":13725,"ĠNepomnia":13726,"Nghá»ģ":13727,"ĠTechnologies":13728,"ĠMirror":13729,"ĠRybakina":13730,"ĠAbdullah":13731,"ĠAdams":13732,"Eximbank":13733,"ĠOklah":13734,"ĠJohann":13735,"ĠHackman":13736,"ĠRolling":13737,"Play":13738,"ĠPearson":13739,"Volodymyr":13740,"ĠOPEC":13741,"ĠLenovo":13742,"alysis":13743,"chtchi":13744,"atasaray":13745,"Ġcasino":13746,"ĠKimberly":13747,"ĠSociedad":13748,"ĠGeographic":13749,"ĠNepomniachtchi":13750,"Br":13751,"Báº¯t":13752,"CE":13753,"Dr":13754,"HP":13755,"Má»ĳi":13756,"Max":13757,"Rob":13758,"Smartphone":13759,"She":13760,"VPBank":13761,"YÃªn":13762,"bury":13763,"cu":13764,"cul":13765,"danh":13766,"hon":13767,"iya":13768,"jour":13769,"kar":13770,"kes":13771,"kawa":13772,"pho":13773,"rard":13774,"uard":13775,"wh":13776,"zan":13777,"Ġtá»Ļt":13778,"nháº¥t":13779,"Ġbass":13780,"Ġsl":13781,"Ġsuyá»ħn":13782,"ĠnhÃ²a":13783,"Ġná»±c":13784,"Ġcháº¥u":13785,"Ġdec":13786,"Ġpate":13787,"ĠTaxi":13788,"Ġphung":13789,"ĠgiÅ©":13790,"ĠNÃºt":13791,"ĠNode":13792,"ĠNelson":13793,"ĠMut":13794,"ĠMund":13795,"ĠMake":13796,"ĠMoney":13797,"ĠMá»ı":13798,"ĠTrÃ¡ch":13799,"ĠTrÃło":13800,"ĠSáº¯t":13801,"ĠLO":13802,"ĠLá»į":13803,"ĠPE":13804,"ĠNgÃ£":13805,"ĠDá»įc":13806,"ĠGin":13807,"ĠGÃ¢y":13808,"ĠNhÃ£n":13809,"ĠChor":13810,"ĠChlo":13811,"ĠPhÃ¡n":13812,"imet":13813,"ĠFok":13814,"atus":13815,"oln":13816,"ĠWan":13817,"ĠEIB":13818,"lear":13819,"Ġkáº¿p":13820,"ĠXá»Ń":13821,"trick":13822,"andone":13823,"agascar":13824,"ĠNhá»±a":13825,"ĠInverter":13826,"Cháº³ng":13827,"PhÃºt":13828,"ogen":13829,"ird":13830,"illo":13831,"risc":13832,"ĠiMac":13833,"TPA":13834,"kham":13835,"ĠConcert":13836,"Ġxá»Ľi":13837,"ffic":13838,"riz":13839,"ĠAsus":13840,"Thá»ĳng":13841,"chá»£":13842,"ĠMyVIB":13843,"ĠGene":13844,"lando":13845,"ĠPress":13846,"ĠMessenger":13847,"ĠWalt":13848,"ĠKurd":13849,"ĠMilk":13850,"ĠValley":13851,"ĠChoice":13852,"ĠChopper":13853,"agioli":13854,"ĠSkin":13855,"ĠMorata":13856,"IME":13857,"ĠDJIA":13858,"ĠRenÃ©":13859,"ĠLynk":13860,"ĠLynlee":13861,"ushima":13862,"ĠLimited":13863,"Ġngá»¥m":13864,"ĠMallorca":13865,"ĠCountry":13866,"ĠFelice":13867,"ĠLilly":13868,"ĠJaspers":13869,"ĠVespa":13870,"Ġtalkshow":13871,"ĠDefense":13872,"Ġboxing":13873,"ĠBardella":13874,"ĠCosta":13875,"ĠBarbara":13876,"ĠNicholas":13877,"ĠAlabama":13878,"ĠMontreal":13879,"ĠMarshall":13880,"ĠSiphandone":13881,"ĠTerritory":13882,"ĠConversation":13883,"Bal":13884,"Bron":13885,"Cun":13886,"Ghi":13887,"Hung":13888,"HÆ°á»Ľng":13889,"LT":13890,"Lao":13891,"Me":13892,"Mon":13893,"Pr":13894,"Soft":13895,"TÃ¡o":13896,"UH":13897,"Uni":13898,"Vic":13899,"VAT":13900,"WB":13901,"You":13902,"furt":13903,"hua":13904,"kac":13905,"other":13906,"pir":13907,"tÃŃch":13908,"táº¥n":13909,"Ã§":13910,"Ġuyá»ĥn":13911,"Ġá»ĳi":13912,"Ġodo":13913,"nghe":13914,"Ġcom":13915,"Ġcur":13916,"ĠÄĳong":13917,"Ġbilliards":13918,"Ġmore":13919,"Ġháº±n":13920,"Ġgáº·m":13921,"ĠTi":13922,"ĠTTX":13923,"Ġtá»³":13924,"Ġtá»ģ":13925,"ĠCá»±":13926,"ĠHÆ°á»Łng":13927,"ĠHáº¯c":13928,"chÃ³":13929,"ĠMÄĥng":13930,"ĠMÃ¨o":13931,"ĠMiá»ħu":13932,"ĠMile":13933,"ĠVáº£i":13934,"ĠVÃłm":13935,"ĠVoi":13936,"ĠVEC":13937,"ĠBRI":13938,"ĠÄĲÄ©a":13939,"ĠSyn":13940,"ĠAki":13941,"ĠLÃŃnh":13942,"ĠLinc":13943,"ĠDA":13944,"ĠDawn":13945,"ĠGAC":13946,"ĠGHz":13947,"ĠtuÃ´ng":13948,"ĠChai":13949,"iator":13950,"imon":13951,"ĠFat":13952,"Ġ680":13953,"asia":13954,"isson":13955,"ĠWy":13956,"ĠJisoo":13957,"ÄĲÆ¡n":13958,"tru":13959,"Ġ129":13960,"ĠÄĳá»ĳn":13961,"Ġcafe":13962,"Äĳá»Ļ":13963,"rec":13964,"PTE":13965,"upe":13966,"ĠAlm":13967,"ĠBanks":13968,"ĠLeCun":13969,"Ġ186":13970,"Ġ143":13971,"ĠMarvel":13972,"ĠReid":13973,"Ġour":13974,"Ġfolate":13975,"ĠNghÃ©":13976,"ĠShark":13977,"ĠDuong":13978,"chá»įn":13979,"Ġcarton":13980,"ĠGreer":13981,"ĠMono":13982,"ĠSteel":13983,"otten":13984,"ĠDiCap":13985,"ĠSunshine":13986,"ĠGBU":13987,"toria":13988,"âĢĻ),":13989,"ĠAbbas":13990,"ĠPerp":13991,"ĠDonnarumma":13992,"Ġ1957":13993,"ĠChae":13994,"ereum":13995,"iffe":13996,"ĠHilton":13997,"ĠLucy":13998,"ĠKnight":13999,"ĠAzerbaijan":14000,"ĠEcovacs":14001,"ĠVillar":14002,"chuáº©n":14003,"ĠPamela":14004,"ĠBadosa":14005,"ĠEndrick":14006,"ĠPalisade":14007,"ĠAlessandro":14008,"ovenia":14009,"Saigon":14010,"ĠCalderano":14011,"ĠVlogs":14012,"ĠGuatemala":14013,"ĠOklahoma":14014,"ĠDiCaprio":14015,"Crunch":14016,"LP":14017,"MD":14018,"Metro":14019,"MCA":14020,"Paul":14021,"Ronald":14022,"Show":14023,"Shop":14024,"TiÃªu":14025,"Vi":14026,"VÃ¹ng":14027,"bra":14028,"cá»¥c":14029,"dá»ħ":14030,"hÃ£y":14031,"jandro":14032,"lÃłn":14033,"lÆ°á»£t":14034,"ouse":14035,"pus":14036,"táº¡o":14037,"uoka":14038,"wi":14039,"xÃª":14040,"xá»Ń":14041,"Ġáº£":14042,"ĠÃ³":14043,"ĠÃ³ng":14044,"Ġum":14045,"áº©ng":14046,"ĠcÃłn":14047,"Ġkiá»ĩu":14048,"ĠmÃºc":14049,"ĠnÃ¡n":14050,"Ġcháº¡c":14051,"Ġkham":14052,"Ġpass":14053,"Ġpool":14054,"ĠTau":14055,"ĠTá»įa":14056,"ĠNáº¯ng":14057,"Ġquáº·c":14058,"antha":14059,"ĠHis":14060,"chel":14061,"chuyáº¿n":14062,"ĠVung":14063,"ĠBrisbane":14064,"ĠnÄĥn":14065,"Ġ212":14066,"amoto":14067,"ĠTráº£ng":14068,"ĠSO":14069,"ĠSBS":14070,"ĠAU":14071,"ĠLap":14072,"ĠThor":14073,"ĠThÃ©p":14074,"Ġhop":14075,"ĠPO":14076,"ĠPap":14077,"ĠPTPA":14078,"Ġthuá»·":14079,"ĠKits":14080,"ĠDell":14081,"Ã©al":14082,"alur":14083,"ĠChern":14084,"ĠPharma":14085,"ĠUK":14086,"ĠloÃ¡t":14087,"ĠILO":14088,"ĠICON":14089,"ĠRid":14090,"ĠRá»§i":14091,"ĠÃī":14092,"ĠFagioli":14093,"Ġnhá»ī":14094,"etch":14095,"ĠWonder":14096,"iti":14097,"ĠES":14098,"rot":14099,"Ġngá»Ľ":14100,"Ġ950":14101,"ĠYeo":14102,"ĠXÃ¹a":14103,"Ġduá»ĩ":14104,"andre":14105,"otel":14106,"oki":14107,"Tráº¡m":14108,"Chung":14109,"rect":14110,"Ġtrailer":14111,"ĠAlban":14112,"hoáº¡t":14113,"ahan":14114,"ĠMarseille":14115,"ĠKhoang":14116,"tonia":14117,"ĠStation":14118,"Ġweek":14119,"Ġwww":14120,"Ġfashion":14121,"allium":14122,"stant":14123,"evic":14124,"ĠCarbon":14125,"ĠCarney":14126,"enny":14127,"ĠAsahi":14128,"antar":14129,"ĠSlovenia":14130,"á»·u":14131,"ĠInstit":14132,"ĠPhilip":14133,"ĠMoz":14134,"ĠUyá»ĥn":14135,"ĠExper":14136,"Houthi":14137,"ĠTomas":14138,"ĠTomato":14139,"ĠJackpot":14140,"ĠPrada":14141,"ĠLandmark":14142,"ĠWinter":14143,"ĠBrooks":14144,"ĠFarah":14145,"ĠKidman":14146,"Ġacrylic":14147,"ĠScholar":14148,"ĠNSND":14149,"ĠAdvanced":14150,"ĠCoinDesk":14151,"Ġcaffein":14152,"ĠABBank":14153,"ĠKentuck":14154,"ĠMountain":14155,"Ġopera":14156,"Ġorganza":14157,"ĠVKSND":14158,"ĠErnest":14159,"ĠSebastian":14160,"ĠtuÃ½p":14161,"ĠWhatsApp":14162,"ĠTTXVN":14163,"135":14164,"560":14165,"Amer":14166,"Cuá»ĳn":14167,"Free":14168,"Liverpool":14169,"Made":14170,"NC":14171,"NI":14172,"VÃŃ":14173,"XÃ¢y":14174,"flu":14175,"girl":14176,"nipro":14177,"power":14178,"qlo":14179,"tá»Ń":14180,"tuyá»ĩt":14181,"Ã¤":14182,"Ġoi":14183,"Ġcáº¥n":14184,"Ġcre":14185,"ĠcÃµi":14186,"Ġlight":14187,"Ġbin":14188,"ĠbÆ°ng":14189,"ĠthÃ³c":14190,"Ġsáº§n":14191,"ĠnÃŃn":14192,"Ġnáº¥c":14193,"Ġgar":14194,"Ġgroup":14195,"ĠchÃ¬nh":14196,"Ġdáº±n":14197,"ĠTF":14198,"ĠphÃ¨n":14199,"Ġvá»¯a":14200,"Ġhá»ħ":14201,"Ġxáº¯n":14202,"ĠCe":14203,"ĠHau":14204,"ĠHand":14205,"ĠMÅ©":14206,"ĠMell":14207,"ĠMLS":14208,"ĠMHz":14209,"ĠBCM":14210,"ĠSag":14211,"ĠSuÃ´i":14212,"ĠSald":14213,"ĠSamp":14214,"ĠStern":14215,"ĠAur":14216,"ĠLay":14217,"ĠLis":14218,"ĠLum":14219,"ĠLá»Ĺi":14220,"ĠLille":14221,"ĠTháº£m":14222,"ĠThaco":14223,"ĠPOS":14224,"ĠPaint":14225,"ĠKBS":14226,"ĠDW":14227,"ĠDuyá»ĩt":14228,"ĠNhÃ¹":14229,"ĠNháº¡n":14230,"alop":14231,"ĠPhanh":14232,"Ġá»¶":14233,"ĠRus":14234,"icia":14235,"iston":14236,"idar":14237,"ĠED":14238,"Ġkhuá»·u":14239,"leg":14240,"ĠYah":14241,"ĠXIV":14242,"ilates":14243,"urch":14244,"trÃ²":14245,"trá»±c":14246,"unis":14247,"Äĳáº£o":14248,"ChÃ¡u":14249,"1964":14250,"igu":14251,"Ġ183":14252,"ĠThuáº¥n":14253,"Ġ146":14254,"ĠMarina":14255,"Ġ174":14256,"uev":14257,"ĠJohan":14258,"ĠArrow":14259,"axo":14260,"ĠShar":14261,"ĠCarn":14262,"ĠCarpen":14263,"ĠProp":14264,"ĠParc":14265,"ĠAmway":14266,"ecno":14267,"awatt":14268,"SAM":14269,"ĠBrut":14270,"ĠScreen":14271,"ĠAndri":14272,"ĠRobusta":14273,"ĠDavos":14274,"ĠTechCrunch":14275,"ĠMcM":14276,"anyang":14277,"ĠAPEC":14278,"ĠSanofi":14279,"Ġstent":14280,"iences":14281,"ĠHanayuki":14282,"ĠKarik":14283,"Ġjazz":14284,"ĠMbps":14285,"ĠAgutt":14286,"ergus":14287,"ĠFrankfurt":14288,"ngoÃłi":14289,"ilding":14290,"ĠFilm":14291,"ĠBorg":14292,"ĠAcademic":14293,"ikaa":14294,"ĠGwang":14295,"ĠGwyneth":14296,"ĠSherpa":14297,"ĠInnova":14298,"ĠChallenger":14299,"Huáº¿":14300,"Æ¯T":14301,"ĠVieON":14302,"ĠFukushima":14303,"Ġmatcha":14304,"ĠMedicine":14305,"ĠMemphis":14306,"ĠFlower":14307,"visor":14308,"ĠChisako":14309,"ĠKlein":14310,"Ġrouter":14311,"ĠHolyfield":14312,"ĠMuhammad":14313,"kacz":14314,"ĠBRICS":14315,"ĠAguttes":14316,"290":14317,"370":14318,"680":14319,"EIC":14320,"FBI":14321,"GT":14322,"Kiáº¿n":14323,"NQ":14324,"STE":14325,"WD":14326,"cÆ°á»Ľp":14327,"háº¡nh":14328,"luyá»ĩn":14329,"mini":14330,"made":14331,"zou":14332,"zman":14333,"Ġtáº¥y":14334,"nhaz":14335,"ĠÄĳáº§n":14336,"ĠbÃŃch":14337,"Ġthong":14338,"ĠthÃ¬nh":14339,"ĠsÃªn":14340,"Ġsá»¯ng":14341,"Ġháº¥t":14342,"ĠchÃŃt":14343,"ĠkhÃŃt":14344,"Ġdáº·t":14345,"Ġdáº«m":14346,"Ġpol":14347,"ĠTÆ¡":14348,"ĠTÃºc":14349,"ĠTina":14350,"ĠNeo":14351,"ĠNer":14352,"Ġrá»įi":14353,"ĠrÃ¬u":14354,"ĠCáº¯t":14355,"ĠCAS":14356,"ĠCurt":14357,"ĠCindy":14358,"ĠHeo":14359,"ĠHem":14360,"ĠHoll":14361,"cháº¿t":14362,"ĠMuan":14363,"ĠMá»¡":14364,"ĠVB":14365,"ĠBAFTA":14366,"ĠÄĲÃ©c":14367,"ĠSáº§u":14368,"ĠSAF":14369,"ĠLÃ¡t":14370,"ĠLeop":14371,"ĠListening":14372,"Ġhome":14373,"ĠPand":14374,"ĠPog":14375,"ĠPizza":14376,"ĠKumar":14377,"Ġ(-":14378,"ĠDylan":14379,"ĠGay":14380,"ĠGao":14381,"Ġtrá»Ľ":14382,"Ġ2031":14383,"Ġhá»Ļc":14384,"ĠChas":14385,"ĠChatham":14386,"ĠKhÃ´n":14387,"elly":14388,"ĠRel":14389,"Ġluáº©n":14390,"ĠFram":14391,"ĠFergus":14392,"ating":14393,"ĠGiven":14394,"umors":14395,"ĠWol":14396,"ĠWei":14397,"ĠWendy":14398,"ĠWuling":14399,"raham":14400,"ĠHoon":14401,"ĠYuri":14402,"ÄĲáº£ng":14403,"omon":14404,"ĠOai":14405,"aci":14406,"TrÃł":14407,"oba":14408,"azaki":14409,"ĠghÃª":14410,"Ġgháº»":14411,"ĠMartha":14412,"Ġ176":14413,"ĠRev":14414,"Ġ133":14415,"125":14416,"ĠJoong":14417,"ĠJoaquin":14418,"khÃ³a":14419,"ĠConference":14420,"ĠCars":14421,"Ġxoang":14422,"ĠLoewe":14423,"SEP":14424,"rios":14425,"ĠVNVC":14426,"ĠKhuÃ´n":14427,"endra":14428,"ĠRobo":14429,"ĠMcD":14430,"ĠMcEn":14431,"haa":14432,"ĠOrlando":14433,"ĠAboluowang":14434,"ĠAvanza":14435,"ĠMenhaz":14436,"ĠHaley":14437,"leton":14438,"ĠISRO":14439,"ĠTodd":14440,"ĠBrooke":14441,"ĠNeptune":14442,"otterdam":14443,"ĠKeys":14444,"ĠInfinity":14445,"ĠAlejandro":14446,"ĠHaval":14447,"Ġuranium":14448,"ĠDominic":14449,"ĠJudy":14450,"ĠSawaco":14451,"ĠBenzema":14452,"ĠSprint":14453,"ĠHadid":14454,"ĠFrancois":14455,"ĠBavaria":14456,"BIDV":14457,"ĠPhenikaa":14458,"ĠUllring":14459,"ĠLincoln":14460,"%-":14461,"At":14462,"Alex":14463,"BYD":14464,"CÃłng":14465,"Data":14466,"EM":14467,"Gáº·p":14468,"HC":14469,"Lau":14470,"Mer":14471,"Mess":14472,"PGS":14473,"Ra":14474,"Roy":14475,"Roland":14476,"Sw":14477,"Tel":14478,"Uá»ĳng":14479,"Viáº¿t":14480,"VAC":14481,"bÃ©":14482,"col":14483,"core":14484,"dom":14485,"fit":14486,"gá»Ńi":14487,"gá»įi":14488,"gá»¡":14489,"háº¿t":14490,"har":14491,"jj":14492,"kÃŃch":14493,"mÃłu":14494,"má»¥c":14495,"mÃ¨s":14496,"night":14497,"pan":14498,"viÃªm":14499,"vaccine":14500,"á»¥y":14501,"Ġcall":14502,"ĠlÃ¡c":14503,"Ġluá»ĳng":14504,"Ġnhá»ĳi":14505,"Ġneed":14506,"ĠgÃ³a":14507,"Ġdis":14508,"Ġpor":14509,"Ġcá»£t":14510,"Ġquáº¡":14511,"ĠquÄĥng":14512,"ĠHáº¡c":14513,"ĠHwang":14514,"ĠBÄĲ":14515,"ĠBella":14516,"ĠBever":14517,"onment":14518,"ĠTrÃŃch":14519,"ĠTrail":14520,"ĠSG":14521,"ĠSIM":14522,"ĠSophie":14523,"aux":14524,"ĠPET":14525,"ĠNgá»įn":14526,"ĠKaw":14527,"ĠDáº¿":14528,"eni":14529,"ĠQCG":14530,"ĠChop":14531,"iass":14532,"Ġyá»ĥ":14533,"ĠFit":14534,"ĠFro":14535,"ĠFoot":14536,"icron":14537,"Ġsocola":14538,"ĠGiáº½":14539,"ume":14540,"Ġbaby":14541,"ĠWick":14542,"ĠWord":14543,"ĠEug":14544,"ĠJha":14545,"uster":14546,"Ġngá»£m":14547,"Ġchun":14548,"ĠHoáº±ng":14549,"ÄĲang":14550,"ÄĲá»ķi":14551,"ÄĲÆ°a":14552,"Ġ192":14553,"trá»Ł":14554,"Ġtab":14555,"oku":14556,"Äĳá»ĳt":14557,"Ġtá»ĭnh":14558,"upta":14559,"1985":14560,"Ġ169":14561,"PhÃ¡o":14562,"utan":14563,"Ġ182":14564,"ogn":14565,"Ġ131":14566,"khÃ¡m":14567,"ĠShan":14568,"egov":14569,"Ġxá»ı":14570,"sonian":14571,"link":14572,"Ġ299":14573,"Kháº£o":14574,"anni":14575,"ĠGrie":14576,"ĠSamantha":14577,"ĠMyung":14578,"ĠchÃ³p":14579,"trek":14580,"ĠCamero":14581,"inder":14582,"Ġ375":14583,"ippi":14584,"ether":14585,"ĠMadagascar":14586,"Ġstart":14587,"ĠAbb":14588,"Ġ1961":14589,"rene":14590,"ĠHermÃ¨s":14591,"ĠMarta":14592,"ĠÆ¯ng":14593,"ĠRosa":14594,"ĠAmericano":14595,"ĠMCH":14596,"ĠSabeco":14597,"Aliass":14598,"enzen":14599,"ĠCentre":14600,"ĠTurner":14601,"ĠTurbo":14602,"ĠHealthcare":14603,"ĠFils":14604,"ĠDrew":14605,"Marathon":14606,"redit":14607,"ĠUsha":14608,"ĠRatings":14609,"ĠDevelopment":14610,"Colombia":14611,"ĠMixue":14612,"ĠAcecook":14613,"ĠEvoque":14614,"ĠDXG":14615,"Vinhomes":14616,"ĠReyes":14617,"HÄĲQT":14618,"ĠRihanna":14619,"agrave":14620,"ĠDollar":14621,"ĠHarmony":14622,"ĠTomatoes":14623,"ĠMellon":14624,"ĠBÄĲS":14625,"Aliassime":14626,"\"?":14627,"Dá»ĭu":14628,"Gem":14629,"Hub":14630,"Lon":14631,"Lisa":14632,"On":14633,"TuyÃªn":14634,"Val":14635,"VáºŃy":14636,"Vá»ĩ":14637,"WF":14638,"Wonders":14639,"aa":14640,"dan":14641,"gn":14642,"hel":14643,"len":14644,"lene":14645,"nd":14646,"nÃºt":14647,"sberg":14648,"tiÃªm":14649,"tide":14650,"worth":14651,"µm":14652,"Â²":14653,"Ġus":14654,"ĠtÃŃt":14655,"ĠÄ©":14656,"ĠvÃ£i":14657,"Ġbáº¹p":14658,"Ġbeen":14659,"ĠthÃ©t":14660,"Ġhanh":14661,"ĠnhÃ¡m":14662,"Ġnháº¥m":14663,"ĠnÃºm":14664,"Ġgr":14665,"ĠgÃłu":14666,"Ġcháº£nh":14667,"Ġkháº½":14668,"Ġpart":14669,"ĠTol":14670,"ĠTáº·ng":14671,"ĠTecno":14672,"Ġvá»©c":14673,"Ġchá»Ľm":14674,"ĠCod":14675,"ĠCMC":14676,"ĠVE":14677,"ĠVM":14678,"ĠViÃªm":14679,"ĠBun":14680,"ĠBÆ°á»Łi":14681,"ĠÄĲÃ³n":14682,"ĠLÆ°á»£t":14683,"ĠPaw":14684,"ĠNgÃł":14685,"ĠKin":14686,"ĠKost":14687,"ĠKFA":14688,"ĠKelli":14689,"ĠKobe":14690,"ĠDnipro":14691,"ĠNhÃ¡nh":14692,"ĠPhys":14693,"ĠKhÃ¢u":14694,"ĠRic":14695,"ĠRis":14696,"ĠRá»įt":14697,"ĠRotten":14698,"ĠRotterdam":14699,"ĠFis":14700,"ĠFoster":14701,"Ġná»¡":14702,"etown":14703,"ĠWas":14704,"ĠWBO":14705,"ĠYuan":14706,"ĠOTP":14707,"ĠOper":14708,"thong":14709,"thai":14710,"ThÆ°á»Ŀng":14711,"tráº¯c":14712,"tráº¯ng":14713,"Ġ159":14714,"ÄĳÆ°a":14715,"Chia":14716,"Ġdiva":14717,"akura":14718,"ĠAlaw":14719,"Ġ164":14720,"tex":14721,"Ġ188":14722,"Ġ189":14723,"ĠRep":14724,"ĠStyle":14725,"ĠHud":14726,"Ġ214":14727,"Ġ05":14728,"ampton":14729,"cow":14730,"ĠShaw":14731,"ĠSpears":14732,"idence":14733,"ious":14734,"Ġ290":14735,"ĠGriff":14736,"ĠGrigor":14737,"thá»Ń":14738,"ĠBrady":14739,"ĠGeneva":14740,"ĠBlake":14741,"afÃ©":14742,"ieson":14743,"ĠHeather":14744,"ĠAviation":14745,"ĠTVC":14746,"shin":14747,"ĠView":14748,"ĠShield":14749,"á»§a":14750,"ĠJenna":14751,"Ġ737":14752,"ĠEvening":14753,"ĠFederico":14754,"ĠRafa":14755,"And":14756,"ussier":14757,"ermo":14758,"active":14759,"ĠCrown":14760,"1984":14761,"ĠTaj":14762,"ĠSTEAM":14763,"Bá»ı":14764,"1974":14765,"ĠKyung":14766,"ĠGabbard":14767,"ĠACT":14768,"ĠJamieson":14769,"ĠConsult":14770,"MSB":14771,"tihad":14772,"ĠGordon":14773,"ĠCXA":14774,"ĠHurkacz":14775,"ĠJoyce":14776,"buÃ´n":14777,"ĠFabio":14778,"umbai":14779,"rolimex":14780,"Ġmethane":14781,"ĠDeveloper":14782,"ĠPolytech":14783,"ĠBengio":14784,"ĠEthereum":14785,"ĠPLX":14786,"ĠFOMO":14787,"ĠMcLaren":14788,"VFM":14789,"Ġbirdie":14790,"ĠChrome":14791,"ĠPhelps":14792,"ĠGustav":14793,"ĠHeritage":14794,"Ġdepot":14795,"ĠBrutalist":14796,"210":14797,"ATP":14798,"Bill":14799,"Dá»¯":14800,"Dá»ĭch":14801,"EH":14802,"Es":14803,"FTA":14804,"LÆ°á»£ng":14805,"Life":14806,"NV":14807,"NÃ´ng":14808,"NÃªn":14809,"Syr":14810,"Tuyá»ĥn":14811,"TiÃªm":14812,"Vladimir":14813,"We":14814,"bell":14815,"cÄĥng":14816,"cÅ©ng":14817,"cáº¯m":14818,"cini":14819,"hin":14820,"ple":14821,"quyáº¿t":14822,"tion":14823,"tama":14824,"trow":14825,"Ãįt":14826,"Æ¯u":14827,"Ġace":14828,"ĠÄĳiáº¿c":14829,"ĠvÃ¡t":14830,"Ġlá»±":14831,"Ġlem":14832,"ĠlÃ¨o":14833,"Ġmáº¡t":14834,"Ġhat":14835,"Ġhigh":14836,"ĠchÃłm":14837,"Ġnguyá»ģn":14838,"Ġtá»µ":14839,"Ġcá»¯u":14840,"ĠrÃłnh":14841,"Ġreal":14842,"ĠCollagen":14843,"ĠCDC":14844,"ĠCafe":14845,"ĠHÃ¡t":14846,"ĠHat":14847,"ĠHamb":14848,"ĠMáº£ng":14849,"ĠMol":14850,"ĠMICE":14851,"ĠVÃ¡y":14852,"ĠBI":14853,"ĠBR":14854,"ĠBuch":14855,"ĠÄĲiÃªu":14856,"ĠTrent":14857,"ĠSic":14858,"ĠSelena":14859,"ĠTháºŃn":14860,"ĠPos":14861,"ĠPink":14862,"Ġdá»Ĺi":14863,"ĠKra":14864,"ĠGAS":14865,"ĠChad":14866,"Ġ560":14867,"ories":14868,"ĠFai":14869,"ĠFur":14870,"ĠField":14871,"icy":14872,"olingo":14873,"ĠEb":14874,"ĠESA":14875,"roc":14876,"usa":14877,"ĠHomes":14878,"ĠXIII":14879,"ĠOman":14880,"Ġ191":14881,"adar":14882,"adal":14883,"thÆ°":14884,"2028":14885,"aguchi":14886,"Ġnhuá»ĩ":14887,"Äĳa":14888,"Äĳá»ķ":14889,"Triá»ģu":14890,"odie":14891,"ĠZai":14892,"ĠZoe":14893,"igl":14894,"pha":14895,"phÃ³ng":14896,"oir":14897,"Ġgháº¹":14898,"Ġtrá»¥i":14899,"Nhiá»ĩm":14900,"Ġfly":14901,"Ġ215":14902,"ĠArch":14903,"khuyáº¿n":14904,"ĠVietcap":14905,"ego":14906,"ĠConf":14907,"ĠCont":14908,"Ġ275":14909,"ĠGour":14910,"KhÃ³":14911,"ĠCoach":14912,"ĠAndres":14913,"afer":14914,"ĠRobbie":14915,"ĠRealme":14916,"ĠFrame":14917,"lexity":14918,"ĠArabia":14919,"ĠBenoit":14920,"HoÃłn":14921,"ĠAtt":14922,"ĠSaitama":14923,"ĠMississ":14924,"ĠHDR":14925,"ĠPatric":14926,"ĠShib":14927,"insey":14928,"ĠGeorgetown":14929,"ĠJennie":14930,"ĠCompet":14931,"ucanu":14932,"ĠDisplay":14933,"ĠHSK":14934,"ĠNeu":14935,"ĠVCBF":14936,"cliffe":14937,"ĠHealthline":14938,"ĠNavig":14939,"ĠWatson":14940,"market":14941,"Barcelona":14942,"ĠJayoung":14943,"ĠAuger":14944,"ĠDolby":14945,"ĠAthens":14946,"Há»©a":14947,"Ġghá»ģnh":14948,"onoid":14949,"ĠTroussier":14950,"âĢĭâĢĭ":14951,"Europa":14952,"Ġfeel":14953,"ĠPedro":14954,"ĠGlory":14955,"Oscar":14956,"prise":14957,"Ġestrogen":14958,"ĠWarsaw":14959,"ĠCongo":14960,"ĠThunderb":14961,"ĠElliott":14962,"ĠATACMS":14963,"ĠKushner":14964,"ĠExplorer":14965,"Ronaldo":14966,"ĠKentucky":14967,"ĠPogba":14968,"ĠFerguson":14969,"London":14970,"ĠPolytechnic":14971,"780":14972,"FS":14973,"Gá»Ńi":14974,"Grab":14975,"Kiá»ĥm":14976,"Kur":14977,"LE":14978,"MÆ°a":14979,"Neo":14980,"Nap":14981,"Pi":14982,"QR":14983,"SM":14984,"UP":14985,"VÆ°á»Ŀn":14986,"dÃ¹ng":14987,"fun":14988,"fort":14989,"food":14990,"háº¡n":14991,"hor":14992,"hiá»ĥu":14993,"hÃ²a":14994,"kÃ½":14995,"nat":14996,"set":14997,"tÃºi":14998,"vÃŃ":14999,"von":15000,"xÃ¡c":15001,"ything":15002,"Ġá»ķi":15003,"Ġáº¯ng":15004,"Ġet":15005,"Ġidol":15006,"á»ī":15007,"ĠcáºŃt":15008,"nhÆ°ng":15009,"ĠlÃ³ng":15010,"Ġtráº¥u":15011,"Ġthere":15012,"Ġship":15013,"Ġshe":15014,"Ġmá»ĭ":15015,"ĠmÃ³p":15016,"ĠmÆ°á»Ľn":15017,"ĠchÆ°":15018,"ĠdiÃªm":15019,"Ġdáº¹t":15020,"Ġngáº©ng":15021,"ĠNCA":15022,"Ġxy":15023,"ĠrÃºng":15024,"ĠrÆ°Æ¡i":15025,"ĠCáº£o":15026,"ĠHá»Ļ":15027,"ĠBÃłu":15028,"ĠBreak":15029,"Ġmá»Ľ":15030,"ĠÄĲáº¡m":15031,"ĠÄĲáº©u":15032,"ĠTrai":15033,"ĠSapa":15034,"ĠLip":15035,"ĠKol":15036,"ĠGá»įi":15037,"ĠNháº«n":15038,"aline":15039,"ĠChau":15040,"iah":15041,"org":15042,"orph":15043,"ĠIU":15044,"ĠIron":15045,
[...]
